#version: 0.2
क े</w>
् र
े ं</w>
न े</w>
म ें</w>
र ्
ह ै</w>
क ी</w>
य ा</w>
ो ं</w>
ा र
स ्
स े</w>
औ र</w>
क ्
प ्र
क ो</w>
क ा</w>
ल ि
क ा
क र
व ि
त ा</w>
क ि
व ा
् य
म ा
र ा
क ि</w>
न ि
स ा
न ा</w>
ै ं</w>
न ्
प र</w>
त ्
ज ा
ल ा
ह ैं</w>
स ं
द े
ह ो
लि ए</w>
ब ा
भ ी</w>
द ि
ि त</w>
त ा
न ा
ी ं</w>
क र</w>
य ा
र ि
ह ा
द ्
प ा
ल े</w>
ह ीं</w>
ए क</w>
क् ष
त े</w>
ह ु
कि या</w>
न हीं</w>
ह ा</w>
म ि
त ्र
ल ्
ड ़
ह ी</w>
त ि</w>
म ु
थ ा</w>
इ स</w>
त ि
ज ि
अ प
य ों</w>
न ी</w>
ं ग
च ा
ल े
य ह</w>
द ा
ष ्
स ि
इ स
ल ी</w>
य ो
्य ा
क ो
भ ा
स म
ग या</w>
क हा</w>
द ी</w>
कर ने</w>
म ं
ी य</w>
ार ी</w>
स ी</w>
त ी</w>
ल ा</w>
ध ि
म े
श ्
ह ि
प ु
प ू
ध ा
का र</w>
ल ो
उ न्
भ ार
स् थ
श ा
क े
स ी
ट ्र
र ो
स ु
र ू
स र
ह ो</w>
क ु
रा ज
मं त्र
सा थ</w>
त र
् य</w>
उ न
ार ा</w>
ग ा</w>
ग ा
न ों</w>
ं ने</w>
म ्
य े</w>
न ु
दे श</w>
अ धि
ज ो</w>
र ह
र ी</w>
स क
न े
त ो</w>
श ि
उ स
फ ि
क ्र
ज ा</w>
ओ ं</w>
ड ि
हो ंने</w>
त ु
स े
दि या</w>
उन् होंने</w>
क ार
त् र</w>
ब ी
2 0
च ्
व े
र े
मंत्र ी</w>
व र्
प ह
भार त</w>
प ी
च ि
प ्
व ह</w>
अ नु
बा द</w>
ब ं
नि र्
द् व
व ा</w>
ह म
प रि
अप ने</w>
श ्र
ज ़
का र्
द ा</w>
ज ी
द्व ारा</w>
ट ी</w>
स ा</w>
रू प</w>
म ी
उ प
त क</w>
ं ग</w>
म ो
ब ि
ार े</w>
मा म
ख ा
क र्
पू र्
ग ी</w>
स् ट
प्र ति
थ ी</w>
ग ई</w>
र ी
थ े</w>
हु ए</w>
स ू
क् त</w>
द र्
ब ्
ग ्र
प्र ा
ब े
ग ों</w>
को ई</w>
ल य</w>
च ु
व ्य
ि यों</w>
स्थ ा
र ु
ह म</w>
भ ि
पु लि
ं द
नि य
ढ ़
व ी
श न</w>
ंग े</w>
र ा</w>
रह े</w>
पुलि स</w>
न ी
ग ए</w>
इ ं
व े</w>
त र</w>
सर कार</w>
यो ज
ल ों</w>
उ त्
द ू
मा न</w>
ी न</w>
म ा</w>
अ ं
ि क</w>
कु छ</w>
म ौ
लो गों</w>
जि स
20 1
ज ी</w>
ख ि
ह ें</w>
स् ता
द ो
प ी</w>
ै ं
कर ते</w>
रा ष्
ट ी
कि सी</w>
श ु
ड ़</w>
क ों</w>
क्ष ा</w>
र हा</w>
क ारी</w>
य ु
ट ि
प ि
ब ना
क्ष े
न् य</w>
त ीय</w>
र े</w>
ट ्
उन के</w>
क ृ
ट े
र ख
ज े
म ह
प े
प ो
द् र</w>
ं च</w>
ग ु
इस के</w>
ध ्य
राष् ट्र
न ्या
द ु
र ही</w>
पह ले</w>
वा ले</w>
क् ष</w>
कि न</w>
त े
सि ं
म ै
चा र</w>
इ न</w>
राज ्य</w>
आ ई
श े
म ैं</w>
अप नी</w>
मा न
ग ि
हा ं</w>
जा ए
ज ्
ले किन</w>
दे श
माम ले</w>
ल ी
तर ह</w>
मु ख
ड़ ी</w>
ट र</w>
ए स
लि या</w>
ं कि</w>
र् ट</w>
ह र</w>
यो ग</w>
मि ल</w>
सक ता</w>
्र े
श्र ी</w>
ं ब
क् या</w>
र् थ
हो ने</w>
म ी</w>
भार तीय</w>
स भी</w>
ग र</w>
ड़ ा</w>
ज ब</w>
कर ना</w>
उन् हें</w>
सं बं
ज ै
अ व
सिं ह</w>
द ौ
धा न
जा ता</w>
स ब
फि ल्
आ प
द ो</w>
ए व
चा हि
अ भि
प र
ब हु
एव ं</w>
ब ढ़
त था</w>
ब ो
ब ता
सम य</w>
क ै
दे ख
ं ड
चाहि ए</w>
त ी
आ रो
खि ला
ह त</w>
कि ए</w>
उस के</w>
म ू
ट ा
स ो
रा न</w>
त ों</w>
ध न</w>
अ न्य</w>
कार् य
ज ू
बा त</w>
प ा</w>
ह ू
क्र ि
उ स</w>
हु आ</w>
दा न</w>
च् छ
ल गा
भ ू
का म</w>
ख ़
हो गा</w>
लो ग</w>
ग े</w>
ड ी
वि श्
स् प
ड़ े</w>
क ॉ
व ी</w>
ज ु
ख ु
क् ति</w>
य र</w>
ज् ञ
कर े
वा र</w>
स र</w>
य ू
ध ार
शा मिल</w>
ब ै
फिल् म</w>
कर ता</w>
क्षे त्र</w>
हु ई</w>
जा न
सू च
बहु त</w>
ं द्र</w>
ंग ्रे
ता ओं</w>
प् त</w>
व र</w>
मो दी</w>
फ ा
प ै
पा स</w>
च् च
स् व
ज ो
ख ्
क ई</w>
फि र</w>
ड ा
प हु
दो नों</w>
प्र धान
फ ्
ध ि</w>
क ं
दू सर
ब ु
्य ू
न्या या
प्रधान मंत्री</w>
दि ल्
बी च</w>
द े</w>
ज न
द ्य
स ह
ब ारे</w>
आ ई</w>
य न</w>
स्थ ि
उ से</w>
र ों</w>
ल न</w>
ं च
कर ण</w>
ए न
ग ो
ं ड</w>
ग त</w>
नि क</w>
प ति</w>
त हत</w>
उन की</w>
दिल् ली</w>
का ंग्रे
जा ने</w>
दौ रान</w>
ं ट</w>
पा र्
घ ट
क ़
बा र</w>
आ प</w>
खिला फ</w>
0 0</w>
त ्य
कांग्रे स</w>
1 9
ध ी</w>
सक ते</w>
त ं
जा ंच</w>
ए ं</w>
व न</w>
ज ारी</w>
क ी
ज ब
्र ा
क ह
आ र
या चि
वि का
सा र</w>
व ै
सा म
र ू</w>
हो ता</w>
प र्
ज्ञ ा
धा न</w>
स मा
इ न
मा र्
भा ग</w>
डि या</w>
उ न</w>
बता या</w>
रु प
ज न</w>
न ो
फ ़
फ ै
ो ड़</w>
दा र</w>
धा र</w>
कार ण</w>
स र्
कर् ता</w>
विका स</w>
अ ध्य
न ू
ल ग
र क्षा</w>
स् वा
ष् ट</w>
क म</w>
अधि क</w>
हा ला
स द
ए म
द ि</w>
पूर् ण</w>
आ व
ध ित</w>
तु म</w>
प्र देश</w>
ल त</w>
स्ता न</w>
कर ा
य ी</w>
घ ा
भ ा</w>
सम ्
न् न</w>
दे ने</w>
झ े</w>
सब से</w>
ए स</w>
स् त
श ा</w>
क ता</w>
ति यों</w>
पूर् व</w>
फ ो
दि न</w>
निय म</w>
द ी
म ों</w>
ख े
र ण</w>
राष्ट्र ीय</w>
म हि
ड े
च ित</w>
च ी
स् ट</w>
वा ली</w>
मा र</w>
ब र</w>
वि शे
त्र ों</w>
दर् ज</w>
ब ी</w>
श ी
ंद ्र
ार ों</w>
गा ं
इस लिए</w>
ड ी</w>
जाए गा</w>
ए म</w>
भ े
शु रू</w>
ण ा
मि ल
योज ना</w>
ऐ सा</w>
चा ह
चु ना
वा ई</w>
ना म</w>
म हा
श ो
अ च्छ
मु झे</w>
क्ष ण</w>
प ं
वा दी</w>
ल ग</w>
ौ र</w>
भा ज
स्था न</w>
यु क्त</w>
र् ड</w>
क् यो
द न</w>
हू ं</w>
पा कि
ले कर</w>
श ्य
व ्या
द् ध</w>
कं प
ग्र ा
त ै
या ं</w>
न्याया लय</w>
हम ारे</w>
फ ी</w>
ट्र े
ब ैं
ं स</w>
स भा</w>
मंत्र ा
ठ ा
या न</w>
तु म्
ब द
ढ ़</w>
क्यो ंकि</w>
व ल</w>
ट ा</w>
लि ख
ण ा</w>
स् वी
ार ि
प्र भा
इस से</w>
य ल</w>
ं त</w>
भाज पा</w>
प त्
ति क</w>
ह न</w>
ार ा
छ ा
स न</w>
च े
ओ र</w>
का नू
ग ठ
ब च्च
ऐ से</w>
राष्ट्र पति</w>
द्य ो
व्य व
मंत्रा लय</w>
इ से</w>
ह ै
आ गे</w>
त् व</w>
भ ी
बै ठ
मुख ्य
जै से</w>
पार् टी</w>
कर ें</w>
ज ़</w>
स्थि ति</w>
उ म्
त ीन</w>
म ृ
ए क्
क ू
वा द</w>
पु र</w>
ता र</w>
अनु सार</w>
ह में</w>
ध ्या
आव श्य
द ्र
टी म</w>
क्र म</w>
वर् ष</w>
हाला ंकि</w>
्य ों</w>
द ों</w>
जिस में</w>
अप ी
पाकि स्तान</w>
अ लग</w>
र त</w>
निर् मा
इस में</w>
न ई</w>
ट े</w>
सम झ
प्रा प्त</w>
घट ना</w>
क ल</w>
आ देश</w>
ट न</w>
प्र े
चुना व</w>
इ स्
नि या</w>
व्य क्ति</w>
मुख्य मंत्री</w>
ता न</w>
कर ोड़</w>
हा र</w>
फ े
च ा</w>
रुप ये</w>
देश ों</w>
ख् या</w>
अ मे
य क</w>
म ित</w>
ख़ ु
याचि का
उस की</w>
अ गर</w>
ने ता</w>
संबं ध</w>
अ ला
पो र्ट</w>
ब ल</w>
आ ज</w>
वर् त
य हां</w>
छ ो
म द
न ौ
घ ो
कु मार</w>
ज र</w>
ह े
ज े</w>
उस ने</w>
कार् य</w>
वा ला</w>
जा ना</w>
वा स</w>
प री
को र्ट</w>
श त</w>
य र
व ज
त् व
य त</w>
के वल</w>
ग ्
स्थ ित</w>
यो ग
स् त</w>
के ट</w>
अधि कारी</w>
पू री</w>
मु ख</w>
आ धार</w>
बढ़ ा
हो ती</w>
सद स्
य ो</w>
अमे रि
प्र ो
के ंद्र
अला वा</w>
से ना</w>
भि न्न</w>
प्र दान</w>
य दि</w>
हा ल</w>
ल ॉ
व ो
या र</w>
म त</w>
उ द्
प्रति शत</w>
श र्
अ भी</w>
उम् मी
सं ख्या</w>
हो गी</w>
ज वा
न रे
उत् पा
फै स
ंब र</w>
हि स्
2 0</w>
ग े
अप ना</w>
ब ल्
विशे ष</w>
न ीय</w>
सा न</w>
अ ल्
दूसर े</w>
अध्य क्ष</w>
प्र कार</w>
मौ जू
20 0
स ै
अ ब</w>
हम ने</w>
वि चार</w>
सूच ना</w>
घ र</w>
स् था</w>
अधि कार
आ र</w>
ष् ठ</w>
क्रि या</w>
का फी</w>
मुख ्य</w>
त्र ा</w>
सु रक्षा</w>
्या दा</w>
ला ह</w>
ब ॉ
जब कि</w>
सक ती</w>
प्र दर्
च् च</w>
अधि नियम</w>
ं द</w>
ल ब्
ख़ु दा</w>
म न</w>
म क</w>
प्र मुख</w>
श् वर</w>
ल ू</w>
स् तु
श ी</w>
ता ल</w>
क् स</w>
तुम् ह
उप लब्
त र्
से वा</w>
बैं क</w>
जान कारी</w>
पहु ंच
वि भिन्न</w>
प्र ति</w>
स्था प
निर्मा ण</w>
ध ी
अ स्प
क द
ज हां</w>
पि छ
वा ल</w>
आ योज
स्ट े
बे ह
नि श्
व ृ
हा ँ</w>
लो क
सा मा
प ता</w>
मौ त</w>
त ौर</w>
ह ित</w>
गि र
करे ंगे</w>
खा न</w>
स चि
ब ्र
न ल</w>
ह ों</w>
ब ड़ी</w>
मे रे</w>
म् म
बना ने</w>
ट् र</w>
माम ला</w>
वि त</w>
इस का</w>
दि खा
ल ने</w>
धार ित</w>
ज रू
दि ए</w>
उन का</w>
अ दा
मा ल</w>
ष ण</w>
वि त्
र् स</w>
बैठ क</w>
च ल</w>
ड ल</w>
गां धी</w>
ल ु
सा इ
ंग ा
मद द</w>
ध ा</w>
प क्ष</w>
प त्र</w>
उत् तर</w>
ल ड़
त ब</w>
आ ं
द ्या
निर् ण
कानू न</w>
च ौ
जि न
संबं धित</w>
ण ी</w>
कंप नी</w>
अ र्
स हा
जा ती</w>
जी वन</w>
स ब</w>
वे श</w>
सा ं
आरो पी</w>
ग ै
इं डिया</w>
मी र</w>
घो ष
श ल</w>
पू रा</w>
स्वा स्थ
भा व
जा र</w>
क श्
थ ा
ख ा</w>
ए ल</w>
शि का
ल ता</w>
ए फ
क भी</w>
वि धा
रि पोर्ट</w>
य हो
इ ला
स्वास्थ ्य</w>
लि ये</w>
ग ी
तै यार</w>
न् द्र</w>
वि भाग</w>
परि वार</w>
ष् ट
ल ैं
मि क</w>
य ता</w>
उ ठा
अ ग
भ ु
त ु</w>
ध्या न</w>
कार्य क्रम</w>
ड ्
ना ओं</w>
यहो वा</w>
प ढ़
ज्ञा न</w>
च र्
अस्प ताल</w>
उ ल्
ग ं
आरो प</w>
स फ
भ र</w>
ड ॉ
याचिका कर्ता</w>
ध ारा</w>
केंद्र ीय</w>
ल र</w>
प ार
ट ों</w>
ला ख</w>
द ारी</w>
निर्ण य</w>
दु निया</w>
वि द्या
अदा लत</w>
प श्
ग वा
त म</w>
साम ने</w>
पह ली</w>
उप योग</w>
ज ग
नी ति</w>
ज ्यादा</w>
ऐ सी</w>
महि ला</w>
कु ल</w>
ब यान</w>
ग ू</w>
ंग ी</w>
रा त</w>
द ृ
अव सर</w>
1 0</w>
ब ड़ा</w>
कर ती</w>
ना ग
ण ों</w>
के ंद्र</w>
प ड़
अधिकार ियों</w>
जिस के</w>
मु द्
ल ं
मौ के</w>
कश् मीर</w>
न जर</w>
रो ध</w>
पिछ ले</w>
त्व पूर्ण</w>
ख ो
ध्य म</w>
आ ने</w>
हो ते</w>
र् म</w>
रख ा</w>
ज़ ि
गा र</w>
स द</w>
ू त</w>
हो ंगे</w>
उपलब् ध</w>
व हीं</w>
प्र ि
श् य</w>
स् तर</w>
रा म
गिर फ्
अ न
आ तं
प्र त्य
म त
पा ल</w>
क ल्
ब न
श्र ी
जि से</w>
य म</w>
ं क</w>
वि ष
ला गू</w>
न ए</w>
भा ष
उ च्च</w>
प्र या
अधि कार</w>
सा ल</w>
फ ी
माम लों</w>
मी डिया</w>
स ौ
रह े
ज़ ा
लैं ड</w>
स मि
मे श्वर</w>
ज ल्
डि यो</w>
आप को</w>
शि क्षा</w>
व्यव स्था</w>
आ वे
कृ त</w>
र ल</w>
च ो
ज ों</w>
इस की</w>
सम र्थ
सचि व</w>
जि स</w>
निश् चित</w>
ंग ्
ट ल</w>
ता कि</w>
क ौ
जा ए</w>
ऑ फ</w>
ज य</w>
नि का
न ंबर</w>
ज ल</w>
हम ारी</w>
इस ी</w>
ना थ</w>
बा इ
पर मेश्वर</w>
लि क</w>
च ीन</w>
ह रा
1 9</w>
जि न्
क्ष ित</w>
उस का</w>
करे गा</w>
जे पी</w>
मह त्वपूर्ण</w>
कर के</w>
क्ष ि
बं धन</w>
विश् व</w>
ब ड़े</w>
प्र क्रिया</w>
कर ी
व र
अं तर
ट ो
201 7</w>
अल् लाह</w>
जी त</w>
पू र</w>
मै ंने</w>
स् कू
अप रा
स्प ष्ट</w>
तर ी
द र</w>
हो ना</w>
बा हर</w>
प न</w>
प्र स्तु
मा ंग</w>
अ ति
राज ्यों</w>
ट र
ंग ा</w>
च ार
ब न</w>
कार ्र
मा ना</w>
ब ना</w>
प्र का
स्ट ा
0 00</w>
ष ि</w>
मा ध्यम</w>
वा र्
म ता</w>
व ों</w>
मौजू द</w>
त्र ी</w>
ले ने</w>
विश् व
वि क</w>
त ना</w>
वा लों</w>
म ि</w>
दे ते</w>
पि ता</w>
च े</w>
त् मक</w>
नाग रि
व रि
कार्र वाई</w>
त ार
गठ न</w>
स ित</w>
न गर</w>
ड ब्
ह र
बी जेपी</w>
प क्ष
रा म</w>
हु ल</w>
क् यों</w>
भ ो
प्र ी
क्षे त्रों</w>
प्रति वादी</w>
कृ ति</w>
व ो</w>
उम्मी द
शर् मा</w>
क्ष ्य</w>
मु ंब
भ ग</w>
क ट</w>
नरे ंद्र</w>
लग भग</w>
कै से</w>
ब र
हा सि
देख ा</w>
पू छ
बा त
भू मि
स् ट्रे
रा हुल</w>
सम ू
म ार
बना या</w>
ण ्
जाए गी</w>
पु र
श ह
द् धि</w>
सं युक्त</w>
अमेरि का</w>
ं त्र
कर् ताओं</w>
5 0</w>
सं स्
क ल
आरो प
द् धा
क पूर</w>
प्रदर् शन</w>
स मु
रा ज</w>
ल ंब
देश क</w>
स ों</w>
द क्षि
भा ई</w>
क् टर</w>
े क</w>
समि ति</w>
न् द्र
बि ना</w>
अ फ
त ्या
व्य क्
भ व</w>
आ र्थ
पा नी</w>
पा र</w>
ट्र ा
पश् चि
ला ने</w>
उ सी</w>
भू मि</w>
1 0
द र
वा स्त
को वि
. 0
मह ारा
नि ष्
क् ता</w>
मुंब ई</w>
ल ना</w>
आयोज ित</w>
कृ षि</w>
इस् ते
तर फ</w>
दे ता</w>
र् फ</w>
आर्थ िक</w>
मे ंट</w>
जा ते</w>
सह ित</w>
शा सन</w>
ख ंड</w>
ड र</w>
सह योग</w>
रख ने</w>
हिस् सा</w>
इस्ते माल</w>
क म
उ पा
स के</w>
वर्त मान</w>
य ं
रि या
बल् कि</w>
बच्च ों</w>
तं त्र</w>
मह ी
सु न
लगा या</w>
वरि ष्ठ</w>
मै च</w>
न ्यू
ल ै
गिरफ् तार</w>
श्र े
प्रस्तु त</w>
ला भ</w>
म े</w>
तुम्ह ारे</w>
समर्थ न</w>
याचि का</w>
प्र स्ता
अपी ल
ट ू
से वा
ष्ट ि</w>
स्वी कार</w>
ग ृ
ल गा</w>
श ि</w>
कर् म
गं भी
उ क्त</w>
आवश्य कता</w>
ड ा</w>
आ योग</w>
फो न</w>
आ ए</w>
ति म</w>
वर् ष
अ स
म जब
जि ले</w>
गु ज
जि ला</w>
कार् या
ए च
प रे
वा प
ग ़
फैस ला</w>
चर् चा</w>
बं ध</w>
उ द्यो
अ र्थ
पर् या
विश् वास</w>
म्म ू</w>
ए ल
श ब्
ज म्मू</w>
त् या</w>
त ः</w>
म ति</w>
अच्छ ा</w>
वी डियो</w>
पू रे</w>
दि नों</w>
ला ई</w>
म ध
शिका यत</w>
क्रि केट</w>
अ र
मि ले
सी मा</w>
बं द</w>
आवश्य क</w>
जिस से</w>
ड ो
सदस् य</w>
ध ्
मे री</w>
जवा ब</w>
ड ॉ</w>
टि ंग</w>
परि णा
वज ह</w>
ट क</w>
भ ारी</w>
पं जा
प द</w>
रह ने</w>
महि ला
i n
सं र
नि यों</w>
कार ों</w>
सा र्
घा यल</w>
सहा यता</w>
पह चा
अव धि</w>
श ं
आवे दन</w>
वि धान
भूमि का</w>
त थ
सर कारी</w>
समझ ौ
पु न
व हां</w>
जै सा</w>
व ु
स ही</w>
का ं
इ न्
स ड़
ल ू
मि ला</w>
व रण</w>
स्थाप ित</w>
रि क्त</w>
पी एम</w>
दू र</w>
को शि
अ न्
निय ु
श क</w>
जन ता</w>
रा शि</w>
थ ीं</w>
दि व
य े
शा ह</w>
ट् स</w>
ग यी</w>
व री</w>
पा ंच</w>
उत् तर
चाह ते</w>
बो र्ड</w>
अनु मति</w>
र न</w>
खु द</w>
1 5</w>
मि ली</w>
सं शो
ग्र ी</w>
राज ्य
स त</w>
प्रा व
ए फ</w>
स मान</w>
त ृ
पुर स्
र ण
सम स्
के न्द्र
धि क</w>
महारा ष्
ब्र ि
या त्रा</w>
आ या</w>
त ो
ट्र ो
1 2</w>
, 000</w>
दु र्
प ट
टे ड</w>
बना ए</w>
ॉ र्
त् ता</w>
आ त्
ल ते</w>
सि र्फ</w>
क्ष ा
पे श</w>
जग ह</w>
झ ा
a n
भु ग
नि ग
का ल</w>
ष् य</w>
प ड़ा</w>
अ म
स ल
ए क
निर् देश</w>
द ल</w>
ले ख</w>
चु के</w>
ल् ड</w>
अच्छ ी</w>
सा नों</w>
का म
श क्ति</w>
महाराष् ट्र</w>
प्रया स</w>
प्र ौ
ब स</w>
कद म</w>
न्या य
रा नी</w>
दे श्य</w>
अपी ल</w>
प्र णा
ला या</w>
ी क</w>
मार् ग</w>
वित् त</w>
1 2
विधान सभा</w>
प्रत्य ेक</w>
धि यों</w>
क्ष मता</w>
दक्षि ण</w>
ध ों</w>
उद् देश्य</w>
1 .
द्यो गि
पंजा ब</w>
सामा न्य</w>
त क
अति रिक्त</w>
ण ि
न र</w>
र ह</w>
श ु</w>
ग्रा म</w>
ग र्
ब ू
ख री
दूसर ी</w>
तर् गत</w>
सु र
ए जे
र् ष</w>
ग ढ़</w>
रि या</w>
जरू रत</w>
स वाल</w>
3 0</w>
य ू</w>
त न</w>
खे ल</w>
श हर</w>
गंभी र</w>
भाव ना</w>
सार् वज
सार्वज निक</w>
पै दा</w>
लि त</w>
प्रति नि
क प्
निय ंत्र
य ही</w>
दा वा</w>
नि देशक</w>
दे ना</w>
प्रौ द्योगि
ल ें</w>
ला इन</w>
हि ं
तु म
भुग तान</w>
वु ड</w>
पत् नी</w>
का ब
ल् य</w>
बेह तर</w>
उत्पा दन</w>
नी तिक</w>
च ना</w>
जल् द</w>
चु नौ
जि क</w>
सा झ
201 6</w>
ड े</w>
श ै
टे स्ट</w>
सं दर्
योज न</w>
ल ो</w>
उन से</w>
य ु</w>
घोष णा</w>
वा यर
कि त्
लिख ित</w>
विद्या लय</w>
पी छ
लिख ा</w>
कह ना</w>
a t
आतं क
हासि ल</w>
म ारी</w>
म् मे
ब चा
दा यर</w>
कि सानों</w>
कोशि श</w>
ला इ
द ें</w>
त् य</w>
अं तिम</w>
चि कित्
ट ो</w>
ंद र</w>
ं क
कर े</w>
मू ल</w>
परी क्षा</w>
पा या</w>
अपरा ध</w>
कोवि ड</w>
वि धान</w>
निर् धारित</w>
कह ते</w>
हू ँ</w>
19 9
ह मे
a r
पा लन</w>
ठ ीक</w>
फ ़</w>
रि कॉ
स्कू ल</w>
समू ह</w>
र् जा</w>
आ म</w>
कर ो</w>
पत् ति</w>
ग ण
दि र</w>
आप के</w>
ार ो
वा न</w>
ं सी</w>
पहचा न</w>
विशे ष
पुरस् कार</w>
हमे शा</w>
वि ज्ञान</w>
उस से</w>
या त</w>
1 1</w>
उ चित</w>
ल ब</w>
उद्यो ग</w>
पी ड़
रे ल
मही ने</w>
प सं
ला ल</w>
करी ब</w>
सु निश्चित</w>
नि या
मं डल</w>
प्र योग</w>
ज रि
मं जू
ल ौ
दि शा</w>
वृ द्धि</w>
ह त्या</w>
सूच ी</w>
प क</w>
मी न</w>
ग्र ह</w>
ह ्
आ धारित</w>
ब र्
भाष ा</w>
प ृ
ग ति</w>
विष य</w>
त्र ि
ना एं</w>
त ने</w>
बि हार</w>
वि रोध</w>
पश्चि म</w>
पहु ंच</w>
आ त</w>
स्था नों</w>
बि क</w>
भ र्
बी आई</w>
मू ल्य</w>
लोक सभा</w>
ठ ा</w>
लग ता</w>
मु ता
नि वेश</w>
वाप स</w>
ले ख
कृ तिक</w>
तरी के</w>
ली वुड</w>
गुज रात</w>
मी टर</w>
व क</w>
प्रौद्योगि की</w>
प्रभा वित</w>
ग ति
ज ल
दि यों</w>
सो शल</w>
ब ्रा
आ ए
कप् तान</w>
हा थ</w>
जि न</w>
च न</w>
वि क
स्था नीय</w>
इं टर
म ॉ
न व
थ ि
सु धार</w>
व ारों</w>
201 8</w>
्य ू</w>
र ं
ब ंगा
मृ तक</w>
ज न्
है ः</w>
गृ ह</w>
प्रणा ली</w>
ारि श</w>
रेल वे</w>
ती सर
सामा जिक</w>
महिला ओं</w>
र सू
मध ्य</w>
अ क्
ट् वी
ब ा</w>
भर् ती</w>
नि जी</w>
र् थ</w>
मे रा</w>
प्रा धि
फैस ले</w>
द क</w>
से ं
ध ु
श री
राष् ट्र</w>
क्ष क</w>
चाह ता</w>
व ही</w>
स् ट्र
मू ल
आ दि</w>
अ नि
वि देश</w>
्र ि
ऊ र्जा</w>
र ै
बा जार</w>
सि द्धा
अमेरि की</w>
र ु</w>
ब ह
प्र बंधन</w>
च ै
परि वर्त
मुता बिक</w>
ज र्
ं प</w>
पीछ े</w>
सं घ</w>
त य</w>
रिकॉ र्ड</w>
व क्त</w>
थ ो
या द
ध ो
ल गे</w>
्य ता</w>
र् जी</w>
वा ही</w>
ा ई</w>
या द</w>
मजब ूत</w>
मं दिर</w>
दा य
सम् मे
प्र शि
बच्च े</w>
म नो
ह ी
कि ंग</w>
व्या पार</w>
ची त</w>
शा ं
ग ये</w>
वि वाद</w>
च रण</w>
ट्वी ट</w>
सम ी
देश ी</w>
ऊ पर</w>
श नल</w>
201 9</w>
पर् य
ध ीन</w>
म न
सं गठन</w>
बात चीत</w>
सु प्री
ं सि
अं त
शि व
व ीं</w>
ए ँ</w>
राज नीतिक</w>
भ र
योज नाओं</w>
परि योजना</w>
वर् ग</w>
शे यर</w>
त ला
रसू ल</w>
समा ज</w>
सम ारो
लगा तार</w>
न्याया धी
ह स्ता
ह रिया
केन्द्र ीय</w>
जिस का</w>
बा जी</w>
चु की</w>
हम ले</w>
प्रस्ता व</w>
तार ी
जो र</w>
करा या</w>
त स्वी
म गर</w>
सदस् यों</w>
द स्ता
इ ल</w>
ख ू
क ब्
1 4</w>
बि ज
1 6</w>
द् ध
शु रु
ब ित</w>
पह ला</w>
सम्मे लन</w>
फ ॉ
बंगा ल</w>
ल् स</w>
म ण</w>
श ित</w>
संदर् भ</w>
तक नी
ब न्
ना टक</w>
ने ट</w>
भा ग
ग्रा मी
बॉ लीवुड</w>
नि त</w>
को ह
छा त्रों</w>
मंजू री</w>
1 8
उम्मी द</w>
प्रभा व</w>
व क्ता</w>
क ह</w>
प ॉ
दस्ता वे
ं चा
सड़ क</w>
य ी
e n
उन में</w>
जि म्मे
र ॉ
उ प</w>
हरिया णा</w>
ग ौ
नि शा
क हा
न ै
ब रा
देख ते</w>
ब ढ़</w>
2 5</w>
नी चे</w>
प्र मा
वा ह</w>
अभि यान</w>
व ार
रुप ए</w>
1 8</w>
फ ा</w>
च ू
मि यों</w>
हा द
चु का</w>
सं विधान</w>
इन में</w>
समारो ह</w>
ति हा
ारि ज</w>
ड़ ों</w>
फ र
कौ न</w>
या ँ</w>
राज स्थान</w>
अपील कर्ता</w>
सं बो
आ ग</w>
प्रा थ
चि ं
कि ये</w>
1 3</w>
स्ट ि
ल यों</w>
पार ित</w>
रख ते</w>
र ो</w>
स दी</w>
ने ताओं</w>
तुम् हें</w>
याद व</w>
विक सित</w>
सं स्थान</w>
प्र वेश</w>
सं पत्ति</w>
विश्व विद्यालय</w>
क्र ी</w>
सा बित</w>
रि श्
स् पे
सुप्री म</w>
क थ
बा ज</w>
परि ष
ख ारिज</w>
क मी</w>
य हाँ</w>
ले क्
वि रा
गै र</w>
ग्र ह
बढ़ा ने</w>
श व</w>
त त्
व हन</w>
ल् क</w>
का उ
फा य
ल क</w>
यो गी</w>
ड़ ने</w>
ए ं
लि मि
पी डब्
व्य क्त</w>
बल् ले
यी शु</w>
जा न</w>
ट ै
ज़ रू
ग िक</w>
1 7</w>
दे ख</w>
मृ त्य
मो ह
सं चा
20 20</w>
प क
हम ारा</w>
तृ त्व</w>
ग लत</w>
ढ ा
अच्छ े</w>
व त</w>
उ दा
सम े
हि ंद
चा र्
सूच ित</w>
स ल</w>
त नी</w>
कल् प</w>
ने क</w>
ब ने</w>
ते ल</w>
संशो धन</w>
आ द
प्र ार
दा ताओं</w>
भी तर</w>
गां व</w>
ह ॉ
इन कार</w>
आरोप ियों</w>
स हम
मु काब
ब द्ध</w>
e r
उम्मीद वार</w>
साम ना</w>
वास्त व</w>
मु ला
रे ल</w>
सफ ल</w>
े गा</w>
ह रण</w>
लिमि टेड</w>
दो ष
रो क
े ंगे</w>
लगा ने</w>
व न
धार ण</w>
वि ध
कि स</w>
ध र्म</w>
शि या</w>
अग ले</w>
मु कद
न या</w>
ष् ट्र
निय मों</w>
201 5</w>
ख तर
सं सा
प न्न</w>
नि म्
पूर् ति</w>
स्ट र</w>
रा य</w>
बे टे</w>
म सी
ने तृत्व</w>
ग्रह ण</w>
तु लना</w>
्रा ष्ट्र
ठ ी</w>
टा इ
लो क</w>
वित् तीय</w>
छ ु
्र ी
मिल ने</w>
ज य
1 00</w>
गे ंद
कि ल</w>
कार् ड</w>
भ वि
भे जा</w>
अ मित</w>
कर ी</w>
उप स्थित</w>
नु क
भवि ष्य</w>
्राष्ट्र ीय</w>
न्या य</w>
वि धा</w>
मुद् दे</w>
व्यक् तियों</w>
च र</w>
पर् क</w>
कोह ली</w>
साम ग्री</w>
परी क्षण</w>
ब े</w>
रो ज
ता ब</w>
कार्या लय</w>
ल क्ष्य</w>
रि क</w>
ल हाल</w>
प ्या
स् थ</w>
परिणा म</w>
आई पी
प् प
श ू
ध े</w>
न्यायाधी श</w>
आई सी
घोष ित</w>
की मत</w>
एक् स
विधा यक</w>
र ता</w>
तर ण</w>
क ़</w>
प्रे र
स्ट्रे लिया</w>
टि स</w>
ठ ि
जु ड़े</w>
रह ते</w>
उन को</w>
फ ल</w>
कर् नाटक</w>
फ ्रे
आयोज न</w>
कार्य वाही</w>
i o
सी ट</w>
जिन् होंने</w>
व ्
1 5
सल मान</w>
गा ँ
शा दी</w>
ल कर</w>
दिव स</w>
नुक सान</w>
गति वि
दी प</w>
ए ंड</w>
साइ ट</w>
दे ह</w>
बे टी</w>
देख ने</w>
शब् द</w>
मार् ट
छ ोड़</w>
ते जी</w>
संबं धी</w>
नियंत्र ण</w>
मृत्य ु</w>
फ़ ि
फि लहाल</w>
म र
ड़ ा
सु विधा</w>
टे ल</w>
आ र्
ं भ</w>
समा प्त</w>
अंतर ्राष्ट्रीय</w>
परिष द</w>
आ न
ला व</w>
कल ्या
व की
ति यां</w>
अ प्र
ग्रामी ण</w>
फ ु
प्र श्
सम क्ष</w>
शु ल्क</w>
दि ना
अभि योजन</w>
क हीं</w>
जिस ने</w>
अनु सं
अं तर्गत</w>
भ रो
अध्य यन</w>
च ला</w>
क्र े
दि त</w>
सर् वो
न् तु</w>
सां सद</w>
3 .
2 .
चार ियों</w>
क्ष ता</w>
1 4
म ना
नागरि क</w>
प्र शासन</w>
द् वि
म ध्य
2 4</w>
व ॉ
नरे न्द्र</w>
201 4</w>
क्ष म</w>
सुर क्षित</w>
रा ब</w>
पो र्
सम् मान</w>
का त</w>
कॉ ले
ट् टी</w>
2 1</w>
ड ्र
के स</w>
वि देशी</w>
डॉ लर</w>
स्थ ल</w>
करे गी</w>
त रा
ंक न</w>
वर्ष ों</w>
लि यन</w>
प ित</w>
क्षे त्र
चुनौ ती</w>
स् ते</w>
क त</w>
ह ैं
पहु ँ
कानू नी</w>
सं सद</w>
व ें</w>
क ला
जरि ए</w>
सं भव</w>
को रो
शी र्ष</w>
वा यु</w>
ते ज</w>
बढ़ा वा</w>
प्रका श</w>
समु दा
इ तिहा
मान व</w>
ई ं</w>
ग्र े
ज नों</w>
तथ ्य</w>
अ नेक</w>
जिन् हें</w>
चिकित् सा</w>
त ें</w>
ने शनल</w>
उस में</w>
शी ल</w>
म श
रोज गार</w>
जान ते</w>
भा व</w>
र म</w>
म् स</w>
न् न
क ट
त ू</w>
मा ने</w>
स्थाप ना</w>
य द</w>
परिवर्त न</w>
जिन में</w>
शुरु आत</w>
छो टे</w>
मा ं</w>
सं भावना</w>
म र्
कर्म चारियों</w>
रा हत</w>
जू द</w>
बा व
ए न</w>
अनुसं धान</w>
सर् व
अ थ
त्र ता</w>
s t
सं पर्क</w>
दि ल</w>
मू र्
ब नी</w>
ह री</w>
य ं</w>
बिज ली</w>
वै श्
इं डि
द् य</w>
o r
री ज</w>
क्ष र</w>
स ला
ज ता
इला ज</w>
कंप नियों</w>
जाए ंगे</w>
प्रशि क्षण</w>
करा ने</w>
पर्या प्त</w>
समस् या</w>
खिला ड़ी</w>
वृ त्
संबो धित</w>
बेह द</w>
स प्
अ ली</w>
शां ति</w>
अ धीन</w>
ज मा</w>
पे ट्रो
थ म</w>
शि ष्ट</w>
वा सी</w>
बाइ बल</w>
बद लाव</w>
कि लो
सी सी
म र</w>
7 0</w>
क् शन</w>
जै सी</w>
को ण</w>
त ू
हो कर</w>
न वा
पीडब् लू</w>
ब ता</w>
उल् लेख</w>
ई मान</w>
बाव जूद</w>
2 2</w>
के न्द्र</w>
1 ,
कथ ित</w>
सा फ</w>
जा ति</w>
घ न</w>
क्र ा
योग ्य</w>
धि कार
मि शन</w>
स्व यं</w>
स्ट ो
दा ता</w>
बि क्री</w>
उदा हरण</w>
वैश् विक</w>
श ों</w>
भे ज</w>
ब च
प्राव धान</w>
समी क्षा</w>
सा त</w>
पं जी
दूसर ा</w>
ए यर
प ौ
कल्या ण</w>
पसं द</w>
अ ग्र
र् च</w>
व्या पक</w>
योग दान</w>
सी बीआई</w>
वै ज्ञा
प् ले
छ ह</w>
आ वा
हाद से</w>
श क्
च ारी</w>
7 .
म्म द</w>
मे डि
सि यों</w>
ह रा</w>
सा क्ष्य</w>
स त्र</w>
मौजू दा</w>
इतिहा स</w>
भ वन</w>
भ ्र
गवा ह</w>
न न</w>
पुन र्
पी ठ</w>
सा द</w>
सि त
परि स्थि
ब धा
दिना ंक</w>
स क्षम</w>
त् सा
वकी ल</w>
ध र्
वि स्ता
क ड़ी</w>
यु द्ध</w>
इ ंग्
ै ल</w>
आ य</w>
अ भ
मुला कात</w>
ल गी</w>
सी टों</w>
पो स्ट
ध न
अर् थ</w>
विस्ता र</w>
न् व
यु वा</w>
अभि नेता</w>
रो क</w>
स जा</w>
डा य
भरो सा</w>
खि ल</w>
हम ला</w>
स्टे शन</w>
कृ ष्
च यन</w>
सं भा
पा त</w>
ल ्यू
अंतर राष्ट्रीय</w>
मा ता</w>
टी वी</w>
च ारों</w>
स्ट ी
झ ू
प्र स
19 8
इ च्छ
गाँ व</w>
मि ले</w>
सु विधा
रि ंग</w>
कि सान</w>
डि ंग</w>
ग री
ज़ ा</w>
स् त्र</w>
कार ो
ं दा</w>
बधा ई</w>
1 6
स म</w>
यू नि
मो बाइ
के रल</w>
छो ड़
प्र ती
आ य
जे ल</w>
4 .
घ ु
ब ारिश</w>
वे ब
र् थी</w>
वि केट</w>
पु ष्टि</w>
इ यों</w>
कल् प
पहुंच े</w>
लगा ए</w>
क् ट</w>
आ ती</w>
मु स्
स रा
ने वाले</w>
मोबाइ ल</w>
पु रु
ह जार</w>
कै म
रि ट</w>
ट ॉ
अ हम
अप्र ैल</w>
फो टो</w>
फ ्र
4 0</w>
ह े</w>
समे त</w>
हरा या</w>
उल् लं
ट्र ंप</w>
व्यक् ति
इ का
नो टिस</w>
क़ ा
प्र शा
मु श्
मिल कर</w>
सम झ</w>
तारी ख</w>
ख बर</w>
आ खि
न त</w>
प्रो त्सा
i c
सेवा ओं</w>
दिखा ई</w>
समझौ ते</w>
वा हन</w>
लि ंग</w>
त्र ियों</w>
रू प
म ती</w>
प्र थम</w>
ट ें</w>
वायर स</w>
ए ड
ड़ ियों</w>
व ्य</w>
न दार</w>
ला न</w>
परे शा
प्र धान</w>
द ारों</w>
पर वर
तै य
शरी र</w>
परवर दि
करा र</w>
क्रि या
सं देह</w>
च लते</w>
हस्ता क्षर</w>
फी सदी</w>
फ ू
ब ार
परि वहन</w>
प ड़े</w>
विरा ट</w>
ला गत</w>
सि टी</w>
इ लेक्
अ त्य
परवरदि गार</w>
उल्लं घन</w>
ु क</w>
उत् तरा
जरू री</w>
हि रा
फ़ ा
उम्मीद वारों</w>
ल ती</w>
पूर् वो
मुद् दों</w>
ब ज
बा ल</w>
एस टी</w>
स ारे</w>
गी त</w>
त् म</w>
अफ ्री
ट रों</w>
शो क</w>
प्या र</w>
201 3</w>
सि क</w>
स लाह</w>
धा नों</w>
ट्र ि
क् र</w>
सहा यक</w>
हिरा सत</w>
तर् क</w>
न दी</w>
थ ि</w>
निय मित</w>
गु ण
हा र्
ड ु</w>
सुन वाई</w>
हि न्
लि म</w>
चाह े</w>
कब् जे</w>
मत लब</w>
फ ्रा
घ ं
सु झा
ध र
कि यों</w>
कोरो ना</w>
अनु भव</w>
मार् च</w>
i t
या नी</w>
एन सी
स्व तंत्र</w>
निग म</w>
ख ों</w>
पा न</w>
राज ा</w>
अ ल</w>
वा ओं</w>
1 3
अभि ने
सप् ता
ऑ स्ट्रेलिया</w>
सं घ
गठ बंधन</w>
पहुंच ी</w>
a l
लि यों</w>
आ दि
5 .
नियु क्त</w>
मा इ
सं देश</w>
सू स</w>
मै न</w>
साझ ा</w>
दे गा</w>
अध्य क्षता</w>
आ इ
प दा
प्रा र्थ
स के
क मा
कॉले ज</w>
अथ वा</w>
प्रश् न</w>
उ द्य
सर्वो च्च</w>
समुदा य</w>
प्र चार</w>
मो हन</w>
तु र
दि ग्
प्रतिनि धि
ह टा
अप ना
इंग् लैंड</w>
वा णि
बद ल</w>
ट र्
खा द्य</w>
ा ओं</w>
न वी
वि जय</w>
मिले गा</w>
हा लत</w>
बा ंग्
धा नी</w>
वि ल</w>
द रा
सक ्रि
सा य
उ च्च
स्व रूप</w>
च ों</w>
ख ्या
नि क
मे ह
प्राथ मि
कर नी</w>
न ें</w>
र द्
अर ब</w>
फा इन
रा ह</w>
जन रल</w>
आ पूर्ति</w>
प्राधि करण</w>
ं ट
गै स</w>
ल ीन</w>
ना इ
श कों</w>
रहे गा</w>
घा टन</w>
सी एम</w>
नि पट
वि मान</w>
मोह म्मद</w>
अंत रि
छा त्र</w>
आं क
अनु रोध</w>
ं प
रह ता</w>
कि ताब</w>
संर क्षण</w>
भा गी
नियु क्ति</w>
निर् वा
ष ित</w>
ण ु</w>
च्च े</w>
वेब साइट</w>
त् तर</w>
श न
वाणि ज
वि शिष्ट</w>
अ ंग्रे
r e
अर्थ व्यवस्था</w>
र्थ ियों</w>
इला के</w>
ष् टि
प्रे स</w>
मेडि कल</w>
रे लू</w>
बन ने</w>
आ धिकार
मा नित</w>
6 .
घ रेलू</w>
ष् ठ
श ो</w>
कर्म चारी</w>
अभिने त्री</w>
टि व</w>
अधि क
सफ लता</w>
े द</w>
आ ता</w>
सं क्र
हिं सा</w>
स्था यी</w>
न् स</w>
शा यद</w>
प्रा कृतिक</w>
6 0</w>
ंड र</w>
ब ारी</w>
आधिकार िक</w>
राज नीति</w>
नि भा
मह सूस</w>
पु रा
इस् ला
ऑ न
अम री
सं जय</w>
ने ट
ब ह</w>
रहे ंगे</w>
समझौ ता</w>
क ैं
रद् द</w>
ज ित</w>
संसा धन</w>
सप्ता ह</w>
ची ज़</w>
ज्ञा पन</w>
सं तु
सा क्ष
ग न</w>
मा त्र</w>
सं गठ
टि प्प
पहु ंचा
ृ त</w>
जिस की</w>
ण् ड</w>
उद् घाटन</w>
शा नदार</w>
प्र वक्ता</w>
एजे ंसी</w>
ंड ा</w>
ं स
पर्य टन</w>
ए गा</w>
परिस्थि तियों</w>
ख़ ि
दोष ी</w>
ट ियों</w>
ंद गी</w>
ड ्रा
अ हम</w>
छ ि
र ंग</w>
बात ें</w>
प्राव धानों</w>
वा ह
सं स्थानों</w>
परि योजनाओं</w>
संस् कृति</w>
र दार</w>
8 .
रु ख</w>
बांग् ला
पृ थ
समा धान</w>
प्र साद</w>
व स्तु
याचिका कर्ताओं</w>
म् प
इ तना</w>
सब ूत</w>
रा व</w>
प टेल</w>
स्व तं
छ ू
न ज़
ं ख
उप भो
बि ल्
मा नों</w>
तर ित</w>
पे ं
ह वाई</w>
चा ई</w>
क प</w>
न्याय िक</w>
ब ्यू
र् ष
ण न</w>
आप की</w>
र ब</w>
वी र</w>
मा त्रा</w>
द बा
हि मा
है दरा
द ीन</w>
वि स्त
हा न</w>
स् व</w>
यं का</w>
उत् पन्न</w>
शह री</w>
च ी</w>
उत्पा द</w>
व ती</w>
हे तु</w>
प्रि यंका</w>
201 2</w>
म नी</w>
किलो मीटर</w>
प थ</w>
लॉ न्
क्र मों</w>
तुर ंत</w>
डि जि
खा स</w>
बचा व</w>
दे व
त ्</w>
रख ी</w>
सं चार</w>
पर्या वरण</w>
मिले गी</w>
ठ ो
ना य
ऋ ण</w>
खु शी</w>
सं के
ि ता</w>
सी ख
पा ने</w>
ज़ ी</w>
ख त्म</w>
बना म</w>
त मिल
ना डु</w>
आद मी</w>
प्रार्थ ना</w>
ले ंगे</w>
जान ता</w>
जन वरी</w>
आ उ
ँ कि</w>
रख ना</w>
दे ंगे</w>
मंत्र ि
का न</w>
बी र</w>
जन् म</w>
तीसर े</w>
ल क्ष
स्वतं त्रता</w>
ऑन लाइन</w>
म नु
न् त</w>
ता छ</w>
जा म</w>
द ंड</w>
प्रभा वी</w>
विध े
वा दियों</w>
अग स्त</w>
पं चा
म स्
झ ु
o n
9 .
निष् कर्
रो हित</w>
स ारी</w>
वि वा
स् तर
को ल
स्ता नी</w>
व ट</w>
इ रा
अर्थ ा
म ई</w>
ले ते</w>
सि द्ध</w>
संस् करण</w>
प्र गति</w>
ट्र ै
हैदरा बाद</w>
io n</w>
आई टी</w>
ब जे</w>
दे वी</w>
ह रे</w>
प्रे म</w>
कि त</w>
ग ल</w>
शा सित</w>
जा ये
यू रो
गि रा
1 7
सक्रि य</w>
न ि</w>
ज ॉ
पूछ ताछ</w>
फ र्
म ारे</w>
बु निया
मे ल</w>
म् बर</w>
पा ठ
शिव सेना</w>
कार् यों</w>
नि ंग</w>
च्छ ेद</w>
जू न</w>
पा ई</w>
ला ए</w>
आ श्
वर् क</w>
न ो</w>
दर् शन</w>
दर् शा
आई आर</w>
पो स्ट</w>
ार ण</w>
नागरि कों</w>
राज्य पाल</w>
ज री
द य</w>
मि श्र
न क</w>
तकनी की</w>
सहम ति</w>
शा ह
मान ना</w>
रा इ
कौ शल</w>
त ना
सरा ह
आतंक वाद</w>
अ ब्
तला श</w>
प ारी</w>
शिका य
ख र</w>
मौ सम</w>
अं त</w>
श्रे ष्ठ</w>
च ले</w>
समस् या
ब जा
क्षेत्र ीय</w>
जन क</w>
नि कों</w>
ट ्यू
तमिल नाडु</w>
दू री</w>
च ंद्र
सी रीज</w>
ब राम
निर् भर</w>
गुण व
धा र्
जि लों</w>
ध् र</w>
ज़ ्यादा</w>
क्र ो
तर ी</w>
बांग्ला देश</w>
ऑ फि
तै ना
च य</w>
सी खा</w>
आ ते</w>
स न
प्र कृति</w>
हि र</w>
201 1</w>
न तम</w>
प ि</w>
प त्र
बज ट</w>
वि धि</w>
स्टा र</w>
सु ना
प् ति</w>
वि रो
कह ने</w>
क्षे प</w>
आ यु
जिन के</w>
फिल् मों</w>
अस म</w>
मान नीय</w>
वि कल्प</w>
खो ज</w>
अ क्ष
अफ्री का</w>
इं त
बना ई</w>
मार्ट म</w>
े श</w>
मूर् ति</w>
चा लक</w>
वि भा
बे शक</w>
e r</w>
विधे यक</w>
2 3</w>
उस को</w>
इस् ती
ग ो</w>
ट ली</w>
ज मीन</w>
ट्र ॉ
सि फ
3 1</w>
श्र म</w>
हिस् से</w>
सि विल</w>
व्यक्ति गत</w>
आप रा
a l</w>
फाइन ल</w>
अं तर</w>
ब लों</w>
कर वा
रे ट</w>
जा नी</w>
बराम द</w>
अनु च्छेद</w>
पा ए</w>
ख् त</w>
जु लाई</w>
ख र्च</w>
अं क</w>
अनु मान</w>
मुश् किल</w>
रोक ने</w>
मुस् लिम</w>
3 0
व्यव हार</w>
संचा लन</w>
बा तों</w>
कु ल
i n</w>
निग रानी</w>
गतिवि धियों</w>
आपरा धिक</w>
ृ ंख
ट ने</w>
मत दान</w>
ज हाँ</w>
चो ट</w>
निय र</w>
श र
कॉ न्
स्वा गत</w>
व हाँ</w>
रा र</w>
प्रमा ण</w>
प्रेर ित</w>
पोस्ट मार्टम</w>
कार णों</w>
ड ू</w>
या ई</w>
ए ंगे</w>
संबं धों</w>
पूर् वी</w>
के जरी
दृ ष्टि
उ ड़ा
त् ती
ब ्या
ज्ञ ा</w>
अनि वार्
केजरी वाल</w>
खु ला
द्व ी
स क</w>
स पा</w>
ख ंड
ध र</w>
बि ल</w>
मु क्त</w>
दे ती</w>
ड ्यू
द्यो गिक</w>
र ख</w>
ह थि
अव ै
कहा नी</w>
डिजि टल</w>
जि ए</w>
स् क</w>
हा इ
ख ्य
तथ ्यों</w>
नु सार</w>
कह ता</w>
सिद्धा ंत</w>
आं ध्र</w>
श्रे णी</w>
स्वा मी</w>
रह ती</w>
प्रका शित</w>
उप चार</w>
श्री मती</w>
हि ता</w>
त् त</w>
वि वरण</w>
अ सर</w>
ली ज</w>
परि जनों</w>
न ारा
वै धा
मुकद मा</w>
मे ं
आरोप ों</w>
वैज्ञा निक</w>
त् कार</w>
सम र्
ले ना</w>
अ ंदर</w>
आ धु
हाला ँकि</w>
वास्त विक</w>
खरी द</w>
सुझा व</w>
न् ना</w>
ध क</w>
ह स्त
मूल ्या
आ कर्
इ म
लि का</w>
वि द्य
स ॉ
औ द्योगिक</w>
स ीय</w>
छ त्ती
प ण</w>
स ब्
अ ज़ा
जिम्मे दारी</w>
हिंद ू</w>
2 6</w>
ए शिया</w>
h a
एस पी</w>
ब री</w>
आत् म
कर ि
तुम्ह ारी</w>
सा हि
निम् न
पह ल</w>
ज हा
ज़ मीन</w>
सां स्
न् द</w>
म ज
धार् मिक</w>
च लता</w>
क ठि
शब् दों</w>
इंडि यन</w>
छत्ती स
चे न्
पीड़ ित</w>
सु बह</w>
पक्ष ीय</w>
पढ़ ें</w>
दे कर</w>
प वि
भ ौ
इं जी
2 8</w>
क ला</w>
आ गा
ट् वि
्य ु
बरा बर</w>
्र ो
वैधा निक</w>
भा र</w>
टे न</w>
नि प
मुकाब ले</w>
चिं ता</w>
उठा या</w>
यो गि
स् वर्
हा ई
शा ली</w>
प्रि य</w>
उठा ए</w>
प ड़</w>
का लीन</w>
अप े
सी मित</w>
सांस् कृतिक</w>
दे व</w>
ज स्टि
हो नी</w>
ं ज</w>
मै दान</w>
बढ़ कर</w>
प्रया सों</w>
बढ़ ा</w>
प्र शं
झ ार
हा ई</w>
5 00</w>
समा चार</w>
स्प र्
न ती
सराह ना</w>
न ॉ
अ ध्या
उप रो
वा सियों</w>
तस्वी र</w>
स च</w>
सं हिता</w>
ला ना</w>
अनु बंध</w>
सि स्ट
निर् यात</w>
ृंख ला</w>
लंब ित</w>
खा ते</w>
खु दा</w>
्य ो
म द्
उपरो क्त</w>
अ रु
ग्रा ह
बुनिया दी</w>
2 7</w>
कू ल</w>
जी एसटी</w>
अ प</w>
ता प
ना त्मक</w>
या त्रियों</w>
पाकि स्तानी</w>
अज़ा ब</w>
ड् स</w>
ई मान
दा स</w>
पृथ ्
मह त्व</w>
ल् म</w>
ए यर</w>
पड़ ता</w>
पर न्तु</w>
पूर् वक</w>
चेन् नई</w>
प्रति क्रिया</w>
अनिवार् य</w>
आ स
कर ू
ठ े</w>
सू त्रों</w>
हिं दी</w>
छत्तीस गढ़</w>
निम्न लिखित</w>
गुणव त्ता</w>
मूल्या ंकन</w>
सा ह
प् ला
मिल ता</w>
अभि युक्त</w>
राज धानी</w>
त ह
स ृ
घा य
सक ें</w>
ती नों</w>
रू स</w>
ंड े
मि लियन</w>
वायर ल</w>
वर् ती</w>
N o</w>
ब ों</w>
न्व यन</w>
स त
आ ग्रह</w>
र जि
मे गा
लंब े</w>
खा ने</w>
छोड़ कर</w>
न क
आप का</w>
201 0</w>
आ सान</w>
ढा ंच
आ ठ</w>
तत् काल</w>
भ गवा
ख ी</w>
२ ०
र ें</w>
अभ ्या
ंड े</w>
के शन</w>
खुला सा</w>
उत्पा दों</w>
आन ंद</w>
ंद न</w>
ल म</w>
स् ता</w>
घाय लों</w>
कि रदार</w>
ब ्रे
च् छ</w>
दौ रा</w>
ऑ परे
डॉ क्टर</w>
प ल</w>
ड् डी</w>
ख राब</w>
मद् दे
महा न</w>
दिखा या</w>
ष् टा
रख ता</w>
हाला त</w>
योग ्यता</w>
शह रों</w>
साझ े
मौ का</w>
भि क</w>
नि धन</w>
ह ौ
का ता</w>
दा खिल</w>
ज् ञ</w>
स् ती</w>
सं वे
राज नाथ</w>
शु भ
बा की</w>
टे ली
बल्ले बाज</w>
ख़ ा
ंद ो
लॉन् च</w>
द लों</w>
आ युक्त</w>
लड़ ाई</w>
निपट ने</w>
व नी</w>
डि जा
डि ग्री</w>
वि तरण</w>
अक् टू
घट ना
जस्टि स</w>
पश् चा
घ रों</w>
ध ू
पी सी</w>
ति थि</w>
शि प</w>
d i
अक्टू बर</w>
मा लिक</w>
शा ंत</w>
व ि</w>
दृष्टि कोण</w>
दुर् घटना</w>
भे ज
ब्या ज</w>
विस्त ृत</w>
मंत्र ियों</w>
19 7
जा ग
पा य
ची नी</w>
अवै ध</w>
सर कारों</w>
r a
संके त</w>
विधा य
न ज
दौ रे</w>
स का</w>
उप राष्ट्रपति</w>
आ शा</w>
से ट</w>
खु श</w>
कोल काता</w>
बा न</w>
श्री लं
के श</w>
ँ गे</w>
धर ती</w>
आ वास</w>
वि परी
ध्य क्ष</w>
ट्रा यल</w>
इला कों</w>
ह ल</w>
ना ं
ज म
टे क्
सै न्य</w>
वर् धन</w>
तुम्ह ारा</w>
इन के</w>
विपरी त</w>
देख ें</w>
जा पान</w>
व ं
भागी दारी</w>
ने वाला</w>
डा ला</w>
पृथ् वी</w>
ल ्यू</w>
श्र ृंखला</w>
ट ु
नेट वर्क</w>
रह ना</w>
मद्दे नजर</w>
संगठ नों</w>
राज स्व</w>
सिस्ट म</w>
फर वरी</w>
आ ंदो
जवा न</w>
म् ब
धि कार</w>
शे ष</w>
ष ों</w>
झार खंड</w>
पा क</w>
नि वे
वि वे
सी सी</w>
फ र</w>
प दक</w>
द गी</w>
बना ना</w>
अन् तर्गत</w>
बैं कों</w>
हैं ः</w>
शै क्ष
उम् र</w>
न ही</w>
मॉ डल</w>
ज मान
अफ गा
भो जन</w>
वि जे
कार्य कारी</w>
त्र ु
स ह</w>
ज्ञा त</w>
इस े
डब् ल्यू
स ्रो
स त्ता</w>
औ र
0 .
अ ना
न ये</w>
ह द</w>
सी धे</w>
लो ड</w>
पूछ ा</w>
वि शा
पुरु ष</w>
फ् ट</w>
अक् सर</w>
ल् ला</w>
मजब ू
खिला ड़ियों</w>
फा इ
सा व
छू ट</w>
8 0</w>
त ारी</w>
दू र
कि रा
आ का
प्रतिनिधि त्व</w>
2 9</w>
गवा हों</w>
निष्कर् ष</w>
भगवा न</w>
दस्तावे ज</w>
द ू</w>
बा नी</w>
रे शन</w>
सम् मानित</w>
वो ट</w>
अ ड्
अक्ष य</w>
वे तन</w>
ट्वि टर</w>
नि कल</w>
पू जा</w>
2 ,
दृ ष्टि</w>
मू सा</w>
व चन</w>
सौ ं
तैना त</w>
ण े</w>
एन डी
नि हित</w>
श ख्
ब हन</w>
व्यव सा
मंत्रि मंडल</w>
अ धी
नि रं
ब्रि टेन</w>
गु प्
ध नों</w>
सर्व श्रेष्ठ</w>
यु वाओं</w>
दि ल
मान ्यता</w>
आतं की</w>
पूर्वो त्तर</w>
न म</w>
कर ा</w>
ज ब्
मु द्र
e s</w>
रि लीज</w>
ँ च</w>
फ रार</w>
ार ी
ट्र ी</w>
भा ल</w>
ए च</w>
को च</w>
रो ल</w>
दि सं
भा षण</w>
द स</w>
त व्य</w>
संर चना</w>
बजा य</w>
ति हासि
प्रति योगि
पु स्
दि ष्ट</w>
स्त ु</w>
सं गीत</w>
अधि कां
सो च</w>
दिसं बर</w>
तिहासि क</w>
क़ ी
मं च</w>
नि र
व ारी</w>
अ ल
विश् ले
अनि ल</w>
लि यम</w>
छो टी</w>
ध री</w>
थ ों</w>
आ क
दबा व</w>
वार् ष
टा न</w>
च ढ़
निश् चय</w>
ना क</w>
बी मा</w>
य ंस</w>
ल ट</w>
् र</w>
ख ड़े</w>
फाय दा</w>
मा नी</w>
ंग ल</w>
सं कट</w>
म ण्
जा कर</w>
पू ं
जु न</w>
क् यू
डा ल</w>
ती श</w>
चाह ती</w>
र वि
नाय डू</w>
गौ र
क ही</w>
व स्तु</w>
आ जा
19 6
को र</w>
इन् हें</w>
r o
उत्तर दाताओं</w>
अ के
200 9</w>
ध ता</w>
स्टे ट</w>
परि सर</w>
ब हा
अधिकार ों</w>
पर मा
श्रीलं का</w>
सी टें</w>
e c
ं तु</w>
विद्य ु
ं भिक</w>
उपा य</w>
सेवा एं</w>
20 0</w>
ज ारों</w>
3 5</w>
दौ र</w>
लड़ की</w>
अभ्या स</w>
को य
पक्ष ों</w>
च ने</w>
नि स्तान</w>
सं स्था
संवे द
महा मारी</w>
वा णी</w>
पि क्
उच्च तम</w>
दृ श्य</w>
ध म
सा गर</w>
पश्चि मी</w>
उठा ने</w>
शुभ काम
ते ल
ण िक</w>
दि क</w>
उ र्
2 5
जु ड़ी</w>
4 4</w>
पें शन</w>
श पथ</w>
ई रान</w>
निष् पा
अधिकां श</w>
ड्रा इ
आधु निक</w>
ऐ तिहासिक</w>
उ ठा</w>
टिप्प णी</w>
पै से</w>
वि ंद</w>
u r
आ लो
e s
ं टन</w>
नि री
धो नी</w>
आप त्
ट्रे स</w>
च र
कु र</w>
कारो बार</w>
जमान त</w>
े गी</w>
वस्तु ओं</w>
आतंक वादी</w>
ड न</w>
करा ई</w>
डाय रे
ब ू</w>
कर् मियों</w>
उप स्थिति</w>
शु रू
मै चों</w>
निर्वा चन</w>
चू ंकि</w>
टि ल</w>
राज्य सभा</w>
चौ धरी</w>
क ने
वे ं
उप करण</w>
सू ट</w>
इच्छ ा</w>
आ म
कैम रा</w>
स ो</w>
दो स्त</w>
नौ सेना</w>
प्रत्य क्ष</w>
नी ल</w>
अधि सूचना</w>
व्या व
प्रा सं
आस पास</w>
जा या</w>
सित ंबर</w>
क ू</w>
बा ं
एस सी</w>
ला इसे
स ख्त</w>
सि ंग</w>
रख े</w>
आंदो लन</w>
सि न्
प हा
श्र द्धा
लि य
बच्च न</w>
वार्ष िक</w>
0 0
सी मा
व रों</w>
स ारा</w>
मान ता</w>
सु ल
स् त्री</w>
गो वा</w>
प दों</w>
इस्ती फा</w>
शख् स</w>
मान ते</w>
फा इल</w>
पे ज</w>
तेल ंगा
कार्य क्रमों</w>
सला ह
तैय ारी</w>
पेट्रो ल</w>
आगा मी</w>
न्यू नतम</w>
रं जन</w>
बिल् कुल</w>
द्वी प</w>
डे टा</w>
थ ियों</w>
गिरा वट</w>
कार ा
दाय ि
फॉ र्म</w>
सा धारण</w>
आउ ट</w>
स श
दूसर ों</w>
म तों</w>
क न</w>
पु त्र</w>
मिल ती</w>
हस्त क्षेप</w>
चुना वों</w>
निर् दिष्ट</w>
्या दा
ने स</w>
प्रा इ
मनु ष्य</w>
र् य</w>
पहुंच ा</w>
द्वि पक्षीय</w>
चो पड़ा</w>
प िक</w>
एफ आईआर</w>
ए शन</w>
प्र दू
इका ई</w>
तेलंगा ना</w>
एक् स</w>
मुख र्जी</w>
प्रति बंध</w>
ट र्स</w>
दा बाद</w>
ग ंगा</w>
क्ष कों</w>
त कर्ता</w>
जु र्
अ तः</w>
्यादा तर</w>
हिमा चल</w>
मिल ते</w>
दे र</w>
ने पाल</w>
दे न</w>
बा दी</w>
ष्टा चार</w>
रु द्ध</w>
नव ंबर</w>
मृ त
स् क्र
रा य
शू टिंग</w>
ए ंड
तना व</w>
ट्र िक</w>
आ कार</w>
बी मारी</w>
बा ढ़</w>
म क
a m
क ट्
पवि त्र</w>
9 0</w>
I n
नि रा
स् पि
मुकाब ला</w>
१ ९
नो ट</w>
सम ृ
निर् दे
अ जय</w>
समस्या ओं</w>
भ ंड
घट नाओं</w>
निर्मा ता</w>
ओ डि
सु रे
शा ला</w>
ंड ी
न ग
i l
19 5
क् टरों</w>
रह ें</w>
i s
लोक तंत्र</w>
अ शोक</w>
रो ड</w>
ति न</w>
हा उस</w>
वि फल</w>
ब त</w>
क् वा
द म</w>
वृत् ति</w>
चे ता
अहम द</w>
वाह नों</w>
ह ार
ड ु
प्राथमि कता</w>
निर् मित</w>
सि र</w>
P W
वि वाह</w>
ट्रे न</w>
ण ित</w>
रे ज</w>
हि क</w>
यू पी</w>
पि का</w>
स् य</w>
वि द्
संशो धित</w>
स्तर ीय</w>
टि कट</w>
शं कर</w>
ले न</w>
म ला</w>
आए ंगे</w>
अस ल</w>
इंजी निय
परमा णु</w>
स्व स्थ</w>
सा नी</w>
सो निया</w>
च ली</w>
रो ग</w>
बं दी</w>
ट िक</w>
मुद् दा</w>
अब् दु
इ तनी</w>
विरो धी</w>
जि स्ट्रे
स न्
अभि न
ग ईं</w>
4 5</w>
ध् या</w>
द ंड
श नों</w>
खू ब</w>
भ ट्
्य वाद</w>
जिम्मे दार</w>
प्र ा</w>
ड र
तस्वी रें</w>
स निक</w>
राज ी
ग ें</w>
आईपी एल</w>
बढ़ ने</w>
गिरफ् तारी</w>
पड़ ो
स वार</w>
पार् टियों</w>
इंटर नेट</w>
द्ध ता</w>
प्र भ
ले गा</w>
इम रान</w>
ख ड़ा</w>
गुप् ता</w>
य हू
न्याय मूर्ति</w>
संघ र्ष</w>
ट री</w>
एक् ट्रेस</w>
ला स</w>
औ सत</w>
संक्र मण</w>
ल ख
ब ल
निर् देश
हाई कोर्ट</w>
मृ त</w>
भ्र ष्टाचार</w>
ग ू
ताप मान</w>
ग म</w>
लि न</w>
कर णों</w>
सलाह कार</w>
पंजी करण</w>
सं सद
मान व
निर् धारण</w>
ंग ों</w>
बता ते</w>
धी रे</w>
अंतरि क्ष</w>
म ल्
बि नेट</w>
ारा त्मक</w>
फ्रा ंस</w>
ते रे</w>
आ यात</w>
म जिस्ट्रे
पे ट</w>
प्रा चीन</w>
बु री</w>
परि क</w>
एस ो
वे स्ट
फा ई</w>
त ोड़</w>
परिणा म
सीसी आई</w>
राज मार्ग</w>
या त्री</w>
ला कर</w>
मे श</w>
न्या स</w>
कार ियों</w>
डा उन</w>
गण ना</w>
दी पिका</w>
क ीय</w>
बा द
राजी व</w>
in g</w>
बद ला</w>
निर् देशों</w>
बे ंग
अफगा निस्तान</w>
3 2</w>
स्कू लों</w>
वार् ता</w>
स् पी
शा म</w>
आप ने</w>
र् ना
जल् दी</w>
प्र कट</w>
गा ह</w>
लंब ी</w>
ची फ</w>
ह ल्
ण ीय</w>
प्रासं गिक</w>
हिस् सों</w>
क् का</w>
घं टे</w>
e l
वे क्षण</w>
इं स्टा
ं ः</w>
द ली
पाठ ्य
स प
मि ता
ज़ ो
हिंद ु
अ का
स्व च्छ</w>
इस ्रा
ज ू</w>
ज त</w>
प राम
ढ़ ी</w>
भी ड़</w>
आ मंत्र
a s
म री
प्रभ ु</w>
प्रदर् शित</w>
बढ़ ती</w>
कै बिनेट</w>
स्व च्छ
न ्यू</w>
ठ हराया</w>
विधाय कों</w>
शह ी
क़ ु
जर् मनी</w>
डी जल</w>
रख ें</w>
क च्चे</w>
देख भाल</w>
ग्र ु
यूनि वर्
चु ना</w>
कर् म</w>
पराम र्
े ंद्र</w>
प्रतिनि धि</w>
त ौ
कल्प ना</w>
जी लैंड</w>
श ौ
पक्ष ी</w>
अधिक तम</w>
जता ई</w>
3 ,
प्रशा सनिक</w>
ह ल
सी ल</w>
सा थी</w>
नज़ र</w>
प्रोत्सा हित</w>
स्ट्र ी
ब ारा</w>
प्रो फे
ला भा
य ौ
सा मान</w>
क़ ौ
बी एस
च लने</w>
मजिस्ट्रे ट</w>
दि ख
संसद ीय</w>
मुख ्या
जल ि</w>
कॉ ल</w>
ठा कुर</w>
रि यर</w>
वा इ
वि स्
मण् डल</w>
ओडि शा</w>
अर् जुन</w>
ौ ती</w>
शुभकाम नाएं</w>
अनु रूप</w>
स व</w>
नि यां</w>
स्ट ॉ
सक ारात्मक</w>
पहुंच ने</w>
त् मा</w>
200 8</w>
प ों</w>
सिन् हा</w>
एजे ंसि
मसी ही</w>
ग ज</w>
वा द
सें टर</w>
ं तों</w>
व्यवसा य</w>
कार्य कर्ताओं</w>
सू रत</w>
इंस्टा ग्राम</w>
पूर् व
गु रु
ड़ ि
खा ना</w>
ए कल</w>
सुविधा ओं</w>
म ल
स च्
o l
परिणाम स्वरूप</w>
ज़रू रत</w>
2 4
परि वारों</w>
ढ ंग</w>
यु वक</w>
डिजा इन</w>
सर ों</w>
धन ्यवाद</w>
वाप सी</w>
एस एस</w>
प ारि
उत्तर ी</w>
डी ज</w>
त्र ा
अंग्रे जी</w>
तुम से</w>
वा स्ते</w>
रहे गी</w>
शक् ति
नौ करी</w>
एक मात्र</w>
शुरू आत</w>
प्रति स्पर्
पा स
पी एम
जे टली</w>
घ े
कॉ र्
जी ता</w>
सी ई
वि मर्
उ ठ
साझे दारी</w>
अर विंद</w>
7 5</w>
प्र त्या
म ज़
उपभो क्ता</w>
न्यू जीलैंड</w>
कृष् ण</w>
जो खि
गरी ब</w>
स ौ</w>
प्र बंध</w>
जरि ये</w>
उप युक्त</w>
o m
सि वा</w>
आ बादी</w>
जी व</w>
ए ह
म ल</w>
प े</w>
एसो सि
टि श</w>
ध व</w>
ब ौ
अ श्
फ ं
प ड़ी</w>
खतर ा</w>
निशा ना</w>
दस्तावे जों</w>
क ब</w>
क़ ि
विद्या र्थियों</w>
त मा
आत् मा</w>
भ ले</w>
हौ ल</w>
हो ंगी</w>
जो ड़
ग्रु प</w>
ने ह
समर् पित</w>
हु क्
हथि यार</w>
श नी</w>
पेट्रो लियम</w>
मिश्र ा</w>
विमर् श</w>
पे श
स्वी कृति</w>
वा ना</w>
पुस् तक</w>
मु आव
शी घ
लॉ क
लेख क</w>
न र
बढ़ ो
प्रार ंभिक</w>
शाह रुख</w>
न यी</w>
पी एस</w>
निर्देश ित</w>
सं तो
विद्यु त</w>
ह क
जल वायु</w>
क् कर</w>
कर ो
र ैं
चौ हान</w>
टू र्ना
वि चारों</w>
ले ट</w>
वि पक्ष</w>
सं कल्प</w>
पो षण</w>
है या</w>
सं स्था</w>
पर ंप
ट्र ो</w>
स्वच्छ ता</w>
त ता</w>
आ ख़ि
प्रतियोगि ता</w>
उल् लेख
पुरा ने</w>
र् क</w>
बि ंद
यु क्
दे री</w>
कि न्तु</w>
काउ ंट</w>
बु रा</w>
पिक् सल</w>
सब ुक</w>
द त्त</w>
स् ना
महा निदेशक</w>
गो यल</w>
रा स्ते</w>
गठ ित</w>
ं टी</w>
बा ई</w>
वाणिज ्य</w>
अ स्
नागरि कता</w>
ने वालों</w>
इलेक् ट्रॉ
ज र्स</w>
गे ंद</w>
बी सीसीआई</w>
सु नील</w>
वि रुद्ध</w>
नियंत्र ित</w>
ंग् स</w>
म ो</w>
इं जन</w>
सहम त</w>
आ ध्या
चेता वनी</w>
य न
अन ं
घ ु</w>
मा हौल</w>
शि खर</w>
से ल्
सु प्रा</w>
शर् तों</w>
अनु ष्
शो ध</w>
नि ंदा</w>
क हां</w>
सिफ ारिश</w>
शिकाय तकर्ता</w>
सु धार
a r</w>
एस एम
डि ट</w>
परेशा न</w>
स्था नां
मह त्
लू म</w>
ब्रि टिश</w>
गो ली</w>
जब् त</w>
मा ँ</w>
विश्ले षण</w>
प्र सिद्ध</w>
दि ये</w>
हि यों</w>
सर् वि
क ना
प्राथ मिक</w>
य क़ी
स्थि र</w>
इ जा
हा थों</w>
क मि
महा सचिव</w>
पंजी कृत</w>
म स
रै ली</w>
लि स्ट</w>
ए शि
रिश् ते</w>
म हो
जाग रू
10 .
आ यु</w>
वा य
न् वित</w>
थ े
रूप ये</w>
फा न</w>
अ मिता
जन् म
पु री</w>
आध्या त्
पुन ः</w>
टा टा</w>
चे क</w>
पु रा</w>
लु स</w>
जाए ं</w>
सै निक</w>
सद न</w>
श ारी
इं सान</w>
अन ्य
लाइसे ंस</w>
दा म</w>
नि कट</w>
सक ों</w>
ण ियों</w>
पंचा यत</w>
वन डे</w>
सर् वेक्षण</w>
I S
अमिता भ</w>
वे ट</w>
ल ंदन</w>
प्रदू षण</w>
कार्या न्वयन</w>
मो र्
बल्ले बाजी</w>
a n</w>
ज़ा र</w>
निरं तर</w>
बद ले</w>
कम जोर</w>
न मू
च लाने</w>
को रिया</w>
ली ग</w>
टूर्ना मेंट</w>
लगा ई</w>
समु द्र</w>
हक दार</w>
गेंद बाज</w>
जी तने</w>
म ंग
बी न</w>
कह ती</w>
इं ड
चे यर
देख ी</w>
क न्
ना मा
हुक् म</w>
दा वे</w>
शारी रिक</w>
बन र्जी</w>
ह फ्
वा यु
पौ लुस</w>
्यू टर</w>
आई सी</w>
निका ल</w>
वा ई
क् स
सच् चाई</w>
भू त</w>
पत् थ
क्रि के
अमरी की</w>
यूनिवर् सिटी</w>
न ौ</w>
त रिक</w>
सी न</w>
ता एं</w>
विशा ल</w>
गवा ही</w>
पै रा</w>
सं ग</w>
200 7</w>
मान सिक</w>
रे ड्डी</w>
लग ने</w>
इंत जार</w>
I I</w>
सी आर
ग् र</w>
प्रस्ता वित</w>
ता कत</w>
आ सानी</w>
सचि न</w>
तुम को</w>
स्रो त</w>
सी जन</w>
लॉ जी</w>
टी करण</w>
डे वि
या मत</w>
संचा लित</w>
क्षा ओं</w>
त ल</w>
बना कर</w>
द या
प्रभा र</w>
धार णा</w>
तुम ने</w>
जी बी</w>
लु ओं</w>
शि क</w>
मं ड
हटा ने</w>
तकनी क</w>
a c
क़ौ म</w>
तर ीन</w>
नी ति
त भी</w>
प्रोत्सा हन</w>
लोक प्रिय</w>
ल घु</w>
भे जे</w>
समु द्र
गृ ह
पि ंग</w>
फे सबुक</w>
आई ए
कठि न</w>
एक् टर</w>
झ ट
निर् देशक</w>
प्र देशों</w>
ष क</w>
जोखि म</w>
ब् लॉ
म मता</w>
ड ों</w>
क मे
बा हरी</w>
धार कों</w>
श् त</w>
का ओं</w>
आ दर्
सा ई</w>
व सू
केंद्र ित</w>
आमंत्र ित</w>
मुद्र ा</w>
रा उ
लॉक डाउन</w>
म रा
मान क</w>
4 8</w>
मार् ग
मेगा पिक्सल</w>
गु ना</w>
सम् बन्
स च्च
ला ते</w>
बो ली</w>
जा य
ओ वर</w>
12 .
वर् ल्ड</w>
सि स</w>
अल् पसं
o f</w>
क पि
ह वा</w>
ग्र स्त</w>
प्र बं
पा ते</w>
अभि ष
म य</w>
दू त</w>
उत्तरा खंड</w>
ह टा</w>
ला भ
5 0
म णि
दिल् ली
चार िक</w>
शीघ ्र</w>
बेह तरीन</w>
अ क
दो बारा</w>
en t</w>
200 6</w>
य स</w>
उपा ध्यक्ष</w>
पक ड़</w>
ग वर्
डे ट</w>
रि जर्
ल् ट</w>
खा स
व क्
चि न्
अ ह
य ण</w>
सड़ कों</w>
प रा
शै तान</w>
अल्पसं ख्य
बॉ क्स</w>
सै निकों</w>
विशेष ज्ञ
खा ली</w>
u n
जी वित</w>
निका ला</w>
सु पर
द् दीन</w>
a g
3 3</w>
खरी द
2 6
प्र ण
अनु सूचित</w>
प ीय</w>
e d</w>
क श</w>
शो र</w>
मना या</w>
आप दा</w>
2 8
जिन का</w>
अनु प
डि यम</w>
उत् सा
क् की</w>
नि धि</w>
आध्यात् मिक</w>
श ॉ
की मतों</w>
स् मा
निर्दे शन</w>
वा सन</w>
नै तिक</w>
सं वाद
न ता</w>
जा ओ</w>
दिव सीय</w>
बो ले</w>
देख कर</w>
अ त्या
मर ने</w>
फ ंड</w>
आं तरिक</w>
मेह नत</w>
स् मार्ट
लक्ष ्
सा ब</w>
से ल</w>
ट्रि ब्यू
ल म्
विस् फो
सह योगी</w>
कि स्
स त्य</w>
इ मार
दिखा ने</w>
छो टा</w>
जवा नों</w>
भू षण</w>
ल वा
आकर् षित</w>
ठ हरा
मा लूम</w>
रण वीर</w>
था ने</w>
वर् मा</w>
उ तर
योज नाएं</w>
शी र्ष
भे ड़</w>
ं जलि</w>
जु ट</w>
आखि री</w>
तरी का</w>
डी पी</w>
सेवा नि
जम कर</w>
टी मों</w>
मसी ह</w>
आ समान</w>
ध ्र
बद लने</w>
ग ार
समझ ा</w>
मु सल
मु झ
ज़ ी
इस ने</w>
कि म</w>
वै से</w>
पी एफ</w>
द ै
वे यर</w>
सु ना</w>
सक र्
कि तना</w>
उल्लेख नीय</w>
अनु मो
च स्
मा ँ
थो ड़ा</w>
च ंडी
सौ ंप</w>
1 1.
वाणिज ्य
चा लन</w>
ज ें</w>
आर ंभ</w>
मा ह</w>
खि ए</w>
गा ने</w>
श राब</w>
समू हों</w>
नि वासी</w>
पा लिका</w>
ज ह
रिजर् व</w>
ज ्यादातर</w>
ढांच े</w>
जि द</w>
ख ण्ड</w>
बैठ े</w>
ज मा
अग ली</w>
शि क्षक</w>
क्ष ी</w>
दायि त्व</w>
सो च
साक्ष ी</w>
अनुष् का</w>
द ार
ई डी</w>
ब द्धता</w>
वे ंद्र</w>
अरु ण</w>
बेंग लु
स्ट िक</w>
अर्था त्</w>
सं गत</w>
आलो चना</w>
ग ड
वर्ष ीय</w>
च ैं
काम या
लख न
भाव नाओं</w>
अपील कर्ताओं</w>
दिल चस्
त द
सं वैधानिक</w>
दु ख</w>
करी ना</w>
कैं सर</w>
आर सी</w>
महिला एं</w>
म ना</w>
जि ंग</w>
क् लिक</w>
3 6</w>
लग ्
र ंग
ए कता</w>
2 7
सब ू
एक् ट</w>
सी ए
ने वाली</w>
वा दा</w>
पह लू</w>
मि न
आ ग
अ य
ए की
पै माने</w>
का यम</w>
प वार</w>
लाइ ट</w>
आ धार
ब ला
आ ह्
स ना</w>
ना मक</w>
ज ला
आक लन</w>
विद्या लयों</w>
ज़ि ल</w>
भट् ट</w>
मही नों</w>
न ारे</w>
महा त्मा</w>
देख ना</w>
पृ ष्ठ</w>
भ रा</w>
पीड़ िता</w>
सिद्धा ंतों</w>
मुसल मानों</w>
सबू तों</w>
यौ न</w>
बढ़ा या</w>
t h
खा ता</w>
चि ह्
पट ना</w>
चेयर मैन</w>
परामर् श</w>
से ज</w>
जाये गा</w>
विभा गों</w>
रा स्ता</w>
200 5</w>
सो ने</w>
चि त्र</w>
साय िक</w>
डॉ क्टरों</w>
कट ौती</w>
का ने</w>
ट्र क</w>
लि टी</w>
प ट्
कपि ल</w>
दर वा
पुलि सकर्
क वर</w>
गु ना
दिल्ली ः</w>
वि चार
वा ं</w>
खे लों</w>
ना ल्ड</w>
दाय रे</w>
औ प
सर् च</w>
बचा ने</w>
गेंद बाजी</w>
एफ सी</w>
मन मोहन</w>
ह क़</w>
था ना</w>
सर् वा
प्र योग
सि ल
विशेष ज्ञ</w>
क म्प
प्रार ंभ</w>
शु द्ध</w>
मु ं
अं दा
पार् क</w>
फु ट
ऐ प</w>
एजेंसि यों</w>
इ तने</w>
वि न
फि र
4 7</w>
स भा
अधि ग्रहण</w>
प्रती त</w>
झ ग
दो ष</w>
दू ध</w>
विष यों</w>
पड़ ेगा</w>
संभा वित</w>
का ंत</w>
विजे ता</w>
वाणिज्य िक</w>
समझ ा
ची ज़
हि साब</w>
इन की</w>
क ें</w>
जि ंदगी</w>
ख ी
बा यो
फो टो
ध वन</w>
आदि त्य
जिन की</w>
इंजीनिय रिंग</w>
मा ंगी</w>
खे लने</w>
प्रदर् शन
शही द</w>
प्रोफे सर</w>
मा ल
ह ृ
ख ो</w>
मरी जों</w>
सं दिग्
आत् मह
र ज</w>
पूं जी</w>
आह् वान</w>
4 ,
ख े</w>
अमरी का</w>
क वि
कोय ला</w>
अनु कूल</w>
ं कित</w>
मा ंग
मुख्या लय</w>
वि पक्षी</w>
आदित्य नाथ</w>
भ विष
सा उ
खतर े</w>
हो टल</w>
ग्राह कों</w>
र हो</w>
टी आई</w>
धि कारी</w>
नि स्
च ंद</w>
का लिक</w>
मा न्य</w>
प्रस ारण</w>
मु फ्
जा तियों</w>
क ीन</w>
क्र मश
प्रति ष्
विश्व स
रे खा</w>
व कों</w>
चंडी गढ़</w>
3 4</w>
डो नाल्ड</w>
समझ ने</w>
मु हैया</w>
मि ट</w>
तमा म</w>
टा ने</w>
9 9</w>
चुनौ तियों</w>
i d
न ंद</w>
प्ले ट
नि ष
योज ित</w>
पा ंच
मुकद मे</w>
भविष ्य
बढ़ो तरी</w>
3 00</w>
यं त्र</w>
क्रमश ः</w>
वि जन</w>
काब ू</w>
ले श</w>
पश्चा त</w>
क् वि
ट्रा ं
जु ड़ा</w>
उत् कृ
म त्
धम की</w>
व ल
तु र्
घटना स्थल</w>
सु श्री</w>
कि तनी</w>
द् धि
आ शी
त लब</w>
ट्रिब्यू नल</w>
स्मार्ट फोन</w>
रा ई</w>
जा ँच</w>
ह ड़
टै क्स</w>
ज गत</w>
क ड़े</w>
आखि र</w>
टर् न</w>
जि ते
पै सा</w>
द ल
ड् डा</w>
अधि वक्ता</w>
कमे टी</w>
करि यर</w>
लौ ट</w>
रि यल</w>
ंच ी</w>
ब चा</w>
मि साल</w>
मध्य स्थ
अ ंग
की जिए</w>
ज़रू र</w>
लखन ऊ</w>
ऑफि स</w>
खे ला</w>
मे ट्रो</w>
क ताओं</w>
अहम दाबाद</w>
प्र भारी</w>
i v
पदा र्थ</w>
शि ल्
चार् ज</w>
लड़ ने</w>
पु स्त
आत्मह त्या</w>
समुद्र ी</w>
बा प</w>
अनु पालन</w>
अका द
शीर्ष क</w>
प ब्
कार्य कर्ता</w>
प त</w>
अस् ति
फ्रे ंस</w>
क स</w>
ॉर् क</w>
् या</w>
का ंक</w>
ए गी</w>
ना ज़िल</w>
ठा करे</w>
त ट
ज़ ु
पा वर</w>
मार् क</w>
आई एस
धर् म
20 00</w>
बर करार</w>
फ सल</w>
एम सी</w>
घ ू
यूरो पीय</w>
एसोसि एशन</w>
शि यों</w>
को ड</w>
द स्त</w>
आईसी सी</w>
ष् टीकरण</w>
खू न</w>
आईपी सी</w>
न्याया लयों</w>
ज़ि ंदगी</w>
ग़ ा
सूच कांक</w>
स्वर् ण</w>
तीसर ी</w>
सी आर</w>
सके गा</w>
गड करी</w>
वि दा</w>
म शी
आ लिया</w>
स् मृ
फ्र ंट</w>
स त्या
क्र ॉ
ची ज</w>
दे शा
प्र क्रिया
फा र्
पो रेट</w>
दर् शकों</w>
बे टा</w>
न र्
य ि
प्रशं सा</w>
काउ ं
दा यी</w>
कि मी</w>
चि त्र
शै ली</w>
शैक्ष णिक</w>
सि ने
उपा यों</w>
अर्था त</w>
प् पा</w>
हे ल्
स च्चे</w>
पाठ्य क्रम</w>
शा खा</w>
श य</w>
ज़रू री</w>
प्राधि कारी</w>
जा हिर</w>
रो मा
ता लों</w>
मि र</w>
कै प्
स ार
ज़ि ले</w>
बं धित</w>
न पुर</w>
मं द</w>
बहु मत</w>
3 7</w>
ऑ र्
आम तौर</w>
साहि त्य</w>
सफ र</w>
झू ठ</w>
गु ज़
मि त्र</w>
शि यल</w>
हा नि</w>
सं ग्रह</w>
ज यं
दृ ढ़</w>
सि क्
ओ लं
नी तीश</w>
ब म</w>
ड ू
खु ले</w>
हि तों</w>
चार् य</w>
भाष ाओं</w>
ना यक</w>
सं सार</w>
जो शी</w>
वे द</w>
तीसर ा</w>
पढ़ ने</w>
लिख े</w>
बह स</w>
आतंक वादियों</w>
ब्र ह्
दर् द</w>
का नों</w>
कोवि ंद</w>
अ गु
क्र ू
ऐ लान</w>
आवे दक</w>
क्ष ्
निका य</w>
प्रतिनि धियों</w>
3 70</w>
200 4</w>
पु णे</w>
ंत्र िक</w>
सा स</w>
नी ला
या ता
च ि</w>
अधिक तर</w>
गु ला
म राह</w>
कला कार</w>
बं दर
बॉ ल</w>
व्य य</w>
च क्र
इस को</w>
स्मा र्ट</w>
ई ं
सु पर</w>
शा स्त्र</w>
भ व
ठो स</w>
स् तों</w>
चुना वी</w>
अस्प तालों</w>
स्प ष्टीकरण</w>
स् वि
रि स</w>
अ ज्ञात</w>
भार ती
सुरे श</w>
फ़ि ल्म</w>
स् ट्रा
शि कार</w>
डब् ल्यू</w>
वृत् त</w>
बे ंच</w>
याता यात</w>
इ कट्
अ काउंट</w>
या तना</w>
at ion</w>
मो टर</w>
ऊ ँ
बला त्कार</w>
एक्स प्रेस</w>
अ ट
ंद ु
एशि याई</w>
चि द
ट कर</w>
रु प</w>
अत्य धिक</w>
उड़ा न</w>
प ंच
ट म</w>
मु ठ
जो ड़ी</w>
ब ने
मनो ज</w>
बा जों</w>
डा उन
परेशा नी</w>
अके ले</w>
बो ल</w>
ला खों</w>
हफ् ते</w>
नेह रू</w>
कु ं
ले ता</w>
i g
अस्ति त्व</w>
चै नल</w>
जो ड़ा</w>
गि र</w>
ट क्कर</w>
S C
अंतरि म</w>
मध ु
प ल
ण ु
च ंद्र</w>
श तक</w>
फ ना
त त्व</w>
टे क</w>
कं प</w>
अपी ला
अन्य था</w>
ढ ू
वि न</w>
आ ना</w>
रॉ य</w>
बता ई</w>
i c</w>
वि ज्ञापन</w>
आए गा</w>
छा त्र
मा फी</w>
गु ण</w>
खे ती</w>
का या</w>
को ष</w>
प्रति बद्ध</w>
शि क्षकों</w>
क ठो
आपत् ति</w>
श्रद्धा ंजलि</w>
व्या ख्या</w>
ग ियों</w>
आ शं
कॉ म</w>
छ े
म् मत</w>
घा टी</w>
कि तने</w>
चो री</w>
सन ्</w>
ला ता</w>
सुविधा एं</w>
प्रो जे
अपीला र्थी</w>
बढ़ ते</w>
डि स्
ं ति</w>
ट ू</w>
जयं ती</w>
आय कर</w>
लि यां</w>
हार् दिक</w>
स की</w>
व ली</w>
चैं पि
संसा धनों</w>
टा ई</w>
सीई ओ</w>
गां वों</w>
बु लाया</w>
an d</w>
र ित</w>
वा ता
स्मृ ति</w>
क़ यामत</w>
कहा ः</w>
4 2</w>
ब सपा</w>
पूर् वा
य द्य
शर् त</w>
आ कर</w>
ब् लै
सम ग्र</w>
इं डीज</w>
गा ड़ी</w>
नि वास</w>
2 9
व्याव सायिक</w>
राज पू
आप स</w>
नि तिन</w>
समझ ते</w>
आ मिर</w>
भ ड़
ट्रो ल</w>
गर् व</w>
भ री</w>
बिंद ु</w>
मि न</w>
क्रे डिट</w>
भ ित</w>
त त्व
आदर् श</w>
यद्य पि</w>
स ौर</w>
फ े</w>
ग्र ी
म नी
श ता
दाय िक</w>
क क्षा</w>
हिन् दी</w>
ट ि</w>
पार दर्
घो टा
ज ज</w>
फ़ा इल</w>
वै ध</w>
सर दार</w>
दि खा</w>
मध्यस्थ ता</w>
ता प</w>
र मेश</w>
द शक</w>
ग ह
इस् पात</w>
कंप ्यूटर</w>
तद नुसार</w>
ंड ी</w>
क्रिके टर</w>
कार्य काल</w>
i st
भा इयों</w>
3 5
नू न</w>
कॉ र
केंद्र ों</w>
न शील</w>
आ या
सके ंगे</w>
मनो हर</w>
द्वि तीय</w>
पढ़ ाई</w>
सिल सि
पृ ष्ठ
आइ ए</w>
प त्रि
विरा सत</w>
अनु दान</w>
वर्ष ा</w>
र हीं</w>
व्य ू</w>
गृह मंत्री</w>
लिख ी</w>
पो रेशन</w>
पा ंडे</w>
सर्वा धिक</w>
हि द</w>
द् दा
वि निर्माण</w>
भे द</w>
म ध्यम</w>
मि ट्टी</w>
आश् वासन</w>
जो ड़ने</w>
बैं किंग</w>
सुर क्षा
शु भार
रि पोर्
शता ब्
युक् तों</w>
उप करणों</w>
ओलं पिक</w>
o n</w>
3 8</w>
ल ड़</w>
आका श</w>
भाष ित</w>
र ौ
से क्टर</w>
क ारा</w>
या ह</w>
तरी कों</w>
भारती यों</w>
टी सी</w>
र च
ग लती</w>
ह र्ष
सि या</w>
क क्ष</w>
र नों</w>
प द्
ग ौर</w>
पोर् टल</w>
अ चा
ंद्र ा</w>
ति वारी</w>
ट्यू ट</w>
हस्ता ं
e t
जा तीय</w>
यूरो प</w>
त ट</w>
ह रि
मुठ भेड़</w>
जता या</w>
ए प</w>
संतु ष्ट</w>
पर ंतु</w>
ं व</w>
स त्
र क्त</w>
पूछ े</w>
बू ल</w>
ता पूर्वक</w>
l e</w>
री ना</w>
जॉ न</w>
इं स</w>
अचा नक</w>
न ं</w>
जी त
रण नीति</w>
अत्य ंत</w>
खा ध
आ ँ
अनु चित</w>
जरू र
आवा ज</w>
ना र</w>
1 .0
पेश कश</w>
पार ं
चु ने</w>
निर् धार
आ ज
रण बीर</w>
ज ्यो
इंटर नेशनल</w>
० ०</w>
ली टर</w>
प्री त</w>
a d
स् मि
बो झ</w>
पै ग़
6 5</w>
सै न</w>
त ित</w>
धो खाध
दि रा</w>
राजपू त</w>
निप टान</w>
जागरू कता</w>
से वक</w>
श्री नगर</w>
को ट</w>
म ै</w>
भार ती</w>
सं ग्रहण</w>
ची जें</w>
कर् तव्य</w>
पत्थ र</w>
नी तियों</w>
जान ने</w>
दक्षि णी</w>
ग् लो
ऑपरे शन</w>
ह ारी</w>
हि त
मै ने
पी ए</w>
कृ प
पा दु
थ न</w>
सू क्ष्
अ यो
लि ंक</w>
पारं परिक</w>
द म
व्या पार
पै के
ग ल
टि यां</w>
आ न्
ऑ क्
कर् ज</w>
वा ं
स फाई</w>
वि ंड
दे गी</w>
3 7
वायु सेना</w>
श े</w>
3 9</w>
खू ब
म् प</w>
नामा ंकन</w>
प्र सार</w>
सम न्व
प्रति बद्धता</w>
200 2</w>
बना ते</w>
सब को</w>
इं स्टी
अ म्
सर ल</w>
म ण
संदिग् ध</w>
त ारा</w>
विवे क</w>
स्ट ू
अड् डे</w>
जि क्र</w>
दी पक</w>
ढ े
साइ ड</w>
पा त्र</w>
बै रल</w>
य ें</w>
डाउन लोड</w>
शू न्य</w>
अपील ीय</w>
दिग् गज</w>
सु शांत</w>
ई श्वर</w>
शि वि
यु ग</w>
परि चालन</w>
सीसी टीवी</w>
5 5</w>
कब् जा</w>
पिछ ली</w>
अग्र वाल</w>
इ ब्रा
निशा न</w>
ए आई</w>
न ने</w>
पूर्वो क्त</w>
धोखाध ड़ी</w>
न ती</w>
बह नों</w>
द्र ो
स्ट्र ी</w>
जा त</w>
सं वाद</w>
एनसी पी</w>
झु ठ
म ्र
उद्य म</w>
ंग र</w>
भौ तिक</w>
संस्था ओं</w>
यक़ी नन</w>
डि ़
नि कल
प्राइ वेट</w>
पादु कोण</w>
कार क</w>
डि वी
अयो ध्या</w>
a b
त मिल</w>
ंच ित</w>
कना डा</w>
म् पि
ि म</w>
आ देशों</w>
स्टे डियम</w>
चाहि ये</w>
मुझ से</w>
ति याँ</w>
ज ौ
लु क</w>
नारा यण</w>
मूल ्यों</w>
फ़ ो
जन संख्या</w>
भेज ने</w>
ंग ु
बि ल
शक् तियों</w>
मा य
देख ो</w>
कानू नों</w>
खु श
या ः</w>
पह लुओं</w>
इस्ला म</w>
ड्र ो
बा ज़</w>
ना श</w>
पै रा
I P
अपरा धों</w>
वैज्ञा निकों</w>
परि भाषित</w>
हल फना
चिद ंब
समा ज
इ ंद
करवा या</w>
ज़ि म्मे
कै सा</w>
ला यंस</w>
ि या</w>
पुरु षों</w>
देश भर</w>
स्थानां तरित</w>
प्र वि
सं स्थाप
ठ े
हृ दय</w>
दु श्
ही म</w>
पत् तियों</w>
आप सी</w>
सृ जन</w>
प्रण ब</w>
दै निक</w>
अधी क्षक</w>
रा ग</w>
पत्र कार</w>
अं जाम</w>
एन एस
प्र वर्त
दि मा
ची जों</w>
भ जन</w>
ख़ ्
4 00</w>
तह सील</w>
विभा जन</w>
शरी फ</w>
कृप या</w>
भ रे</w>
छु ट्टी</w>
बाइ क</w>
डेवि ड</w>
चिदंब रम</w>
संतो ष</w>
पी ट</w>
भ य</w>
पड़ो सी</w>
दली ल</w>
6 ,
सि ंगा
स ला</w>
एयर पोर्ट</w>
क् य</w>
वा र्ड</w>
आई एम
के ट
अभि युक्तों</w>
ह ता
भर ने</w>
धि यां</w>
गार ंटी</w>
खे ले</w>
मक सद</w>
नि भा</w>
ह वाले</w>
ए सी</w>
क् लब</w>
करू ंगा</w>
साइ किल</w>
द् धा</w>
ध ्य</w>
सं ग्र
रि यों</w>
म छ
डि प्
उद्यो गों</w>
सी एस
रि ए
खु ला</w>
ना बा
न ार
फे ल</w>
नि देशा
अध्या य</w>
जाए ँगे</w>
उद् देश
5 ,
ध् व
इन का</w>
र वाना</w>
4 9</w>
4 3</w>
ी करण</w>
हिस् से
त ल
कठो र</w>
औ ष
प्री मि
न मा
पे शे
पु रानी</w>
न सी
कि ता
मे क</w>
निय न</w>
स् कर</w>
मनो रंजन</w>
वाता वरण</w>
प्रती क</w>
निय मन</w>
ैं स</w>
आंक ड़ों</w>
निरी क्षण</w>
दर असल</w>
छा न
0 1</w>
विशेषज्ञ ों</w>
वि च
टेक् नो
पु र्
उन् हीं</w>
ले न
कि ट</w>
ते ंदु
कर् मी</w>
ते ज
निर्धार ि
वा नी</w>
टे ज</w>
क पड़े</w>
वेस्ट इंडीज</w>
प्रा प्ति</w>
या नों</w>
नि स</w>
अभि व्यक्ति</w>
ार ित</w>
म ारा</w>
द् वार</w>
आर क्षण</w>
o r</w>
e m
मध्य प्रदेश</w>
पीड़ न</w>
सा लों</w>
जग हों</w>
ख ब
न ष्ट</w>
लि हा
चे हरे</w>
आशं का</w>
पाय लट</w>
मार्ग दर्शन</w>
प शु
ब ख्
डो र</w>
थ ु
बो ला</w>
अ खिल</w>
प् स</w>
अग्र िम</w>
स्क्र ीन</w>
अभिष ेक</w>
नीला मी</w>
दे खिए</w>
संदर् भित</w>
ट्र स्ट</w>
जान ें</w>
फ़ ्
ता ंत्रिक</w>
का मों</w>
दि शा
शि व</w>
फ़ ी</w>
चौ थे</w>
स ने</w>
जि तना</w>
व सी
आजा दी</w>
च रि
अ टल</w>
ंसि ल</w>
दो स्तों</w>
ईं धन</w>
निर्धारि ती</w>
अपे क्षा</w>
ं श</w>
छान बीन</w>
शताब् दी</w>
छो ड़ने</w>
शा हिद</w>
कु फ्
ह जारों</w>
गो पाल</w>
ले खा</w>
स् की
सा थियों</w>
डी सी</w>
ल स</w>
निस् संदेह</w>
म ्यू
प्रेर णा</w>
क् ताओं</w>
फॉ र</w>
क् लि
जहा ज</w>
स्ट ैं
खास कर</w>
बे न</w>
झ ा</w>
र व</w>
वर् ड</w>
बढ़ा कर</w>
दी र्
निदेशा लय</w>
सुन ने</w>
आए गी</w>
i r
क्र मण</w>
उत्तर दाता</w>
मस् जिद</w>
गंभी रता</w>
अभिन य</w>
गू गल</w>
एन एस</w>
हु ईं</w>
आव ंटन</w>
ज ्य</w>
सम र्थ</w>
कै द</w>
हू र</w>
वि ंग</w>
मा ध्य
फि या</w>
जो ड़</w>
पहुंचा ने</w>
दु ष्
ग हरा</w>
न्न ता</w>
सिंगा पुर</w>
ष्ट ता</w>
बा बू</w>
प्रदर्शन कारियों</w>
सं पूर्ण</w>
पॉ लि
गु र
वसू ली</w>
मु ँ
उत् पीड़न</w>
वि भाज
मणि पुर</w>
अ दा</w>
दर्शा ता</w>
च लाया</w>
रे प</w>
लो र</w>
टि न</w>
पा ठ</w>
स ऊ
नि ए</w>
थो ड़ी</w>
वि विध
वर् णन</w>
ट कों</w>
ज़ रि
शे य
बि न</w>
बे स</w>
प द्ध
फ ॉर्
प रे</w>
4 1</w>
जय पुर</w>
मृत कों</w>
ली ड</w>
1 /
जुर् माना</w>
प द
टि फि
अं तर्
इ ज
आ ये</w>
स् मार
स्टा फ</w>
हम ला
को र्
माइ क्रो
ब्लॉ क</w>
S C</w>
क मान</w>
डिवी जन</w>
सी तार
अ ंग</w>
म ले
बच ने</w>
न ृ
एकी कृत</w>
ह ू</w>
टी में</w>
शुभार ंभ</w>
बु ल</w>
र खा
डायरे क्टर</w>
म् भ</w>
अल्पसंख्य क</w>
ने श</w>
आर एस</w>
सु न</w>
ारि यां</w>
लड़ कियों</w>
मश ीन</w>
कम रे</w>
ले ंस</w>
उन पर</w>
उर् वर
ग ित</w>
कु शल</w>
सो चा</w>
बि ग</w>
सम् मि
प्रबं धक</w>
सा जि
हा बाद</w>
इरा दा</w>
पूर् ण
ल द्दा
हो म</w>
भे द
निष्पा दन</w>
आर एसएस</w>
मि साइ
o s
स्टो रेज</w>
सा मू
पी सी
समा पन</w>
कुल दीप</w>
उपलब् धता</w>
जे एन
गर् भ
औप चारिक</w>
प्रि ंट</w>
डी एस</w>
विस्फो ट</w>
ध ु</w>
विवा दित</w>
फ् लै
वर् गों</w>
रू म</w>
न ः</w>
सो म
मुँ ह</w>
भा गों</w>
टे ंट</w>
खतर नाक</w>
इका इयों</w>
मु झ</w>
मजबू र</w>
प्रार ू
दा ऊ
प्र वासी</w>
निका लने</w>
मु ना
पढ़ ा</w>
ठा न</w>
उ ल
इच्छ ुक</w>
4 6</w>
सऊ दी</w>
का ना</w>
ब्यू रो</w>
रे न</w>
फ ौ
न ू</w>
200 3</w>
शां ति
बा दल</w>
पी ढ़ी</w>
ग्राह क</w>
नि भाई</w>
ख नन</w>
सुना ई</w>
1 50</w>
वि प
प्र वाह</w>
शुरु आती</w>
प्र भु
शर द</w>
इं दिरा</w>
ट वेयर</w>
चा लू</w>
उप धारा</w>
डा टा</w>
भ ला</w>
सं पा
मि लाकर</w>
राज ेश</w>
स्वर् ग
सश स्त्र</w>
निया ँ</w>
ं दी</w>
स्वा मि
द रा</w>
शि क्षण</w>
इ त्या
ष्ठ ित</w>
प्रभा व
अव गत</w>
di a</w>
र ्र
u m
फ़ ै
ए टी
रि जल्
समृ द्ध</w>
ज़ा हिर</w>
रि लायंस</w>
प्र संस्करण</w>
अ भाव</w>
ई द</w>
रो का</w>
क़ ्
य था
गो ली
स्थि रता</w>
की पर</w>
8 ,
बता ने</w>
क ड़ों</w>
स्टॉ क</w>
एक् शन</w>
आ ज्ञा</w>
सामू हिक</w>
र वी
भाग ्य</w>
प ंड
मश हूर</w>
भे ंट</w>
दा वे
अनं तिम</w>
ऊ ंचा
शु रु</w>
अनु सूची</w>
सा क्षा
बं धों</w>
क मी
बु द्धि
सि द्ध
2 3
य कीन</w>
भो पाल</w>
गौर तलब</w>
बढ़ त</w>
ा धिकार</w>
दाऊ द</w>
आ दान</w>
संस्थाप क</w>
नवी न</w>
संक्र मित</w>
विश्वस नीय</w>
लद्दा ख</w>
ड्राइ वर</w>
त्य ो
स् कोर</w>
ग ड़
प्रति ष्ठित</w>
स्व राज</w>
कैम रे</w>
ग्रा फ</w>
नग र
शी ट</w>
हिन् दू</w>
4 0
खूब सूरत</w>
मिन ट</w>
ज़ि न्
डे ं
मे ज
उ धर</w>
c h
अधि सूचित</w>
लगा ते</w>
त् न</w>
यन शिप</w>
बता ता</w>
ज पे
ओ पन</w>
स्थ गित</w>
संस् कृत</w>
उत्तर दायी</w>
पु ल</w>
कंप नियां</w>
स्मि थ</w>
म कान</w>
सफ ल
इंस्टी ट्यूट</w>
व ंचित</w>
वि वि
सै फ</w>
स ज़ा</w>
पा इ
झट का</w>
आव ंट
र कम</w>
पहुंचा या</w>
ल ु</w>
पी ने</w>
ट्र ल</w>
द वा</w>
करी बी</w>
कल्प िक</w>
वर् गी
से क्स</w>
ब ढ
प्रोजे क्ट</w>
आ चरण</w>
हिस्से दारी</w>
इत्या दि</w>
स्पी ड</w>
सिफ ारि
ब ंग
खो लने</w>
क् ला
कृष् णा</w>
आजा द</w>
बी सी</w>
पु ट</w>
प् ले</w>
घ ि
तेंदु लकर</w>
u l
फि ट</w>
लो न</w>
दिमा ग</w>
म लिक</w>
प्र मो
री ब</w>
रैं किंग</w>
जरू र</w>
प्रका शन</w>
देख े</w>
शा ला
निर्ण यों</w>
उप योग
बु द्धि</w>
फी स</w>
निम् न</w>
च म
न री</w>
सीतार मण</w>
अव श्य</w>
बहा दु
क ौर</w>
रिजल् ट</w>
गि रो
आ स</w>
सूक्ष् म</w>
था म</w>
क ले
जै व</w>
ग हरी</w>
काम का
सौं पा</w>
स वालों</w>
ख द</w>
P W</w>
२० १
सु ंदर</w>
कि शोर</w>
वै कल्पिक</w>
बिल कुल</w>
करे ंगी</w>
अव सरों</w>
अनु पात</w>
च क</w>
एसएम ई</w>
लड़ के</w>
सं यंत्र</w>
गोली बारी</w>
प्र च
G B</w>
फै क्
नवा चार</w>
5 2</w>
मजबू ती</w>
प त्रों</w>
भू कंप</w>
र स</w>
मध्य स्थ</w>
गु स्
अनु भ
ह क</w>
क था</w>
प्रवर्त न</w>
नज दी
बना ता</w>
सं बद्ध</w>
ध ारी</w>
संबो धन</w>
चढ़ ा
रखा व</w>
स्पे शल</w>
मह ेंद्र</w>
आ स्ट्रेलिया</w>
बा जारों</w>
डे ंट</w>
रि सर्च</w>
सी धा</w>
ज़ो र</w>
खरीद ने</w>
स त्य
एन आई
समन्व य</w>
अ ज
आर बीआई</w>
ी म</w>
सु ष
सद ों</w>
व ारा
ना ई</w>
आंक ड़े</w>
पे ड़</w>
व जन</w>
6 4</w>
दे य</w>
फिल् में</w>
निर् मला</w>
कारो बारी</w>
7 ,
ल क्षण</w>
बु क</w>
इमार त</w>
मु र्
पी एस
टाइ म</w>
ी ल</w>
सम्मि लित</w>
वि ष्
200 1</w>
शु क्र
कि नारे</w>
मि या</w>
सि खा
सर्वि स</w>
सर् स</w>
य ॉर्क</w>
डी आर
त् सव</w>
IS T</w>
गो ल</w>
रि य
लोक न</w>
बना ये</w>
अ स्थायी</w>
प्र ो</w>
ड ो</w>
सिने मा</w>
मि कों</w>
भा ष</w>
घं टों</w>
9 ,
र सा
निष े
बि ता
प्रत्या शी</w>
व्य स्त</w>
मान ्य
अव स्था</w>
विशेष कर</w>
ना ते</w>
तारी फ</w>
5 1</w>
पब् लिक</w>
ना नी</w>
सू त्र</w>
पृष्ठ भूमि</w>
कं ट्रोल</w>
वे ज</w>
i m
प्रदर् शनी</w>
ड ै
अंदा ज</w>
प स</w>
B I</w>
प थ
रि क्
जै न</w>
सां सदों</w>
रिश् तों</w>
एक त्र</w>
स्वामि त्व</w>
r ic
त्रु टि</w>
कर नेवाले</w>
आवश्य कताओं</w>
मार ने</w>
उप र्
न स</w>
ड रा
रो ज</w>
ओ गे</w>
गरी बी</w>
गौ तम</w>
ड कर</w>
विप णन</w>
कर ों</w>
रा वत</w>
झ ो
ज़ े</w>
प्रतिस्पर् धा</w>
दु ः
तक ली
सीख े</w>
ए ँगे</w>
बच्च ा</w>
सिं चाई</w>
ब लि
ते लु
शि ंग
ब च</w>
स मानता</w>
सह कारी</w>
क् टे
यूनि ट</w>
हु सैन</w>
पत्र कारों</w>
यो क्ता</w>
वे ल</w>
u r</w>
वे ब</w>
म ॉर्
तू फान</w>
ै र</w>
इलेक्ट्रॉ निक</w>
फा उ
दूर संचार</w>
पार् ट
io n
ल् ल
जाए ँ</w>
ि की</w>
सुष मा</w>
प्राथमि की</w>
प्रतिनिधि मंडल</w>
ख ड़ी</w>
ह ट</w>
विश्व विद्यालयों</w>
राम नाथ</w>
वार दा
इ ंग
ह ीन</w>
स् त्र
प्र को
इला हाबाद</w>
डा क</w>
स् पर</w>
प्रा ंत</w>
ख़ बर</w>
आतं कियों</w>
प्रमा ण
त था
त्रि पुरा</w>
हर्ष वर्धन</w>
स्ट्रे लि
रख ो</w>
बढ़ ी</w>
जु टी</w>
ध्र प्रदेश</w>
मुं ह</w>
निवे शकों</w>
सा धन</w>
8 5</w>
जा ये</w>
अकाद मी</w>
पी पी
यू सु
प्रति कूल</w>
स् तियों</w>
A I
जाए ंगी</w>
रो गियों</w>
सश क्त</w>
फा यर</w>
बता ए</w>
प हि
विभाज ित</w>
फ ार
प् लान</w>
वे शन</w>
नती जे</w>
जीत कर</w>
मा ही</w>
वि मान
न कारा
इकट् ठा</w>
भ लाई</w>
जा व
आई आईटी</w>
उपर् युक्त</w>
आश् चर्
आवंट ित</w>
अस ली</w>
पंचा य
क ंग
सी ए</w>
मा लि
दि ख</w>
ला लू</w>
प् टर</w>
कामया ब</w>
ला ल
साजि श</w>
आ राम</w>
बै क</w>
अब्दु ल</w>
मान ने</w>
a p
र क्
छ वि</w>
ब ूत</w>
en t
शु भ</w>
एम ओ
u t
स्टे शनों</w>
स्थ लों</w>
क ड़ा</w>
साक्षा त्कार</w>
मे न</w>
बा बा</w>
र ज
तट ीय</w>
स्वी कृत</w>
o s</w>
प दो
मो टर
सब के</w>
ट् स
जन्म दिन</w>
गण राज्य</w>
इस्रा एल</w>
बि या</w>
दु रुप
शैक्ष िक</w>
निष्पा दित</w>
नि लंबित</w>
से हत</w>
in d
दुरुप योग</w>
संवेद नशील</w>
बिज नेस</w>
कमा ई</w>
प्रा य
डा लने</w>
पदो न्न
जपे यी</w>
नी त</w>
ले गी</w>
सं ज्ञान</w>
नि वार
से ंट</w>
ज़रि ए</w>
अं कों</w>
श मी</w>
बेंगलु रु</w>
चो टें</w>
व रु
भू ति</w>
फ् टवेयर</w>
क़ा नून</w>
शा ही</w>
र चना</w>
फ ैंस</w>
शेय रों</w>
काउ ंसिल</w>
बो लने</w>
ब्लै क</w>
ऑ फ़</w>
धार क</w>
मि ंग</w>
चर णों</w>
तत् कालीन</w>
प्रशा ंत</w>
ध े
वं श</w>
न्यू ज</w>
ए का
सं पत्तियों</w>
हि दा
पॉ जि
सं पन्न</w>
बंदर गाह</w>
हिदा यत</w>
क्ष ति
साउ थ</w>
इस लिये</w>
स्वी कार्य</w>
सें सर</w>
वि तरित</w>
मौजू दगी</w>
बो लते</w>
उपलब् धि</w>
ले म</w>
ट्रा ंस
ख़ा स</w>
याचिका ओं</w>
टि क्स</w>
रिश् ते
राज्य मंत्री</w>
यू नियन</w>
ऑ टो</w>
9 5</w>
बैं ड</w>
ब ई</w>
प्रो से
आय तों</w>
न बी</w>
प्रति दिन</w>
शे ट्टी</w>
विविध ता</w>
दि क्
सदस् य
मान कों</w>
जी वि
आई ं</w>
कि ंग्स</w>
ज री</w>
मुआव जे</w>
गा य
बे स्ट</w>
ड़ े
वारा ण
ड़ कर</w>
टि कल</w>
दर् जा</w>
ट ीन</w>
कश् मी
आई टी
शी लता</w>
झू ठे</w>
आयु र्
रु चि</w>
मि स्
ष् क</w>
ल् डर</w>
निर्मा ताओं</w>
वि नि
क ली
अधि कृत</w>
सौ दा</w>
द शा</w>
द रों</w>
ता पूर्ण</w>
ा र</w>
विद् वान</w>
सि न</w>
स नी</w>
शि ता</w>
दो हरा
पढ़ े</w>
रि टी</w>
का ट</w>
अदा ल
ला द</w>
मसी हियों</w>
उत्तरा खण्ड</w>
बी मार</w>
भू ल</w>
दे वेंद्र</w>
अत्य न्त</w>
अगु वाई</w>
गरी बों</w>
अनुमो दन</w>
क्रॉ स</w>
समा प्ति</w>
सी नियर</w>
मुफ् त</w>
णा चल</w>
खा तों</w>
सु ख</w>
ल् ली</w>
पै नल</w>
अ रो
भाग ्य
ष ्यों</w>
जब र
अ जी
लोक तांत्रिक</w>
त न
ज ंग</w>
c o
सर ण</w>
प वन</w>
अंत तः</w>
न् नु
सी आई
पह र</w>
आवे द
दौ ड़</w>
रसा यन</w>
बी ज</w>
एम एसएमई</w>
रे खा
वाराण सी</w>
योज क</w>
मि ता</w>
सम्बन् ध</w>
अनु वाद</w>
स ैं
घा ट</w>
गं ज</w>
एस सीसी</w>
सि या
पी यू
जा इ
प शु</w>
बच्च ी</w>
रा केश</w>
ग र्म</w>
ऑ टो
मनी ष</w>
अ ता</w>
जर् मन</w>
इं कार</w>
उद् ध
सु भाष</w>
समाज वादी</w>
राज कुमार</w>
नव म्बर</w>
कर णीय</w>
पत्रि का</w>
ता जा</w>
बच त</w>
नकारा त्मक</w>
टेक्नो लॉजी</w>
कु र्
सी बी
से मी
वरु ण</w>
अ ग्
एन आरसी</w>
गवर् नर</w>
स्तर ों</w>
रा फेल</w>
अति थि</w>
म न्
भे जी</w>
म रीज</w>
क हो</w>
भर ता</w>
5 6</w>
बन ना</w>
खो ल</w>
रे ड</w>
स्मार क</w>
सां ख्य
र ज़</w>
मंत्रा लयों</w>
रोक थाम</w>
उत् तम</w>
संतु लन</w>
अ ख
री ति</w>
अ खि
ज़ त</w>
स्ट्रेलि याई</w>
बढ़ ता</w>
पा उ
तु झे</w>
उन् नत</w>
शे ख</w>
क्टे यर</w>
त स्
रे डियो</w>
सो ना
अपरा धी</w>
ख्या ल</w>
सत त</w>
उ ज्
बा ग</w>
h t
प्रति वादियों</w>
तर फ़</w>
फि क</w>
आए ंगी</w>
सीख ने</w>
काम ना</w>
उद्देश ्यों</w>
पैके ज</w>
कु मारी</w>
सेवानि वृत्त</w>
ला पर
ज मी
ह वाला</w>
अ साधारण</w>
स्ना तक</w>
समर् पण</w>
वी स</w>
डि क्री</w>
अपना ने</w>
श ्या
प्ला स्टिक</w>
जौ हर</w>
मु केश</w>
कने क्शन</w>
लि स</w>
डी जी
जा निए</w>
ज ॉर्
7 2</w>
सा फ़</w>
क़ रीब</w>
ग ढ़
पढ़ े
डो ने
च र्स</w>
वा इस</w>
उन् न
अ सफल</w>
पर स्पर</w>
चर् च</w>
नाबा लि
आउ ट
टॉ स</w>
समृ द्धि</w>
वि धि
माम ू
उ ड़
जी ते</w>
देख ता</w>
का श</w>
5 7</w>
म स</w>
सौ ंप
जी वन
आ सि
लड़ ा
र्थ ों</w>
प्रमा णित</w>
जिस को</w>
ई रानी</w>
l o
निष् पक्ष</w>
व ंत</w>
बी ते</w>
ऑ ल</w>
वि केट
g o
गे ट</w>
उत्कृ ष्ट</w>
अग्र णी</w>
सिद्धा र्थ</w>
रै म</w>
सं लग्
द या</w>
ब हाल</w>
दु कान</w>
जह न्नु
पु लवा
लगा ना</w>
स् को</w>
5 4</w>
मु सलमान</w>
ए ल्
वा ड़ा</w>
परंप रा</w>
खब रों</w>
मो ड</w>
जी ल</w>
अ ख्
ढांच ा</w>
w w
इंटर व्यू</w>
संग्र हा
म्ब ई</w>
गिरो ह</w>
ए ट</w>
अखि लेश</w>
खो ज
के ल</w>
कि ंतु</w>
सह ारा</w>
ग्र ि
हि ष्
गि ल</w>
पुलवा मा</w>
नि क्स</w>
ंद े</w>
ंगु ली</w>
ण वीस</w>
क्ष ति</w>
संवाद दाताओं</w>
शे खर</w>
स्टे बल</w>
निरी क्षक</w>
खि ताब</w>
उप योगी</w>
शिवि र</w>
एम एस</w>
विवि ध</w>
ww w</w>
ए प्
सदस्य ीय</w>
अं बानी</w>
पड़ ने</w>
कामका ज</w>
कॉन् फ्रेंस</w>
प ो</w>
मानव ीय</w>
बु रे</w>
निया मक</w>
ट्रै क</w>
गतिवि धि</w>
मह ल</w>
ते री</w>
भेद भाव</w>
प्रति भा
ज स
रे ंस</w>
गा ंगुली</w>
हाइ ट</w>
प्रक्रिया ओं</w>
सो नम</w>
परंप रा
ट ैं
मज़ बूत</w>
करा ना</w>
कै फ</w>
तुर् की</w>
लेन देन</w>
ि तों</w>
इ टली</w>
बॉ स</w>
टॉ प</w>
पु रू
हित धारकों</w>
प्रति बंधित</w>
व्या पी</w>
कैप् टन</w>
क्ष मा</w>
पीयू ष</w>
निय त</w>
ec t
मे ट</w>
मिसाइ ल</w>
दोष ियों</w>
चरि त्र</w>
उपभो क्ताओं</w>
हथि य
वार िक</w>
सि द्
ड ्रे
आदि त्य</w>
ब काया</w>
ना मित</w>
खु ली</w>
u s
ता ल
ँ गा</w>
र् ण</w>
त कों</w>
वे दी</w>
स्प ॉ
बि ट</w>
ती त</w>
गा र्
अपना या</w>
भर पूर</w>
कला कारों</w>
ग ारों</w>
से न</w>
मिले ंगे</w>
दो पहर</w>
अ स्वीकार</w>
ज रु
ने ंट</w>
त्व रित</w>
डा ले</w>
डी ए</w>
बे चने</w>
बु राई</w>
कर ु
सौ दे</w>
मार पीट</w>
भंड ारण</w>
नी यता</w>
सू न</w>
् स</w>
हे क्टेयर</w>
नवा ज</w>
श त्रु
ने श्वर</w>
ए ग्
ख नि
रण नीतिक</w>
ंसि ंग</w>
श यों</w>
स भ
5 8</w>
मह ेश</w>
ल पुर</w>
जेएन यू</w>
सें ट्रल</w>
प्रति भा</w>
कमी शन</w>
बी एस</w>
हम से</w>
खंड न</w>
वारदा त</w>
मामू ली</w>
स ू</w>
राज दूत</w>
प्रारू प</w>
ट्रे लर</w>
पहुँ च</w>
पी आई</w>
r i
सं ग
स्की म</w>
ग़ रज़</w>
नो ए
आ यी</w>
काउं टर</w>
मौ लिक</w>
सॉ फ्टवेयर</w>
I C
मार् गों</w>
दिखा ता</w>
हम लों</w>
यहू दी</w>
रख ती</w>
इस ी
ला श</w>
लगा कर</w>
ले ज</w>
प्रति द्व
च य
श र</w>
लो त</w>
वै सी</w>
दि नेश</w>
खु फिया</w>
करा ए</w>
पहुँ चा</w>
ध मा
बा धा</w>
शु क्
दि लों</w>
o t
स्टी ल</w>
सं त</w>
वि लिय
ग्रामी णों</w>
वी जा</w>
चि ंग</w>
क ीं</w>
मत दाता</w>
ग्रे ड</w>
पा ं
पा त
कै ट
आई एस</w>
वाय दा</w>
य िक</w>
बे डकर</w>
ब्रा ंड</w>
नृ त्य</w>
म ्या
प् शन</w>
साक्ष ियों</w>
भ ू</w>
सि ख</w>
बर ें</w>
सुन कर</w>
टा या</w>
रि टर्न</w>
मे हर
हिंदु स्तान</w>
फी ल्ड</w>
ंडे शन</w>
प्र ॉ
कंग ना</w>
ता नी</w>
दि ला
जन जातीय</w>
प्लेट फॉर्म</w>
फा र्म</w>
डि यो
मा ं
कने क्
श्र मिकों</w>
सं भव
स ज
चै म्पि
परि योजनाएं</w>
द ्रा
फो र्स</w>
स च
झ े
एस डी
स ं</w>
पा प</w>
दा यक</w>
ढू ं
C h
मा सिक</w>
पो स्टर</w>
त्र ि</w>
जला शयों</w>
अब्दु ल्ला</w>
त् तम</w>
सू द</w>
फो र्
रा ल</w>
फ स
इरा दे</w>
अनु सरण</w>
व् हा
प ति
श्र द्धा</w>
न क्
फ़ र
लो गो</w>
बू झ
कार् बन</w>
प्रो ड
सू र</w>
कले क्टर</w>
्यु नि
न ॉर्
सीमा ओं</w>
श वों</w>
त स
दि सम्
कह ेंगे</w>
व् हाइट</w>
मार ियों</w>
इं डोने
शे ल</w>
त व्य
पारि वारिक</w>
नोए डा</w>
चा लित</w>
गह लोत</w>
ज टिल</w>
20 22</w>
पी जी</w>
पेशे वर</w>
ड्यू ल</w>
प्र ताप</w>
स् वर्ग</w>
सदस् यता</w>
चिं तित</w>
पर्य टकों</w>
न्यायाधी शों</w>
उ जा
लेख न</w>
कै या</w>
गै र
सुल झा
नाबालि ग</w>
टू ट</w>
क ने</w>
फ ड
ट्यू ब</w>
ते रा</w>
शा न</w>
चू क</w>
क्रि स</w>
0 8</w>
ढे र</w>
विकेट कीपर</w>
ए थ
य ड</w>
अर् जित</w>
का ई</w>
फ ल
मान वा
ता लि
ु ति</w>
विवा दों</w>
अम ल</w>
दिसम् बर</w>
ऊ ँ</w>
फाउ ंडेशन</w>
सच्च ा</w>
इंद ौर</w>
सिक् किम</w>
गो ल्ड</w>
क हाँ</w>
सप ना</w>
ती करण</w>
उल् लिखित</w>
मछ ली</w>
घट क</w>
गुना ह</w>
ना म
ू द</w>
वि ज
मा स्क</w>
मा या
बा ग
ट्रे नों</w>
सीआर पीएफ</w>
परि भाषा</w>
हॉ की</w>
तला क</w>
न्याया धि
समुदा यों</w>
अख् तर</w>
पहुँ चा
E x
फ् तार</w>
ी बद्ध</w>
सी धी</w>
हड़ ताल</w>
भु व
मंजू र</w>
जि रह</w>
इं ट</w>
शिव राज</w>
5 9</w>
यूसु फ</w>
वर् णित</w>
ले स</w>
र क</w>
इज रा
6 2</w>
6 8</w>
वि नो
ख़ु द</w>
तर स</w>
ग्लो बल</w>
उ तारा</w>
क च
हर गि
मा या</w>
पै र</w>
डि यों</w>
डे वल
उत्पा द
फ र्म</w>
क् ल
इलेक् ट्रिक</w>
स द्
ना नुसार</w>
दिलचस् पी</w>
वें कैया</w>
J P</w>
पदा र्थों</w>
फ़ ॉ
छो ड़ा</w>
बलि दान</w>
v s</w>
व ्र
लि ख</w>
ऊंचा ई</w>
मु ह
आयु ष</w>
ब ड़
नमा ज़</w>
र कार</w>
हिन् दु
सफल तापूर्वक</w>
मा स्टर</w>
तृ ण
क्रा ंति</w>
निक लने</w>
न मेंट</w>
सं दीप</w>
फं से</w>
अरो ड़ा</w>
रो गी</w>
नि विदा</w>
व्या ख्या
बा ध्य</w>
परिवर्त ित</w>
ख़ि ला
सित म्बर</w>
re s
देश वासियों</w>
किलो ग्राम</w>
आंक ड़ा</w>
जि यो</w>
अव लोकन</w>
पी ओ</w>
उ तना</w>
हथिय ारों</w>
सत ह</w>
1 1
पर् व</w>
क ड़
0 5</w>
श्र मिक</w>
उपा सना</w>
टि वि
से स</w>
सिद्ध ू</w>
संग्रहा लय</w>
भाव नाएं</w>
तृण मूल</w>
एन जी
दि व्या
ए डि
उद् धव</w>
E x</w>
क् के</w>
पद्ध ति</w>
गण ित</w>
5 3</w>
उप बंध</w>
फिल् म
विच ारा
लक्ष् मी</w>
नाइ टेड</w>
प्रो टो
अव धारणा</w>
सर् जन</w>
लै स</w>
क वि</w>
वा जपेयी</w>
भा विक</w>
तला शी</w>
बे ल</w>
स् त्रियों</w>
वा क़ि
ले ंडर</w>
सीए ए</w>
फ र्जी</w>
इ श
ड ्रि
ख िक</w>
हरगि ज़</w>
लापर वाही</w>
रह मान</w>
बद मा
घोटा ले</w>
डे ब
सू र्य</w>
जिन से</w>
ंग े
उर्वर क</w>
स फे
दी व</w>
द वाओं</w>
साव धानी</w>
मा ंड</w>
ह सन</w>
लग ते</w>
दू रों</w>
भुव नेश्वर</w>
चा वल</w>
199 9</w>
टेली विजन</w>
व्यव स्था
जरूर तों</w>
कम ल</w>
कि रण</w>
छे ड़
6 7</w>
पीछ ा</w>
के दार</w>
रख रखाव</w>
लंब ा</w>
शि र
विद्या र्थी</w>
मी ल</w>
e t</w>
a y
कवि ता</w>
सेमी फाइनल</w>
निम् नानुसार</w>
महत् त्वपूर्ण</w>
आ लोक</w>
हार िक</w>
सिलसि ले</w>
अ र</w>
o d
फुट बॉल</w>
महि ंद्रा</w>
लिख ने</w>
पुलिसकर् मी</w>
लि या
य हीं</w>
6 3</w>
इजा जत</w>
199 6</w>
एंड ्र
्य ौ
कारा वास</w>
it y</w>
रिश् ता</w>
ज र
क् सि
ऊ ंच
प न
दंड ों</w>
संलग् न</w>
नु मान</w>
रू सी</w>
मा फ</w>
शिंग टन</w>
जू नियर</w>
उत्सा ह</w>
फा ंसी</w>
ज़ न</w>
रह ित</w>
अ ति</w>
प्रो ग्राम</w>
ए ः</w>
परिणा मों</w>
कमा ंडर</w>
न्यू यॉर्क</w>
का ले</w>
सी ख</w>
भ क्ति</w>
फे र</w>
से वन</w>
त बा
डि फे
मे घा
एक ड़</w>
B JP</w>
स्टि ंग</w>
प्र योज
ज ना
अर् पित</w>
चिह् नित</w>
हस्तां तरण</w>
वि क्रे
ऑफि सर</w>
मु च</w>
आर सी
ख् वा
शा स्त्री</w>
कार ें</w>
ह ंगा
उ द
वा ट</w>
उ तार</w>
मस् ति
बच पन</w>
फि ट
ग् स</w>
इ ंग</w>
पा ल
वाह क</w>
फड णवीस</w>
वा लय</w>
फाय दे</w>
फ्र ी</w>
जो न</w>
माय ने</w>
डेब ्यू</w>
आर क्षित</w>
फस लों</w>
त ीं</w>
सि रे</w>
चे ंज</w>
ार ियों</w>
स्कू ली</w>
रजि स्टर</w>
वा क्य</w>
पे य
निर् भरता</w>
ति माही</w>
बन् दों</w>
केन्द्र ों</w>
हाद सा</w>
वे स्ट</w>
घट नाएं</w>
खी ंच
प रहे
जि ट</w>
शांति पूर्ण</w>
ए म्स</w>
वित् त
महो त्सव</w>
आं शिक</w>
वि मानों</w>
भाग ीय</w>
महो दय</w>
ग हरा
ठ ु
c e</w>
N e
रख ेंगे</w>
ईमान दार</w>
गां धी
साम ्रा
6 6</w>
ै व</w>
कद मों</w>
घा त</w>
सु र्
बन ता</w>
एस आई</w>
जे म्स</w>
तो मर</w>
का फ़ी</w>
बी मारियों</w>
टि या</w>
नती जा</w>
ले शन</w>
उ मर</w>
इ र
बता ती</w>
दर्शा या</w>
जहन्नु म</w>
शक्ति शाली</w>
मु क़
पुर म</w>
इस रो</w>
सा त
गु रु</w>
प्रशि क्षित</w>
अपे क्षित</w>
ारा म</w>
पे पर</w>
कार् तिक</w>
ले ं
बूझ कर</w>
मुआव जा</w>
मिस् र</w>
ऑ न</w>
आख़ि रत</w>
खा ड़ी</w>
को टा</w>
रि हा</w>
क्रिया न्वयन</w>
इं स्पे
गु ं
रा ना</w>
सम स्त</w>
तत्व ों</w>
कर नेवालों</w>
सब् सि
मा ंगा</w>
ता त्
A N
रा त्रि</w>
सच मुच</w>
आप से</w>
उन् होने</w>
9 1</w>
टी ज</w>
ख ़</w>
मु म्बई</w>
ड्यू टी</w>
गि नती</w>
इंडोने शिया</w>
क् चर</w>
सच्च ी</w>
सं क्षि
क सा
आरोप ित</w>
दुष् कर्म</w>
अग ला</w>
मेघा लय</w>
न्यायाधि करण</w>
दिखा ते</w>
पहुंच कर</w>
सचि वालय</w>
गा लैंड</w>
अ ब
शो ध
संभव तः</w>
रॉ यल</w>
8 1</w>
2 50</w>
सफे द</w>
मनु ष्यों</w>
बन कर</w>
7 7</w>
अनु मानित</w>
का नपुर</w>
गौर व</w>
सा मु
एस बीआई</w>
कार्य रत</w>
श ंस</w>
माया वती</w>
सेल् फी</w>
धार ाओं</w>
निर्वा चित</w>
ट अप</w>
अ फ़
जीवि का</w>
प्रणा लियों</w>
चा य</w>
पं थी</w>
जबर दस्त</w>
ह री
स्वा भाविक</w>
घ ड़ी</w>
ब तौर</w>
ई ः</w>
बरा हीम</w>
बा ँ
मेह ता</w>
वि जय
र जत</w>
मि जो
प्रस न्नता</w>
a k
दस्तावे ज़</w>
राज नैतिक</w>
आख़ि र</w>
व फा
त्व चा</w>
्रा स</w>
टाइ म्स</w>
प्रतिद्व ं
व ारि
स्ट ै
पा एंगे</w>
पड़ ती</w>
शो षण</w>
आर एफ</w>
सु शील</w>
जे ट</w>
र फ्तार</w>
अरु णाचल</w>
यू जर्स</w>
मत दाताओं</w>
दू ता
च ला
2 2
भू त
लेख ों</w>
क लर</w>
हा द</w>
जिते ंद्र</w>
क़ु रान</w>
स ज्
दौ लत</w>
छा ड़</w>
वि य
ज ख्
उप क्रम</w>
जि कल</w>
रि ंदर</w>
पड़ ताल</w>
ज ंग
मा स</w>
प् पी</w>
जो ड़े</w>
विमान न</w>
मद द
ब यानों</w>
उत् सव</w>
श् वर
ज़ रु
इ बराहीम</w>
दीर् घ
रू द्ध</w>
अ नू
कार् मिक</w>
मे मो
डिप् टी</w>
आ यर
ह न्ना</w>
P M</w>
मा ला</w>
9 4</w>
ल ॉ</w>
देव गन</w>
सौं पी</w>
है रान</w>
लि मों</w>
ि का</w>
हा टी</w>
रो धी</w>
आन् ध्रप्रदेश</w>
रिए ंट</w>
स्पे स</w>
विनो द</w>
तु ल
आ शय</w>
नि ः
ना मों</w>
च क्र</w>
ग ले</w>
आ न</w>
कोर् इ</w>
चय नित</w>
go v</w>
इ ए</w>
अभ ्य
चक्र वा
ख़ ू
वि ज्ञा
कॉले जों</w>
मज दूरों</w>
स् म
आ कां
लग ती</w>
मिजो रम</w>
6 1</w>
हि ट</w>
c t
सा इंस</w>
पा ँच</w>
नि को
न ड्डा</w>
W P</w>
प ढ़</w>
जन जाति</w>
छात्र ाओं</w>
मान ो</w>
पक ड़ने</w>
पश्चा त्</w>
पदोन्न ति</w>
सु ख
परि स्थिति</w>
ने ंस</w>
र वै
उप चुनाव</w>
ग मन</w>
लाइ फ</w>
रि यम</w>
द शकों</w>
एस टी
पा ता</w>
In dia</w>
श ने</w>
एन ए</w>
गुज र
सूच ीबद्ध</w>
व श</w>
लाइ व</w>
त ब
एक जुट</w>
हरा म</w>
ह र्
हॉ ल</w>
पु ष्
पॉजि टिव</w>
पेय जल</w>
नो ट
बा स</w>
नाग पुर</w>
9 8</w>
हु ये</w>
तुम में</w>
इंस्पे क्टर</w>
श ख़्
7 1</w>
0 9</w>
बि ग
बहादु र</w>
ऊ ंगा</w>
प् लस</w>
सामु दायिक</w>
अपरा धियों</w>
S t
.0 9.
समझ ता</w>
शौ चा
बढ़ा ना</w>
सो साइ
निक ले</w>
दर् शी</w>
मौ खिक</w>
ज़ े
इंग ित</w>
सुधार ों</w>
अप मान</w>
8 2</w>
वे शी</w>
नक द</w>
अदाल तों</w>
निय मि
ज ंगल</w>
धन राशि</w>
कार्य शाला</w>
गु प्त</w>
कम ्युनि
ति रु
गु मराह</w>
आ दर</w>
बै ंग
दो हराया</w>
मि नल</w>
बा मा</w>
कली सिया</w>
भ या
दी वार</w>
से वकों</w>
बर् ग</w>
दु खी</w>
तव्य ों</w>
R e
वि लय</w>
सं वर्धन</w>
क दा
मले शिया</w>
गु णों</w>
ला ंग</w>
दिलचस् प</w>
o p
फर् क</w>
नवी करणीय</w>
रूप ए</w>
आ भार</w>
पो त</w>
ड मि
चीज़ ों</w>
रे ंज</w>
9 7</w>
सोम वार</w>
आ ड
पर्य टक</w>
इस रा
फै ल</w>
जा धव</w>
7 3</w>
चा ल
ना मा</w>
स टी
ब र्ट</w>
पढ़े ंः</w>
टिवि टी</w>
क्रा मक</w>
कॉ प्टर</w>
लक्ष ्यों</w>
वै सा</w>
ख बरें</w>
श क़</w>
निका यों</w>
नाइ ट</w>
आई एफ
द क्षता</w>
टे निस</w>
चे री</w>
कथ न</w>
आशी ष</w>
म र्स</w>
क्ष म
पारदर् शिता</w>
8 8</w>
ष् मान</w>
ले फ्
कु श
आ पात
हि म्मत</w>
मु र
सद ैव</w>
विश् वा
कि लो</w>
ड र्स</w>
जाये गी</w>
वा कई</w>
मस्ति ष्क</w>
सभा ओं</w>
ल ीय</w>
ऑ स्ट्रेलियाई</w>
प्र युक्त</w>
पहा ड़ी</w>
नसी हत</w>
लौ टने</w>
मु सी
च श्
आयु ष्मान</w>
विचारा धीन</w>
इंड स्ट्री</w>
o g
7 8</w>
य ीं</w>
से नाओं</w>
ला पता</w>
मदद गार</w>
कार ि
क म्
व स्त्र</w>
जान वरों</w>
सब्सि डी</w>
0 7</w>
र् न</w>
प ्य
निरा श</w>
पुलिसकर् मियों</w>
सुरक्षा बलों</w>
रिकॉ र्
एच डी
सला मी</w>
बा धित</w>
हे ली
चा ल</w>
ष ा</w>
न स्
बा ला
a t</w>
भू टान</w>
भविष्य वाणी</w>
ज़ ू
द ्</w>
एम टी</w>
मै न
ब ृ
त्या ग</w>
ले ती</w>
रो शन</w>
ट ना</w>
0 6</w>
प री</w>
नज र
फै लाने</w>
ख्या त</w>
शिल् प</w>
तस्वी रों</w>
आग रा</w>
योग ियों</w>
था न</w>
ॉ र्ड</w>
के न</w>
लिहा ज</w>
नक दी</w>
इ म्
प्या ज</w>
म् बे</w>
पैग़ म्बर</w>
टि नेंट</w>
एच सी</w>
मना ने</w>
झ ड़
संक्षि प्त</w>
प्रयोग शाला</w>
स पोर्ट</w>
199 8</w>
a d</w>
ब्रा जील</w>
रेखा ंकित</w>
दा द</w>
इसी लिए</w>
एनडी ए</w>
6 9</w>
ब चे</w>
पु कार
ग्र ो
शुक्र वार</w>
ज क</w>
ग र
ऑर् डर</w>
वै धता</w>
ख र्
राज न</w>
निवार ण</w>
श्रे णियों</w>
वि लेख</w>
प्रमाण पत्र</w>
विका स
रू श
टे ं
सह ज</w>
द्रो ह</w>
आ ज़ा
औ न</w>
IP L</w>
8 3</w>
अख बार</w>
निभा ने</w>
ज मेंट</w>
रू ट</w>
क् सी</w>
कर नेवाला</w>
मंग ल
रि कार्ड</w>
फी चर</w>
प मेंट</w>
टे बल</w>
्र ी</w>
स्पे न</w>
मॉर् टम</w>
प्रो ड्यू
पास वान</w>
अ ली
स्व यं
व्यापार िक</w>
SC C</w>
लग ेगा</w>
घो ष</w>
इस्रा ए
र घु
स्थि तियों</w>
डायरे क्ट</w>
ए न्
m ent</w>
आर् मी</w>
घु स
कॉर पोरेट</w>
गु वा
ि ए</w>
मह ज</w>
जि तनी</w>
समझ ना</w>
चा इ
ं का</w>
स् तं
सै कड़ों</w>
भ ग
दु निया
कर वा</w>
अप रि
मोटर साइकिल</w>
7 4</w>
मा ल्
8 4</w>
गे म</w>
ओ बामा</w>
बढ़ िया</w>
i i</w>
9 6</w>
स्ट ल</w>
स चे
c on
दुः ख</w>
डा इ
डा ंस</w>
साइ बर</w>
स ल्
वा य</w>
मार ुति</w>
द री</w>
आन न्द</w>
आवा ज़</w>
पह लों</w>
शाला ओं</w>
न् या</w>
सा धा</w>
8 6</w>
शो धन</w>
द ीं</w>
6 00</w>
स् कॉ
सक ल</w>
सा मान्य
माध्य मिक</w>
बढ़ े</w>
का फ़ि
दा वों</w>
पा कर</w>
टु कड़े</w>
फो र्ड</w>
ब्र ॉ
अव संरचना</w>
उत्पा दक</w>
सा ंस</w>
न दियों</w>
आई डी</w>
या नि</w>
मु ज
जि यम</w>
लेफ् टिनेंट</w>
गो प
I N
दावे दार</w>
आ फ</w>
मूल ्य
डर ते</w>
आर आई</w>
ना थन</w>
दर् शक</w>
का ऊ</w>
7 6</w>
हॉ स्पि
व्यव स्थित</w>
वि टा
दी जिए</w>
कि यां</w>
अव ॉर्ड</w>
राज न
ला ंच</w>
म च</w>
नि चले</w>
ढ़ े</w>
कार िता</w>
an d
ली ला</w>
पा टिल</w>
एन एच
सोसाइ टी</w>
ला नी</w>
साह स</w>
पक ड़ा</w>
अ पर</w>
ग्र ीन</w>
कां स्टेबल</w>
संर क्षित</w>
य रूश
मत ें</w>
पि न</w>
ट नी</w>
अप हरण</w>
सा म्
ंग त</w>
0 2</w>
गुवा हाटी</w>
आई पी</w>
रा णा</w>
फाय रिंग</w>
ड्र ा</w>
टाइ प</w>
अल र्ट</w>
ख ें</w>
जान ना</w>
बि र</w>
दु का
टे शन</w>
ख ट्
ओ सी</w>
9 2</w>
दो स्ती</w>
२० ०
ज़िम्मे दारी</w>
गर् मी</w>
अभि भाव
लै ंग
गण तंत्र</w>
ओ वर
फ री
h ar
मि शेल</w>
खनि ज</w>
करो ड़ों</w>
वि भागीय</w>
एस ए</w>
रे ख</w>
स्टो र</w>
सू र्
मज दूर</w>
बौ द्ध</w>
उ भर
संगठ ित</w>
स् पोर्
पे क्ष</w>
नू ह</w>
सिं धु</w>
ं की</w>
यु वकों</w>
फै ला</w>
करवा ने</w>
उठा ना</w>
लाभा र्थियों</w>
जि या
उ कसा
हलफना मे</w>
क् लास</w>
ए म्
t er
यू हन्ना</w>
को शिका
मा प
त या</w>
ब हर
D ist
पीड़ ितों</w>
मा बू
पु त्रा</w>
ण ी
च लो</w>
सिफारि शों</w>
क व
जान बूझकर</w>
आड वाणी</w>
e n</w>
बि हारी</w>
ई स्ट</w>
i s</w>
त्यो हार</w>
शिकाय तों</w>
.0 8.
सा ध
ना व</w>
आत् म</w>
फि लि
ड म</w>
गहरा ई</w>
शि मला</w>
बा ल
धर् मे
चौ थी</w>
कैट रीना</w>
आवा सीय</w>
प तरस</w>
स्टे ंट</w>
संवाद दाता</w>
ज ं
चु अल</w>
ई साई</w>
झ ील</w>
ड़े कर</w>
निक ला</w>
धा तु</w>
मस ले</w>
सब का</w>
आई डी
0 3</w>
दु आ</w>
बै डमि
ग्र ं
ना काम</w>
इ बाद
a y</w>
ऋ षि</w>
जवा ब
शिर कत</w>
सं जीव</w>
मे र</w>
दल ीय</w>
यू नाइटेड</w>
मिल ना</w>
मि ला
न ़
गेंद ों</w>
अश् विन</w>
रू र</w>
छेड़ छाड़</w>
कु मा
उत्सा हित</w>
199 5</w>
l e
सो ना</w>
बहर हाल</w>
दृ ढ़
दूता वास</w>
रे ंद्र</w>
महा महि
स्ट न</w>
वि रूद्ध</w>
भ ली</w>
खे लते</w>
ब स
द ं
एम सी
सब् जि
जाव ड़ेकर</w>
वि नियमन</w>
हे ड</w>
पर वाह</w>
देख ेंगे</w>
निर् वहन</w>
इ ले
N os</w>
भ ट
चिकित् सक</w>
टी 20</w>
च्छ िक</w>
u s</w>
पोस्ट मॉर्टम</w>
मु क्ति</w>
मानव ता</w>
बु ल
ए डी
.0 6.
सत्या पन</w>
भ गत</w>
सं भावनाओं</w>
चा ंदी</w>
दु खद</w>
भूत पूर्व</w>
म क्
अधिकार िता</w>
आ जीविका</w>
आ ओ</w>
द ख
ब पति
पंड ित</w>
उप ग्रह</w>
आ श्र
सि र
सु नी</w>
लड़ा कू</w>
पक ड़े</w>
इबाद त</w>
न वी</w>
भाग ियों</w>
फो रम</w>
रे स</w>
दा दा</w>
क् लो
मद ्रास</w>
पी टीआई</w>
दुश् मन</w>
ू ंगा</w>
स् को
बपति स्
सु न्
शि ला</w>
नि वासियों</w>
क् वार्
समि तियों</w>
ट्रे ड</w>
ज़ र</w>
जै विक</w>
जी ने</w>
पा ंड
टाइ गर</w>
थ ॉ
कार्या लयों</w>
आखि रकार</w>
यरूश लेम</w>
सुपर स्टार</w>
सत् तार
कै सी</w>
श ें</w>
अ मी
राज द</w>
ली ल</w>
लि यो
प्रति मा</w>
ब् ला
गण ेश</w>
स्ट्र ि
दी दा</w>
महामहि म</w>
बां ध</w>
हू ंगा</w>
निर् णा
ड़ ना</w>
ग्रा फी</w>
ज़ रा</w>
त् ते</w>
8 9</w>
परि दृश्य</w>
छ ्
अ वार्ड</w>
वि द</w>
महा सागर</w>
at e</w>
दिव ंगत</w>
दि रों</w>
हमला वर</w>
फ़ै सला</w>
बा ला</w>
ष ्</w>
ब्रि क्स</w>
R a
ब ली</w>
अनुप स्थिति</w>
199 7</w>
धो खा</w>
छा पे
ले टर</w>
जी न</w>
ख न्ना</w>
गी ता</w>
द ह
म चा</w>
नीति गत</w>
न फ
हि म</w>
अ मृत
रो ज़ी</w>
प्रभाव शाली</w>
उद्ध ृत</w>
टू र</w>
खे ली</w>
य री</w>
निष्कर् षों</w>
साव धान</w>
जो श</w>
प रो
इन से</w>
म्या ं
जिते न्द्र</w>
एड मि
10 ,000</w>
व्याव हारिक</w>
व स्त</w>
गतिवि धियां</w>
अक बर</w>
पा ठी</w>
बीएस ई</w>
धिकार ियों</w>
इजरा यल</w>
की करण</w>
आ ज्ञा
मु द्रा
तुम पर</w>
पुनर् वास</w>
पास पोर्ट</w>
वी एम</w>
वि यों</w>
ता जी</w>
1 20</w>
स्व ै
चार् ज
प ू</w>
गण मान्य</w>
विनि मय</w>
लॉ ग</w>
कि र
स्ट्रा र</w>
घट कर</w>
शा स
जख् मी</w>
वा ने</w>
8 7</w>
अप डेट</w>
ई सी</w>
H ind
बु मराह</w>
गी त
च लती</w>
नि योक्ता</w>
ंगा ई</w>
टिप्प णियों</w>
चिकित् सकों</w>
0 4</w>
सांख्य िकी</w>
बैडमि ंटन</w>
न् ति</w>
मि त्रों</w>
था ः</w>
ड़ ते</w>
.0 7.
संवेद ना</w>
ख़िला फ़</w>
क्षेत्र ाधिकार</w>
किरा ए</w>
इंजी नियर</w>
शु क्रिया</w>
ब गैर</w>
खे लना</w>
खे त</w>
पै न</w>
दी क्षित</w>
डी ओ</w>
प्रती क्षा</w>
वा दे</w>
१ ०</w>
स्टी व</w>
कमि श्
संस् कार</w>
मा ंस</w>
गिर ने</w>
आ क्रमण</w>
सं धि</w>
त म
उ च्
टे लि
रो धक</w>
मु क़ा
मार् शल</w>
अर् ध
सोच ते</w>
नि कट
किस् म</w>
समस्या एं</w>
एं टी
स तर्
प त
दि लाने</w>
अनु राग</w>
रजि स्ट्रार</w>
th e</w>
निर्णा यक</w>
किरा ये
अ समर्थ</w>
पंजा बी</w>
अना ज</w>
यो गों</w>
पूं जी
छापे मारी</w>
गि री</w>
इस्ला मिक</w>
कै पि
कप् तानी</w>
सो साय
वां छ
ज़ु ल्म</w>
को र्स</w>
स्पि नर</w>
र स्
प्र करण</w>
घ ृ
हिं सक</w>
मुज फ्
वि दा
ला ह
त पुर</w>
आश् वस्त</w>
लि खा
मत् ती</w>
विन य</w>
रख कर</w>
हता हत</w>
विटा मिन</w>
श्रे य</w>
साहि ब</w>
निषे धा
शुक् ला</w>
हंगा मा</w>
दर् द
फे यर</w>
र् द</w>
अं ड
ग लिय
फिट नेस</w>
प्र मुख
स्रो तों</w>
अनु प्रयोग</w>
निश् चि
दे नी</w>
अक सर</w>
हो त्रा</w>
ब ो</w>
प्रति भागियों</w>
डे मो
घ ा</w>
.0 3.
इ क्वि
रवि वार</w>
भ ंग</w>
मार् केट</w>
प्रस्तु ति</w>
गो ई</w>
प्र चार
पुरा ना</w>
स् ड</w>
ल ि</w>
ric t</w>
संर च
एड मिट</w>
थो ड़े</w>
मिश्र ण</w>
ग हन</w>
सतर् कता</w>
8 00</w>
म रे</w>
तथा पि</w>
i a</w>
च पेट</w>
C O
कं टे
सह योगियों</w>
तू बर</w>
झ ि
जि ला
p ur</w>
विवे का
दि लाया</w>
ज़ ल</w>
चार्ज शीट</w>
1 000</w>
नि श
फू ड</w>
समर्थ क</w>
दु बई</w>
कु रै
विशेष ता</w>
मज दूरी</w>
भा ई
ई सा</w>
ख् ती</w>
प्रतिष् ठा</w>
पू रक</w>
ल व</w>
विचार धारा</w>
फे ड
ना एँ</w>
म छु
निशा नियाँ</w>
उपयोग कर्ता</w>
भंड ार</w>
भ क्त</w>
बॉ म्बे</w>
टॉ म</w>
स्वर्ग ीय</w>
शख़् श</w>
बो स</w>
पी एफ
इ ड</w>
9 3</w>
टेली फोन</w>
आत्म निर्भर</w>
वन ि</w>
यु वती</w>
बा स्
उपलब् धियों</w>
गो ल्
डा लकर</w>
का ग
क त
ख ियों</w>
जाये ंगे</w>
व्यक्ति त्व</w>
पसं दीदा</w>
एमओ यू</w>
विजे ताओं</w>
बै टरी</w>
कम ल
समर्थ ित</w>
घ टा
अ जीत</w>
प्रीमि यर</w>
प्र योजन</w>
कनेक् टिविटी</w>
किरा या</w>
एक्स चेंज</w>
q u
खो ला</w>
आं खों</w>
मह बू
हॉस्पि टल</w>
अक् तूबर</w>
सप ने</w>
in g
और तों</w>
तैना ती</w>
डि ज़ा
ंग ें</w>
श रण</w>
द लित</w>
प टा
क वा
ब ारा
उप मुख्यमंत्री</w>
ट्र म्प</w>
बि लियन</w>
.0 5.
न् द
स्वा य
प्रो टीन</w>
स्ट्री ट</w>
ल क्षित</w>
प्रवि ष्टि</w>
वि देशों</w>
गेंद बाजों</w>
फ लता</w>
का य
मुख ी</w>
मं दिरों</w>
ध् वनि</w>
ए लि
मर म्मत</w>
ब ले</w>
अम रिंदर</w>
ल कड़ी</w>
छ त</w>
ऊ ण्
श् छ्
श्छ् ष्</w>
ऊण् श्छ्ष्</w>
सत्तार ू
तैय ारियों</w>
A R
डें ट्स</w>
ए सि
ारि या</w>
समु चित</w>
पुरू ष</w>
ट्रे निंग</w>
उप ज</w>
मल् होत्रा</w>
क्ष ों</w>
का ंड</w>
श नि
ईमान दारी</w>
आकर् षक</w>
फु टेज</w>
आदि वासी</w>
ईमान दारों</w>
एस डी</w>
कर् तव्यों</w>
स ः</w>
वि क्र
खा द्या
घा टे</w>
ए पी</w>
वै क्
बं दू
श् वे
अनुमो दित</w>
लि ब</w>
स् वी</w>
ट्रॉ फी</w>
उ तार
अ तीत</w>
सु दृढ़</w>
माल दीव</w>
मो चन</w>
व ला</w>
कुमा ऊँ</w>
गो रख
सी रिया</w>
बैठ कों</w>
नी ंद</w>
ति की</w>
त्रि पाठी</w>
जि तने</w>
ग हरे</w>
खु दरा</w>
रा शि
दा नों</w>
साय निक</w>
गुला म</w>
ले खा
ली जिए</w>
उच् चा
199 4</w>
ण् ड
स्क्र ी
गा र्ड</w>
कु रि
वे षण</w>
श्र ा
ली प</w>
मुख बिर</w>
सं क्षेप</w>
चिह् न</w>
घोष णा
सर्वो त्तम</w>
गा ना</w>
ह त्या
ला यक</w>
ति का</w>
तौ बा</w>
कमिश् नर</w>
गो गोई</w>
बढ़ ेगी</w>
प ट</w>
रॉ य
पॉ ल</w>
र हा
इं च</w>
ह की
यु व
खट् टर</w>
उपा युक्त</w>
E N
सं ध्या</w>
ड़ि या</w>
म दी
तैय ारियां</w>
या ना</w>
दि वाली</w>
प्रश् नों</w>
ग ंग
शि क्षा
सि यत</w>
बा बत</w>
सोना क्षी</w>
सि यस</w>
मरा ठी</w>
ऊ परी</w>
अ लगा
ई ल</w>
नी रव</w>
निभा ते</w>
गति शील</w>
एच डी</w>
o v
ने शन</w>
हर लाल</w>
या कू
इस्ती फे</w>
ag e</w>
भु त</w>
पे रिस</w>
ड़ि यां</w>
भा वी</w>
प ंच</w>
डे जा</w>
गे हूं</w>
प दा</w>
सोसाय टी</w>
कह े</w>
वसी यत</w>
न् ट</w>
म्यां मार</w>
नमू ने</w>
ओ पी</w>
वा या</w>
या म</w>
प चा
ध ै
जा पानी</w>
माइ कल</w>
इरा क</w>
सें सेक्स</w>
ज्यो ति
त ब्
सक ीय</w>
ल ए</w>
स्पॉ ट</w>
आ हार</w>
मु क्
दर्द नाक</w>
नौ कर
एम डी</w>
ग ु</w>
पे टेंट</w>
हेल् थ</w>
बौ द्
हे ज</w>
दा य</w>
किता ब
चो टों</w>
एन एल</w>
अय ्य
सो स</w>
चौ था</w>
मोर् चा</w>
न्याय पालिका</w>
.0 2.
पं क
श् वर्
ब् लू</w>
जा ही</w>
स ख्ती</w>
फू ल</w>
अ जित</w>
सर् वे</w>
द्व ी</w>
अं कित</w>
सम े</w>
प्रस्ता वों</w>
Dist rict</w>
2 /
कां स्य</w>
एक् टिव</w>
० ००</w>
मेहर बान</w>
अफ्री की</w>
प्राय ः</w>
क़ ी</w>
निषेधा ज्ञा</w>
I II</w>
रा धा</w>
ब स्ती</w>
त्र ित</w>
आद म</w>
रा ंची</w>
दा श्त</w>
उ ंड</w>
r a</w>
श्य ो
मुश् कि
अड् डा</w>
कु रान</w>
1 :
नि योजन</w>
क न्न
बह ु</w>
त नाम</w>
मं डी</w>
डा लते</w>
हो म
सं भावनाएं</w>
शि वा
दो नो</w>
हु ड्डा</w>
ह ने</w>
अं श</w>
स्ट्रे शन</w>
भाग ने</w>
ब ढा
पूर्व वर्ती</w>
वि नाश</w>
12 5</w>
सला म</w>
समा वेशी</w>
आवा जाही</w>
Hind i</w>
प्रस ारित</w>
विद् या</w>
ख़ र्च</w>
उस पर</w>
8 0
सटी क</w>
पारदर् शी</w>
न मक</w>
सत्तारू ढ़</w>
सर् वर</w>
फी चर्स</w>
ट करा
ए कदम</w>
छु ट
S T</w>
पुन रु
जो त</w>
हा सन</w>
कॉ मर्स</w>
साम्रा ज्य</w>
साह ब</w>
पी डि़
का ला</w>
अमृत सर</w>
शर् ते</w>
बता ना</w>
प्रतिस्पर् धी</w>
की मतें</w>
संस्था गत</w>
स ईद</w>
ब् स</w>
फर मा
छा त्रा</w>
सि वाय</w>
नमू नों</w>
p l
वा हिक</w>
परे ड</w>
रो शनी</w>
बर् खा
नि ष्ठ</w>
न ्</w>
गा न</w>
रे क</w>
तालि बान</w>
ट स</w>
उजा गर</w>
पर म्प
एन टी
जा ल</w>
ऑ यल</w>
ई मेल</w>
थ ल</w>
एन आईसी</w>
हा ना</w>
टर् मिनल</w>
उठ ता</w>
ज डेजा</w>
मो ल</w>
नि देश
बल्ले बाजों</w>
C A
याकू ब</w>
फौ रन</w>
बै ग</w>
पुस्त कों</w>
ख पत</w>
इन् कार</w>
.0 1.
प्रस न्न</w>
नफ रत</w>
प्रच लित</w>
iv e</w>
मुह म्मद</w>
अ सि
राज ेंद्र</w>
भ ं
झू ठा</w>
दू ंगा</w>
लि श</w>
मो मि
भी षण</w>
पर् व
सर् किट</w>
मान दंडों</w>
बपतिस् मा</w>
सेवानि वृत्ति</w>
एच ओ</w>
और ़</w>
अ मीर</w>
वि फलता</w>
लं बाई</w>
जिन को</w>
राज ू</w>
फे स</w>
पहा ड़</w>
े य</w>
सा या</w>
सम य
पैरा ग्राफ</w>
पा ना</w>
नारा ज</w>
दरवा जा</w>
ज् म</w>
हिंदु ओं</w>
अधी न
5 ,000</w>
बा कू</w>
निर स्त</w>
ज़ि क्र</w>
अम र</w>
बढ़ ेगा</w>
नोट बंदी</w>
e d
व् र</w>
पॉलि सी</w>
ओ म</w>
199 2</w>
मानवा धिकार</w>
जान कर</w>
ऊ ंची</w>
लि यो</w>
प्रतिद्वं द्वी</w>
प् ट</w>
चैंपि यनशिप</w>
बा लों</w>
अं सारी</w>
फ् टी</w>
नी ता</w>
ठि काना</w>
क़ े</w>
स्व देशी</w>
ट लर</w>
सद र</w>
स शक्ति
फै शन</w>
खंड पीठ</w>
लि पि</w>
कुरै शी</w>
वर्गी करण</w>
बता ओ</w>
चाह ेंगे</w>
मी ट्रिक</w>
.0 4.
एनडी आरएफ</w>
वि धिक</w>
च ट
ओ एस</w>
अ द्
प्र दायिक</w>
च लाई</w>
विंड ो</w>
लि प
दा हि
झग ड़ा</w>
का फि
स्म रण</w>
ता लिका</w>
अनु ग्रह</w>
विय तनाम</w>
बं ट
पं क्ति</w>
क तों</w>
रच नात्मक</w>
जी डीपी</w>
प्रोटो कॉल</w>
वि वर
मी टिंग</w>
पा ली</w>
ht t
म् मा</w>
मेज बानी</w>
आ इस
लाह ौर</w>
इस्ला मी</w>
ही रो</w>
सशक्ति करण</w>
e l</w>
दुर् गा</w>
रा जा
बु ध
रा सायनिक</w>
आश्चर् य</w>
ॉ प</w>
इ क
ती व्र</w>
वि कता</w>
मे जर</w>
ज़िन् दगी</w>
ल ह
अं डर</w>
50 ,000</w>
सु ल्
लिख कर</w>
ली ट</w>
र्थ क</w>
रे टिंग</w>
म क्का</w>
उठा ते</w>
नार े
दुर् भाग्य
दा नी</w>
एम पी</w>
बा ध्य
सी एल</w>
व्या पारी</w>
कठि नाई</w>
एचडी एफसी</w>
पो ल</w>
घा तक</w>
ख ड़
हा लॉ
जवा हरलाल</w>
गर्भ वती</w>
उ ल</w>
सुन ते</w>
पीडब् ल्यू</w>
केन्द्र ित</w>
स तर्क</w>
र क्षा
ॉ फ</w>
औष धि</w>
क्षम ताओं</w>
एह सास</w>
सि र्
स तीश</w>
उप न्यास</w>
प लाइन</w>
उ दार</w>
फ़ि ल्
जा ंच
फाय दे
व् ही
मै ने</w>
द हेज</w>
ग रि
ली म</w>
प्रयोज नों</w>
अनु शासन</w>
नू र</w>
पी आर</w>
इंत जाम</w>
आई एम</w>
साम र्थ
अव काश</w>
u p
फो कस</w>
ऐ श्वर्
7 9</w>
भूमि काओं</w>
टि या
ज़ ्
प स
फ़ा र</w>
कामया बी</w>
उद्य मों</w>
सी आई</w>
गा य</w>
रज नी
डि य
बु द्ध</w>
इलेक्ट्रॉ निक्स</w>
मु म
प्रशं सकों</w>
कमल नाथ</w>
ता ला
की र्
स्प द</w>
डी एम
कार गर</w>
च ं
कां पा</w>
ब् ल
बु जुर्
च तु
वा शिंगटन</w>
भाष ा
ह ज
द वा
हा लिया</w>
माल् या</w>
उद्य मियों</w>
सम कक्ष</w>
गाय ब</w>
प्रा ण</w>
जो रदार</w>
गु मरा
समर्थ कों</w>
प्रीमि यम</w>
ले ह</w>
क् लॉ
वि या</w>
कुं जी</w>
भ्र ष्ट</w>
निका ले</w>
गुज़ र</w>
ष ा
ज़ा म</w>
सं योजन</w>
स्टा र्ट</w>
रा कांपा</w>
ब्रि ज</w>
हटा या</w>
डा ली</w>
इक्वि टी</w>
हालॉ कि</w>
यू नानी</w>
ए जु
क अप</w>
सि म
कृ त
मान जनक</w>
स दा</w>
विरो धा
डि स्क</w>
ज़ बर
कह कर</w>
ब हिष्
ज़ि र</w>
स पुर</w>
श् न</w>
ला ई
सुना या</w>
एजे ंट</w>
नवी नतम</w>
दरवा जे</w>
ज्यो ति</w>
गां ठ</w>
कल क
माबू द</w>
स्पी कर</w>
जा दू</w>
सि ल्
ग ण</w>
मुसी बत</w>
पी वी</w>
राउ त</w>
खरी दा</w>
डेमो क्रे
अ योग्य</w>
ब्रे क</w>
बेंगलु रू</w>
का लेज</w>
अर् जी</w>
च लन</w>
म ज़ा</w>
पर् वत</w>
जय शंकर</w>
वि ज्ञ
परी क्षाओं</w>
उत् सर्जन</w>
य र्स</w>
झड़ प</w>
परि जन</w>
जी ती</w>
डिफे ंस</w>
सा लाना</w>
संभा लने</w>
कश्मी री</w>
मत भेद</w>
बचा या</w>
ति या
लैंग िक</w>
निर् या
एस एल</w>
्रि कर</w>
स्टा र्
ज़ ों</w>
सेल् सियस</w>
मा बाद</w>
गा यक</w>
रुप या</w>
मछु आ
श्री देवी</w>
जा क</w>
t o</w>
र त्न</w>
उद्य मिता</w>
शनि वार</w>
गोरख पुर</w>
ऋ ष
ब शर्ते</w>
घुस पै
सचे त</w>
मुला यम</w>
सर कारें</w>
वा लो</w>
आ नु
आ धा</w>
एं टर
मॉ ड
दिखा ए</w>
अं श
हरा कर</w>
निशा नी</w>
ग़ा लिब</w>
फ़ े
इन् होंने</w>
a m</w>
विधि वत</w>
वा ज</w>
तल वार</w>
चै न</w>
अंड मान</w>
दि लीप</w>
ज ता</w>
फी ट</w>
अधीन स्थ</w>
रवि शंकर</w>
नि चली</w>
क बीर</w>
श्री वास्तव</w>
गे ल</w>
क्षति ग्रस्त</w>
का एं</w>
वैक् सीन</w>
मद नी</w>
दु कानों</w>
बन् द</w>
चे हरा</w>
कु मार
दुनिया भर</w>
s h
कि सने</w>
भ व्य</w>
इर फान</w>
वास्त विकता</w>
परि कल्पना</w>
गा हों</w>
ग न्
सो चने</w>
क था
परहे ज़
मुजफ् फर
जै श</w>
199 3</w>
रो जाना</w>
रे ली</w>
ट्रै फिक</w>
व्यापार ियों</w>
आका शों</w>
ब ्यौ
ज रा</w>
यू ं</w>
से क्शन</w>
आय तें</w>
संघ ीय</w>
घ बरा
आधार भूत</w>
अत्या चार</w>
सब् र</w>
आ ठ
क बूल</w>
रा मा
स्पोर् ट्स</w>
स् नै
सुधार ने</w>
सं ख्या
शरी क</w>
ु ओं</w>
पौ धों</w>
ज़रु र</w>
अप वाद</w>
गु जर</w>
व्हा ट्स
रे लगा
फ्रे ंड</w>
पार स्
ए स्
आईए एनएस</w>
ur e</w>
कि शो
i t</w>
डा लें</w>
लाभ ों</w>
न लों</w>
वा कां
भागी दार</w>
T h
मह ंगाई</w>
क्ष णों</w>
अन ंत</w>
कु ल्
नारे बाजी</w>
तह री
इस पर</w>
कू ट
आत्म विश्वास</w>
ar t
विरोधा भा
परि श्रम</w>
उत् सु
सं क
मह े
प्रमो शन</w>
जो ध
अब् बास</w>
हाइ ड्रो
ज़ा लिम</w>
खा र</w>
एनआई ए</w>
शा खा
वार ंट</w>
ज ड़</w>
आईसी आई</w>
शर णा
वे तन
ग्र ियों</w>
खि या</w>
रक् त
सै म
क्षा एं</w>
क्र ी
चा कू</w>
मेगा वाट</w>
फि ली
ड् ड
इ को
तस् करी</w>
श्र ॉफ</w>
ना गर</w>
गैर कानूनी</w>
अप र्
स सु
फ्रे ंसिंग</w>
3 /
प्र क्षे
कॉर पोरेशन</w>
रिया ई</w>
पं त</w>
ना न</w>
झुठ लाया</w>
कार कों</w>
विकास शील</w>
मान सून</w>
मंगल वार</w>
पढ़ ा
अ नो
स् मिक</w>
व य
मुंब ईः</w>
जान ती</w>
स्ट्र क्चर</w>
पे न</w>
चि ट्
अंग्रे ज़ी</w>
हल् के</w>
व श्य
च म्म
अव मानना</w>
ग ढ</w>
क स्
रूप ों</w>
उत् पत्ति</w>
सा मं
उत्पाद कता</w>
राय पुर</w>
म रियम</w>
एंड्र ॉ
अंग ू
संतो ष
न् ड</w>
कॉ फी</w>
वि क्रम</w>
रो जग
चु प</w>
चम्म च</w>
कुफ् फ़ार</w>
क ः</w>
इजा फा</w>
शि शु</w>
प्प ल</w>
दिक् कत</w>
एं टी</w>
सिर् फ़</w>
फैस लों</w>
फ ्यू
कि क</w>
196 1</w>
ध ू</w>
आधार शिला</w>
सचि वों</w>
198 8</w>
हि ंद</w>
ल री</w>
संतु लित</w>
बैठ ा</w>
स्ट्रा इ
सी पी</w>
बौद् धिक</w>
अनु शास
स्थानां तरण</w>
वफा दार</w>
ग्रा उंड</w>
ओ वैसी</w>
महि मा</w>
कला म</w>
मूल भूत</w>
ताल मेल</w>
छा या</w>
सी ओ</w>
पा एगा</w>
कार ी
१ २</w>
स्टू डेंट्स</w>
सन् तान</w>
शि ष्ट
बीएस एफ</w>
ती स</w>
मुक़ र्र
दम कल</w>
स्व चालित</w>
रे स्ट</w>
जोध पुर</w>
अद् भुत</w>
राइ ट</w>
निदेश कों</w>
AI R</w>
से फ</w>
क च्च
प्रोसे सर</w>
ख़ू ब</w>
अ द्य
बा एं</w>
पाउ डर</w>
आर म्भ</w>
फायदे मंद</w>
उ धार</w>
सम् पूर्ण</w>
च ट्
मि श्
डिज़ा इन</w>
क वरी</w>
स् ति</w>
फे ंक</w>
गो ल
नमू ना</w>
देव ता</w>
मैने जमेंट</w>
सो नी</w>
श शि</w>
फ री</w>
ड्र ै
आई एल</w>
महबू बा</w>
ना ट
शि क्षित</w>
रो ह
बी स</w>
एनसी आर</w>
अनुशास नात्मक</w>
क्रा इ
कलक त्ता</w>
अम र
प ट्टी</w>
सा हे
ट्र ी
जा ह्
कम्प नी</w>
20 21</w>
री न</w>
गो लिक</w>
सिं घ
शौचा लय</w>
w s</w>
अनुभ वी</w>
शि यम</w>
पर ्रिकर</w>
आ धे</w>
उर् दू</w>
हर ित</w>
श् ती</w>
उ द्या
शा न्ति</w>
नजदी क</w>
क ड़</w>
एक त्रित</w>
पुनर् विचार</w>
आग मन</w>
न कर</w>
साम ग्रियों</w>
राजन यिक</w>
ब्रि गे
गि रा</w>
आईए एस</w>
र प्पा</w>
जान वर</w>
आ पात</w>
वा दों</w>
म सा
मिश्र ित</w>
V I
सर ी</w>
क् ली
आईसी आईसीआई</w>
झू ठी</w>
रू परे
द रत</w>
7 00</w>
सी ना</w>
ओ ल</w>
सुलझा ने</w>
वक् तव्य</w>
अ रू
न सन</w>
गु ल
एम ए</w>
च ारा</w>
1 ,000</w>
१९ ९
हा ली</w>
जे डी</w>
कर् स</w>
स्वै च्छिक</w>
स्व भाव</w>
पी पी</w>
ष्ठ ता</w>
कि फाय
एं ट्री</w>
भौ गोलिक</w>
समझौ तों</w>
मे ले</w>
मि क्स</w>
उ र्फ</w>
इन पुट</w>
चैंपि यन</w>
ंसि क</w>
एयर टेल</w>
सु ब्र
सि ंगल</w>
पट् टे</w>
तो ड़ने</w>
हल् की</w>
लू ट</w>
पांच वें</w>
स्टैं ड</w>
सृ जित</w>
ली स</w>
छ ी
उत्कृ ष्टता</w>
ंगा बाद</w>
a s</w>
ई वीएम</w>
यू वी</w>
बना ती</w>
च लेगा</w>
ये ंगे</w>
माँ ग</w>
एसि ड</w>
सार् व
रिश्ते दार</w>
यक़ी नी</w>
गौ ड़ा</w>
3 :
हॉ लीवुड</w>
म कता</w>
क पड़ा</w>
मुफ् ती</w>
बे च</w>
सु ंद
शा स्त्र
अल्पसंख्य कों</w>
पी जी
पह ने</w>
ते श</w>
मुक़र्र र</w>
199 0</w>
बुध वार</w>
15 .
से ना
ल ट
दिग् विजय</w>
जे शन</w>
il l
यहू दियों</w>
बा धा
गुमरा ही</w>
किफाय ती</w>
क सी</w>
1 3.
12 वीं</w>
स रो
पी एन
अध्या देश</w>
का व्य</w>
ज़ ्यादातर</w>
कम र</w>
प्रौद्योगि कियों</w>
उप े
ंब ा</w>
रि यो</w>
ख र
ग् वा
एस आईटी</w>
उप हार</w>
हैं ड
समझा या</w>
कृ तियों</w>
ढ ु
क् यू</w>
उ तर</w>
विज्ञ प्ति</w>
न वो
दे ही</w>
चिं ताओं</w>
आक स्मिक</w>
सी ल
तेलु गू</w>
औ लाद</w>
इले वन</w>
6 0
ति र</w>
अन् त</w>
शू ट</w>
जॉर् ज</w>
जा ओगे</w>
इंड स्ट्री
संर क्षक</w>
मल या
नौ त</w>
निर् दोष</w>
मो टर्स</w>
क़् त</w>
ब्र ो
बि गा
प्र जा
क्सि को</w>
इंडि यंस</w>
में ट्स</w>
ती र्थ
u d
N I
A T
गुस् सा</w>
फु ल</w>
ब सों</w>
धि या</w>
ट ता</w>
रो गों</w>
जता ते</w>
1 30</w>
सर त</w>
रा ठ
हस्ता क्ष
अके ला</w>
का ली</w>
ऐश्वर् या</w>
को ल</w>
इं सानों</w>
स् कै
म्ब रों</w>
लौ टे</w>
उन्न यन</w>
C C
पी एल</w>
कृ पा</w>
आद त</w>
सके गी</w>
फ् लो
बु किंग</w>
का गज</w>
ल भ</w>
ऑफि शियल</w>
विश्वा स
विधा यी</w>
मैने जर</w>
धा म</w>
वा स्तु
र र</w>
मै नु
जा वेद</w>
बढ़ा ई</w>
प ना
स्था ई</w>
सिखा या</w>
सर्वि सेज</w>
ड नी</w>
निभा या</w>
दख ल</w>
दंड नीय</w>
त्य ों</w>
क्र ो</w>
रूपरे खा</w>
भ ती
पारस् परिक</w>
कृ त्रि
आधु नि
शु दा</w>
वश्य क</w>
डी आई</w>
कि ले</w>
लौ टा</w>
बे टियों</w>
प्ला ंट</w>
ट ते</w>
सी ओ
शि ला
पा त्रता</w>
धार ा
सह े
प्र वृत्ति</w>
इ यां</w>
लगा म</w>
दे साई</w>
यू जर</w>
यू ए
एम आर</w>
गा ई</w>
सू रज</w>
च लना</w>
आ मदनी</w>
अन् दर</w>
हा नि
सब क</w>
पूछ ने</w>
क्वार् टर</w>
ल लि
र् वाद</w>
पंक ज</w>
जो ल</w>
सीएस आईआर</w>
14 .
धी मी</w>
जमी नी</w>
के यर</w>
बर् बाद</w>
द्र वि
गो या</w>
दीर्घ कालिक</w>
ध्या य</w>
ढ ा</w>
च न्द</w>
एस एम</w>
लि ं
भाग वत</w>
ज ्या
ए टी</w>
जि ं
कॉर् पोरेशन</w>
हो ल्
विष् णु</w>
मू लन</w>
म ने</w>
व धि</w>
व ण</w>
धै र्य</w>
ना बाद</w>
p or
मं दी</w>
परि चित</w>
बो र्
आं सू</w>
, 9
यं त्रों</w>
मि नी</w>
द फ्
उ ठ</w>
an g
परि चय</w>
न र्स</w>
चु न</w>
सामर्थ ्य</w>
महत् वाकां
निर् दलीय</w>
च ल
प्रको प</w>
ने की</w>
नियु क्
पद् मा
थ ी
संतु ष्टि</w>
हर ें</w>
ह त्य
पो ख
फु ट</w>
छुट कारा</w>
च हल</w>
फ ते
दि लाई</w>
शे यर
पढ़ िए</w>
अप लोड</w>
विधाय िका</w>
निर पेक्ष</w>
कृत्रि म</w>
अ प्रत्यक्ष</w>
सुर् खियों</w>
195 6</w>
कृ त्य</w>
म हम
सि म</w>
फ़ ी
नि योजित</w>
सौ हार्
कि स्तान</w>
4 /
र नौत</w>
मान दंड</w>
मा उ
जब् ती</w>
लक्ष् मण</w>
जस प्रीत</w>
ज श्न</w>
१ ५</w>
स् फी
सा ली</w>
थ रूर</w>
सम् पर्क</w>
पा यी</w>
नी करण</w>
कर वाई</w>
वो ल्
वे रिएंट</w>
रह मत</w>
मे डल</w>
प्र दत्त</w>
वे ंट</w>
व्यवस्था ओं</w>
जाय जा</w>
ं ध
मशी नरी</w>
धर् मी</w>
वर् स</w>
पशु ओं</w>
काम गारों</w>
प्रि या</w>
ऩ े</w>
16 .
बर दार</w>
ग्रि ड</w>
आशी र्वाद</w>
मु खिया</w>
ब टन</w>
वी न</w>
आ ज़
हि ल</w>
राष्ट्र ों</w>
का ल
ध्र ु
था ई
कर् नल</w>
प्रा ची
शर् तें</w>
पुरस् कारों</w>
जू झ</w>
गु नी</w>
कोय ले</w>
p ro
सूच नाओं</w>
प्र दीप</w>
जाह् नवी</w>
बैंग लोर</w>
पहुँ चे</w>
म य
बि यों</w>
त्व ों</w>
ग्र ैं
क स्ट
वि डियो</w>
प्रोड क्शन</w>
मि यान</w>
पढ़ ते</w>
अ न्याय</w>
निका सी</w>
निष् क्रि
डि या
A n
आ ंग
अनु लग्
d e
लॉ जि
का ंग</w>
आयुर् वेद</w>
बे टों</w>
क़ दम</w>
अ ब्रा
रे ंसिक</w>
चैम्पि यनशिप</w>
१ १</w>
क् तों</w>
क टि
199 1</w>
तर ल</w>
टि काऊ</w>
किताब ें</w>
उन् मूलन</w>
स् वे
ल ः</w>
भा ँ
जागरू क</w>
अद्य तन</w>
रि मांड</w>
198 9</w>
रि डोर</w>
अभि न्न</w>
शन री</w>
at ion
मुख्य मंत्रियों</w>
पौ धे</w>
पस न्द</w>
अं धे
एच पी</w>
धी र</w>
अजी ब</w>
रा ने</w>
u b
ऑ फर</w>
बने गा</w>
जि ंदा</w>
ला इंस</w>
प्रा प्
जी वा
इंडस्ट्री ज</w>
प्र श
डीआर डीओ</w>
18 .
दे ओल</w>
निको बार</w>
दिशा निर्देशों</w>
ह ं
ब रेली</w>
कृष् णन</w>
6 /
वो टिंग</w>
पारि स्थि
जि हाद</w>
एसएम एस</w>
लड़ कों</w>
प ला
उ ड्ड
आ क्रामक</w>
कै लाश</w>
डेवल पमेंट</w>
बल ि</w>
टा उन</w>
जवा बी</w>
खास तौर</w>
कोशिका ओं</w>
संभा ल</w>
रौ शन</w>
प्रे म
प तियों</w>
क़ ा</w>
बे कार</w>
दू न</w>
चि ल्
कार्य भार</w>
इस्ला माबाद</w>
तेलु गु</w>
डी एनए</w>
ह र्ष</w>
मण ि</w>
छा त्रा
खा ई</w>
को ने</w>
अनुभ वों</w>
एन ई
नि श</w>
कॉर् पोरेट</w>
रू पां
कॉ म्
सु जु
वा ड्रा</w>
भ्र म</w>
बु र्
कल् स</w>
पै र
अभि यं
अभिष ि
आकर् षण</w>
अग र
रैं क</w>
यू ँ</w>
अंत राल</w>
रि फ</w>
ब दौलत</w>
चिन् ह</w>
सं पदा</w>
दर मियान</w>
ता ज</w>
सं गीत
र पुर</w>
पी टर</w>
en d
पी डीपी</w>
पैग़ म्बरों</w>
ध ीय</w>
साहे ब</w>
खु ल</w>
मं ड</w>
अन् त
औ रत</w>
अड् डों</w>
हेली कॉप्टर</w>
पू ल</w>
पर् दे</w>
20 .
बदमा शों</w>
f or
संभा ला</w>
नी ंव</w>
ी सा</w>
श्यो रेंस</w>
शोध कर्ताओं</w>
मा ंड
ग ली</w>
अभिन व</w>
अप शिष्ट</w>
जु टाने</w>
ह ्यू
सम झे</w>
मृत्य ु
दा ओं</w>
सुजु की</w>
य श
तकली फ</w>
उड्ड यन</w>
दुर् ग</w>
उच्च तर</w>
ह ँ
सी एस</w>
ज़िन् दा</w>
ंट िक</w>
स फ़
ग्रे जु
o c
ह स्तियों</w>
प ते</w>
C BI</w>
ष ी</w>
घा व</w>
खोज ने</w>
कमा ंड</w>
अभिषि क्त</w>
१ ४</w>
वर् चुअल</w>
एजु केशन</w>
पू ज्य</w>
7 /
सै यद</w>
प्रे षित</w>
प्रयोग शालाओं</w>
ए बी
वि लास</w>
ठ ी
कोरो ना
मुम किन</w>
तर् क
करो गे</w>
अर बी</w>
यू ट्यूब</w>
पा ती</w>
तर ा</w>
सह भा
उत्पा दित</w>
दु ष्ट</w>
ए ब</w>
सु समाचार</w>
युव राज</w>
उ ग्र
ला ओ</w>
मे डी</w>
ई श्वर
वर् ग
नजदी की</w>
ग ना</w>
अधि करण</w>
अ त</w>
राज े
रख ेगा</w>
मालि कों</w>
दि खे
जाइ श</w>
जहा जों</w>
विद्य मान</w>
स दियों</w>
मै क
जु ड़
चे तना</w>
सी बीएसई</w>
त् ल</w>
द श
क्रो ध</w>
मू र</w>
फ्रा ं
यु द्ध
एडमि रल</w>
देश मुख</w>
तिहा ई</w>
डी यू</w>
जि समे</w>
उन् हों</w>
2 :
२ ०</w>
हा ज़िर</w>
मा ंगों</w>
धर् मों</w>
च लकर</w>
मुक़ा बले</w>
डे यरी</w>
es t</w>
टैं क</w>
सर् टिफि
ली क</w>
फिर औन</w>
फा स्ट</w>
गुज रा
नव जोत</w>
द्रवि ड़</w>
ता ः</w>
ल ड़ा</w>
पर्य वे
दा र्
छ ा</w>
के एल</w>
एल ईडी</w>
t h</w>
सं तान</w>
च्छ ा</w>
हो श</w>
सू र
फर् स्ट</w>
धु री</w>
इश ारा</w>
रो टी</w>
मार् टिन</w>
कन्न ड़</w>
खो ले</w>
म सौदा</w>
साम् हने</w>
1 7.
ह ज</w>
विशा खा
प्रि ं
सित ारे</w>
मा त</w>
टी का
रि टा
मो ड़</w>
मै ग्
क माल</w>
विस्त ारित</w>
रो ज़</w>
गि न</w>
झट के</w>
आका श
वा ल्
रण दीप</w>
स् पा
करि श्
ब् ले
h at
रजि स्ट्रेशन</w>
डी एफ</w>
जी सी</w>
हलफना मा</w>
ब डे</w>
अपे क्षा
h i</w>
ह ारों</w>
डि ब्
उड़ ीसा</w>
सै नी</w>
मे यर</w>
मि लि
चीज़ ें</w>
इंटर नल</w>
त्य ौ
परंपरा गत</w>
ख् वाह</w>
्या त्मक</w>
सुन ता</w>
घा टा</w>
खे र</w>
पर् स
आवेद कों</w>
er s</w>
जु ड़</w>
रिया ल</w>
बो ल
बास् केट</w>
नि मंत्र
अनुलग् नक</w>
सा कार</w>
मे शन</w>
ट्रे नें</w>
बॉ डी</w>
कॉ रिडोर</w>
उड़ा नों</w>
आज म</w>
बुद्धि मान</w>
का शी</w>
व्या याम</w>
न शीलता</w>
कुल पति</w>
बै ठ</w>
धी रज</w>
नरे श</w>
स्नै प
बी ए</w>
का य</w>
ह ला
पड़ो सियों</w>
खाद्या न्न</w>
कि ंग
के मि
M P</w>
त ला</w>
ढ ो
जन न</w>
अ टै
स ले</w>
साक्ष ्यों</w>
उ तनी</w>
मा ंगे</w>
प क्
उन् हो
पु तिन</w>
कार्या न्वित</w>
श त्र
प लट</w>
आसि यान</w>
a v
S h
डि फ़ॉ
5 /
ग ॉ
उ लट</w>
ली ज़</w>
देख रेख</w>
जो स</w>
एस एस
अ संभव</w>
ha n</w>
स्टो क्स</w>
थाई लैंड</w>
चु नें</w>
हो ंडा</w>
पुस्त का
टी एमसी</w>
नगर पालिका</w>
ज द</w>
डे न</w>
अय्य र</w>
सम ्रा
तो ष</w>
कल्प ों</w>
ह ज़
पै दल</w>
मी रा</w>
ज़ि ला</w>
का बि
उत्तरा धिकारी</w>
शत्र ु</w>
कॉ पी</w>
कु फ़
सौ रव</w>
ट्रा इ
जि ल</w>
आज कल</w>
वक् फ</w>
लै ब</w>
बो ध</w>
वृ क्ष</w>
त ले</w>
ू न</w>
प्रको ष्ठ</w>
पी ड़ा</w>
लं ब</w>
रि जि
त् तरी</w>
मि र्च</w>
भू ख</w>
द मन</w>
स् य
महारा ज</w>
ब रा</w>
क पा</w>
सा ई
लड़ का</w>
ह थ
19 .
लम् बी</w>
रिश् वत</w>
पंचाय तों</w>
जे ं
का ला
वि राम</w>
वा नों</w>
व्याख्या न</w>
रजनी कांत</w>
अनुप म</w>
जि या</w>
जन हित</w>
घटना क्रम</w>
कॉ न</w>
ए ना
am e</w>
प ने</w>
न ारा</w>
कर म</w>
सी पीसी</w>
ल श्
कव रेज</w>
रो ज़
और ंगाबाद</w>
स्फी ति</w>
स्तं भ</w>
सं यम</w>
डि वाइस</w>
ए एन
वो टों</w>
प्र ै
गि रि
गिरा या</w>
ए के</w>
उ मेश</w>
4 :
वर्गी कृत</w>
वकी लों</w>
लाभ कारी</w>
डिफ़ॉ ल्ट</w>
टकरा व</w>
कै लि
अप ू
मार कर</w>
न क्स
सा निया</w>
नती जों</w>
टा ए</w>
गा मी</w>
फ ्री
आ जीवन</w>
पुनर् गठन</w>
अंतर ण</w>
संतोष जनक</w>
बर् दाश्त</w>
ना जु
मं त</w>
म ्</w>
इ त्
टा ला</w>
श्या म</w>
रै ना</w>
महम ूद</w>
चै नलों</w>
कॉ मेडी</w>
कुफ़ ्र</w>
14 4</w>
क हें</w>
र सो
लड़ ेंगे</w>
बाग ़</w>
प् र</w>
ति कता</w>
शा सक</w>
मे ज</w>
नॉर् थ</w>
ऑ डियो</w>
भं साली</w>
नो डल</w>
टा बेस</w>
म लाइ
तकनी कों</w>
वी डियो
थ ै
ंड ों</w>
ह ज़ार</w>
साहि त्य
म जाक</w>
लॉ क</w>
निरा शा</w>
के वी
5 :
राष्ट्र वादी</w>
्र ा</w>
आ शा
दर् जे</w>
श म</w>
बच ें</w>
प राज
इ नाम</w>
ह ब</w>
भाँ ति</w>
दार ियों</w>
चु नने</w>
न ना</w>
ह वाई
गर् दन</w>
चा हा</w>
से के
रि कवरी</w>
n e
फै लने</w>
तार पुर</w>
उप क्रमों</w>
रिपोर् टों</w>
वेतन मान</w>
मेज बान</w>
दया ल</w>
चौ क</w>
क पास</w>
शिकाय तें</w>
फ़ ा</w>
फ लों</w>
आयर लैंड</w>
ले नी</w>
ब र्फ</w>
ग़ ौर</w>
o o
मु श
ब्ल ड</w>
चा हूंगा</w>
य त्न</w>
ता ना
च न्द्र
त ंग</w>
गड़ बड़ी</w>
खा न
कोरोना वायरस</w>
उदा हर
i l</w>
सं न्यास</w>
रोक ना</w>
छ ठे</w>
ऊंच े</w>
c om
च ढ़</w>
ए आर</w>
रे त</w>
मत् स्य</w>
ऋ तिक</w>
ष कों</w>
ट्रां सफर</w>
ओ प
बि लिटी</w>
अन क़रीब</w>
फाइ बर</w>
पहुँ च
सिं धिया</w>
संपा दक</w>
स्क्री निंग</w>
ग यीं</w>
मु ना</w>
दी की</w>
डी ल</w>
जरु रत</w>
मिश् र</w>
मलाइ का</w>
प्रमुख ों</w>
जि म</w>
गै ंग
R E
यू पीए</w>
बना एं</w>
खि ड़
क़ सम</w>
i f
सां प्रदायिक</w>
मे ल
र सन</w>
नाजु क</w>
ते ज़</w>
सी बी</w>
सार्व भौ
रो न</w>
राउ ंड</w>
इ धर</w>
या ल</w>
दुका नें</w>
आ स्था</w>
पार्ट मेंट</w>
बंगा ली</w>
निवे शक</w>
को च्च
उद्या न</w>
विक्रे ता</w>
स् म</w>
राज ़
पैर वी</w>
पि टाई</w>
ध ो</w>
दृ श्य
गाँ धी</w>
ं के</w>
t s</w>
शे र</w>
लिखा ः</w>
अ नियमि
साव धा
पे ंद्र</w>
जे ंस</w>
मे ह</w>
विशेषज्ञ ता</w>
गु र्
कर तारपुर</w>
मो टे</w>
क़ु र
अपेक्षा कृत</w>
लौ ह</w>
बख् शने</w>
जो कि</w>
अपना ई</w>
पंचाय ती</w>
आ एं</w>
अ भूतपूर्व</w>
सं प्र
टे नमेंट</w>
जे सन</w>
I T
बर् फ
D e
ल नों</w>
पूर्वा नुमान</w>
दा ई</w>
गौ री</w>
गो र</w>
N C
यु स</w>
सभ ्यता</w>
शु क्र</w>
तु ल</w>
ढु लाई</w>
साम रिक</w>
फोटो ज</w>
डि़ यों</w>
गा या</w>
हर कत</w>
मण ्य
र् ग</w>
ति ब्
अनु या
य शा
समझा ने</w>
ख ट
मलया लम</w>
न शे</w>
दिखा ना</w>
भा ंति</w>
झग ड़े</w>
तु झ</w>
ख़ा न</w>
एड वो
स् क्रि
9 /
स्टा इल</w>
सि सो
विशेष ाधिकार</w>
फर हान</w>
सो चना</w>
बायो पिक</w>
म पंथी</w>
बैठ ने</w>
बरा बरी</w>
टा इन</w>
क़ रार</w>
तेज स्वी</w>
नजर अंदाज</w>
णि यां</w>
मछुआ रों</w>
व ॉर्
ले क्स</w>
ड मी</w>
सिलसि ला</w>
सर ा</w>
न ही
यशा याह</w>
यु रप्पा</w>
मान हानि</w>
प्र ता
घ र
ख रे</w>
नक वी</w>
व ारे</w>
निष् का
ंग ता</w>
व स्था</w>
लाभा न्वित</w>
रिश्ते दारों</w>
मांग ने</w>
पक्ष कारों</w>
चा हें</w>
र मन</w>
ख लन</w>
विवा हित</w>
र म
छ ू</w>
बं ग</w>
ज गी</w>
ललि ता</w>
म ला
ट मेंट</w>
u p</w>
स्थाप न</w>
रवै या</w>
बार गाह</w>
प ैं
शक् तियां</w>
निष् ठा</w>
गा जिया
एल पीजी</w>
इस्राए लियों</w>
मु क</w>
प्रति बि
धु निक</w>
यहू दा</w>
बैठ कें</w>
ठे केदार</w>
कां फ्रेंस</w>
ब्रा ह्
ज वा</w>
हस्तां तरित</w>
त न्
आर पी</w>
चित्र ण</w>
घे र</w>
n ic</w>
हा उ
मू वी</w>
ट्रै क्टर</w>
च न्द्र</w>
वस्तु एं</w>
बन ती</w>
राम पुर</w>
सी डी</w>
रहे ंगी</w>
फेड रेशन</w>
प्रतिष् ठान</w>
सब्जि यों</w>
दुर्भाग्य पूर्ण</w>
त गा
जब रन</w>
आर ंभिक</w>
वि धियों</w>
निका ली</w>
आतं क</w>
स्टो री</w>
म् र</w>
हो गे</w>
नीति वचन</w>
रा शन</w>
ठ ों</w>
यू एस</w>
क शी</w>
अप मानजनक</w>
फ्रा स्ट्रक्चर</w>
चै लें
आलो च
मि त्
गा ः</w>
क्रू रता</w>
पाठ क</w>
तथ ्यात्मक</w>
डा र</w>
कुमार स्वामी</w>
बा ह
पू छ</w>
सु ग
सिसो दिया</w>
रो हि
प्र ी</w>
ख् ता</w>
वि ंदर</w>
लश् कर</w>
दु ल</w>
आ भारी</w>
ंडे ंट</w>
F I
व री
मे सर्स</w>
मशी नों</w>
बै न</w>
हिमा लय</w>
स दा
श्रद्धा लुओं</w>
राज कीय</w>
पार् टियां</w>
हो ली</w>
रोमा ंच
फ् लाइट</w>
औ स
एफ आई</w>
e x
रु क</w>
न ते</w>
सि ग
लि प्त</w>
प्रभा वों</w>
नगर ीय</w>
दु बे</w>
स्व तः</w>
दिशा निर्देश</w>
टि म</w>
ऑक् सीजन</w>
लिख ते</w>
8 /
मि ली
प्र जा</w>
अत्या धुनिक</w>
ौ फ</w>
बं धक</w>
प्रतिष् ठा
प्र योगों</w>
आपात कालीन</w>
बा र्
ज द
एटी एम</w>
आधुनि कीकरण</w>
ओ वरों</w>
लॉ ट</w>
मुख्य तः</w>
बर्फ बारी</w>
क़ ीन</w>
00 ,000</w>
र क्षक</w>
निमंत्र ण</w>
अ ँ
u e</w>
मंड ली</w>
दुर् लभ</w>
पथ राव</w>
ढ़ ा</w>
व्य र्थ</w>
बढ़ ना</w>
साझे दार</w>
बा ंट
मेमो री</w>
ना ई
पत् य</w>
ना ना</w>
दृ ष्ट
प क्का</w>
ज तन</w>
इन ो
राशि द</w>
म् मी</w>
सर ी
बे रोजग
छ ः</w>
टै ग</w>
ल् टी</w>
म पुर</w>
फै न्स</w>
ड्रै गन</w>
अभियं ता</w>
ॉर् नी</w>
बार ियों</w>
स वा
ंड न</w>
पुर् तगा
किता बों</w>
सह न</w>
मोर् चे</w>
वांछ ित</w>
चे लों</w>
गाजिया बाद</w>
इन र</w>
ल ची
उप बंधों</w>
स क्
चे न</w>
लंब न</w>
चुनौ तियां</w>
उ दय</w>
मुक् के
बन ते</w>
सि द्धि</w>
विशेष ताओं</w>
ठ हर
नी न</w>
अभि योजक</w>
बने ंगे</w>
ड्राइ विंग</w>
रा धा
चौ के</w>
ए स्टेट</w>
ष् ण
आश्चर् य
फ़ो ल्डर</w>
शिवा जी</w>
दे हरा
मि यत</w>
भया नक</w>
पाठ्य क्रमों</w>
सौ भाग्य</w>
10 ,
टीका करण</w>
इन् हीं</w>
प्र बल</w>
न व</w>
हमला वरों</w>
म्र ता</w>
माँ ग
U D
वि निर्दिष्ट</w>
ढूं ढ
जु ड़ने</w>
ल नी</w>
मे र
परिष द्</w>
ज् वा
क़ त</w>
साझ ी
म्यू जिक</w>
H C</w>
A L
कोच्च ि</w>
मि र्जा</w>
आर् यन</w>
डि ली
I M
वि नी</w>
रिकॉर् डिंग</w>
थो क</w>
गरि मा</w>
ंडे य</w>
बै च</w>
खु राना</w>
एकी करण</w>
6 :
नाइ क</w>
क्रा ं
ार त</w>
सर् जरी</w>
मं त्र</w>
चश् मदी
बंदू क</w>
चंद्र शेखर</w>
A S
शास्त्र ीय</w>
पुनरु त्
कम ज़ोर</w>
म ू</w>
बजा ज</w>
नग रों</w>
M a
पास वर्ड</w>
अन देखी</w>
खु लती</w>
च ारि
कम जो
क श्य
अनु शं
मौ जि
२ ः</w>
रॉ बर्ट</w>
मै थ
पर् स</w>
कि याः</w>
ic e</w>
ल ूत</w>
टि क
ई स</w>
ar i
र ने</w>
प्रे मी</w>
ड्राइ व</w>
झ ी</w>
ह टकर</w>
बी पी</w>
प्र था</w>
पदा धिकारी</w>
1 1,
परि पत्र</w>
गो द</w>
देव ताओं</w>
गुं जाइश</w>
सब की</w>
एस यूवी</w>
सं गति</w>
वी वी
ड रो</w>
अव तार</w>
अधि वेशन</w>
बि र
बहिष् कार</w>
B S
हटा ए</w>
फ ोड़</w>
अ क्षम</w>
बद लना</w>
चर् चा
D E
तर फा</w>
जॉ नसन</w>
इ ल्म</w>
लि केशन</w>
रह कर</w>
दि युरप्पा</w>
आ शु
पक्ष ियों</w>
बिल् डिंग</w>
2 ,000</w>
पर्या वर
तू ने</w>
डॉ ट</w>
औस तन</w>
2. 0</w>
स् वर</w>
प्रा योजित</w>
धर्मे ंद्र</w>
देहरा दून</w>
गा ड़ियों</w>
अ चल</w>
सा र्थक</w>
ना मी</w>
क्र मा
चो र</w>
डिस् प्ले</w>
कश्य प</w>
हा ंग
दिखा यी</w>
मुस् लिमों</w>
पार् ष
वी रेंद्र</w>
र थ</w>
मं शा</w>
प्रति क्रिया
नर् म
द स्ती</w>
छु ट्
स्वी डन</w>
सामं ज
मैनु अल</w>
अली गढ़</w>
दर ें</w>
द बंग</w>
स्पे क्
सा धनों</w>
ध्व ज</w>
च तुर्
अफ सर</w>
३ ः</w>
प न्
इं श्योरेंस</w>
ं घ
पा लने</w>
अन् वेषण</w>
मा द</w>
ढू ँ
क्वा ली
कट रीना</w>
अब्रा हम</w>
198 6</w>
खतर ों</w>
वा ग</w>
डिप् लो
अट ॉर्नी</w>
198 0</w>
सा इं
बा ज़ार</w>
पांड ्या</w>
घृ णा</w>
अफ सोस</w>
आ समा
बंदर गाहों</w>
ट्रि क्स</w>
गुना हों</w>
ब्रिगे ड</w>
जे डीएस</w>
हम को</w>
आं ख</w>
वा हि
बॉ र्
नियंत्र क</w>
एडवो केट</w>
रि ज़
म चा
पार् किंग</w>
सृ ष्टि</w>
मि नि
कृष् ण
d u
स्टार् टअप</w>
नी पत</w>
सत्या पित</w>
व ीय</w>
र् पण</w>
फै मिली</w>
प ठा
सि म्
सर स्व
व च
बद लकर</w>
दफ् तर</w>
अ निश्चि
i k
म ठ</w>
न जी
दया वान</w>
जना देश</w>
कै दियों</w>
एल ए</w>
सौंप ने</w>
च लाए</w>
आर टी</w>
आई जी</w>
वे ल
सु लै
करिश् मा</w>
मुद्रा स्फीति</w>
नती जतन</w>
तू र</w>
घट ित</w>
य था</w>
ग़ ै
हर भजन</w>
सी मेंट</w>
ण ्य</w>
कि शन</w>
अभिभाव कों</w>
क् ले
स्ट ार
चंद्र बाबू</w>
सम्रा ट</w>
म ्य</w>
प्र जातियों</w>
डे ड</w>
उठा कर</w>
विश्वस नीयता</w>
रा क</w>
प्रे रि
डे रा</w>
छ क्के</w>
चंद्र न</w>
पे मेंट</w>
टी ना</w>
बे हि
पट नायक</w>
निः शुल्क</w>
नि रोधक</w>
वि लंब</w>
मधु मेह</w>
ल् लाह</w>
वारि स</w>
जग दी
क पड़
एक दिवसीय</w>
ल्यू शन</w>
निपट ारा</w>
पा ये</w>
क् ट्स</w>
सह वाग</w>
महा गठबंधन</w>
p h
P ra
स्ट्राइ क</w>
दृढ़ ता</w>
समे कित</w>
टो ल</w>
गो ला
क् वार
राउ ंडर</w>
मे गा</w>
ग्र ा</w>
े ंगी</w>
हकी कत</w>
क्राइ म</w>
द त्ता</w>
डी ए
वि कल्पों</w>
हे ड
डे बिट</w>
सामान्य तः</w>
सहा नु
जु टे</w>
अफ वा
बु लाने</w>
टी एम</w>
गुरु ग्राम</w>
आवेद नों</w>
f f
सभा पति</w>
मे ला</w>
आ चार्य</w>
ं ज
स् ने
तर क्की</w>
डिय ़
रो म</w>
दिखा एँ</w>
3 1.
नि दान</w>
कैपि टल</w>
एस ई
अनु भाग</w>
हु कू
शही दों</w>
प्रि ंसि
टी ए</w>
कॉ लो
A M
ब क्
क ंड
ह ंस
सब कुछ</w>
विंड ों</w>
बे टियां</w>
फैक् ट्री</w>
पहा ड़ों</w>
ंद ी
सि पा
पिछ ड़े</w>
एंड्रॉ यड</w>
3 6
10 5</w>
सुझा वों</w>
राज ी</w>
जी वों</w>
व स्
चिट् ठी</w>
ल हर</w>
निवे दन</w>
क् टो
सि क्यो
फिल्म कार</w>
णा ल</w>
डेमोक्रे टिक</w>
सुलै मान</w>
दे हा
त् मकता</w>
10 0
हांग कांग</w>
हा जि
एजे ंडा</w>
व्र त</w>
तर ता</w>
एस आर</w>
PW 1</w>
से शन</w>
सर्टिफि केट</w>
प्रति बंधों</w>
त को
कार् गो</w>
गर् ग</w>
पा एँगे</w>
अ मृ
सि लेंडर</w>
दा ख़ि
क्ष मा
हि क
बद लते</w>
ड्र ग्स</w>
एक् टिंग</w>
असि स्टेंट</w>
स्व प्
भ ों</w>
खा दी</w>
खंड ों</w>
एल सी</w>
C om
ठहरा ए</w>
ट्र ा</w>
आई बी</w>
ब्र ू
क्षति पूर्ति</w>
198 7</w>
ये गा</w>
प्रभु ता</w>
प्र भाग</w>
कै डर</w>
मन् दिर</w>
खरी दी</w>
केंद्र शासित</w>
ग रों</w>
r an
सा इन</w>
महा सभा</w>
ब् लू
फ्र ैं
प्रेरि तों</w>
पै रों</w>
पा ंडेय</w>
टिफि केशन</w>
वी र
ब से</w>
डे न
ज ला</w>
स्पर् धा</w>
स ारा
बे ल्
का ए</w>
शी ला</w>
197 3</w>
ो गे</w>
वन स्प
भ ्रा
प्री ति</w>
द राज</w>
छो र</w>
3 50</w>
बृ ह
घ न
1. 5</w>
डिली वरी</w>
0 1.0
२० १</w>
मार् के
पड़ ेगी</w>
ली करण</w>
पीसी बी</w>
जवा हर</w>
करा ता</w>
सॉ फ्ट</w>
अकाद मिक</w>
रा हे</w>
ये दियुरप्पा</w>
प्रत्य क्ष
पी टा</w>
ना गालैंड</w>
द स्त
ग री</w>
थॉ मस</w>
ज़बर दस्त</w>
चि प
एन ए
सु गम</w>
यु गल</w>
दिख ता</w>
ति र
गा व
औ चि
सा ँ
रोमांच क</w>
माइ क</w>
मा प</w>
पना ह</w>
अनु कू
अ सामान्य</w>
वे ल्
ब् बल</w>
प्रा इम
पा पा</w>
त ारे</w>
जर् नल</w>
अ खंड
स राय</w>
ओ बीसी</w>
क् वे
कु श</w>
बी टी</w>
को ल्
कै रियर</w>
श स</w>
मौ लाना</w>
मि स</w>
हिन्दु स्तान</w>
वी पी</w>
विक ला
प्रका श
धि कृत</w>
अति क्रमण</w>
बु लाई</w>
ं त
s p
198 4</w>
संघ ों</w>
वै वाहिक</w>
लु ता</w>
ha r</w>
बहु तेरे</w>
पु कार</w>
ठ ंड</w>
ग ला</w>
लि यर</w>
टी का</w>
अश् विनी</w>
मि ल्
बै नर</w>
जवाब देही</w>
ख बरी</w>
कट् टर
ौ ल</w>
विद् वानों</w>
अमे ठी</w>
य मुना</w>
न गालैंड</w>
क् यो</w>
र वि</w>
कल्या ण
व्हाट्स एप</w>
क क</w>
चा लान</w>
कहा नियों</w>
इमार तों</w>
ह रेक</w>
र सी
ढ़ ा
उपयोग कर्ताओं</w>
आई एनएस</w>
स स्ती</w>
म सूद</w>
बु झा
ढ़ ियों</w>
घा ती</w>
ब स्तियों</w>
नी दर
डीजी पी</w>
फे ंक
चिकित् सीय</w>
ग्रो वर</w>
गर् इ</w>
करी बन</w>
इब्रा हीम</w>
हा ं
सु ले
सी एन
ना ल</w>
A P
पै टर्न</w>
पं थ</w>
गवा नी</w>
हानि कारक</w>
कुश लता</w>
R s</w>
से लि
ंचा गत</w>
सत् ता
ढ ि
पुस्तका लय</w>
द्र व</w>
टा ल</w>
जो नस</w>
G M
पोख रियाल</w>
टी ई</w>
छ ीन</w>
Ne ws</w>
भो ग</w>
कै थो
बना यी</w>
दृष्ट या</w>
गो ष्
जे वाला</w>
चा चा</w>
व सा</w>
दो गुनी</w>
लाइ नों</w>
अह ले</w>
श् व
राष्ट्र मंडल</w>
जी व
चुनौ ती
खु लकर</w>
का टने</w>
ष ्य
त्यौ हार</w>
य ार
बी एसपी</w>
दर बार</w>
रू पा
ट ॉर्क</w>
अब तक</w>
स ता
ध ड़
ज ारा</w>
आ चार</w>
सैम संग</w>
ला ठी</w>
बार ह</w>
फ्लै ट</w>
प्रि यता</w>
प ल्
हिक मत</w>
वे न</w>
णा त्मक</w>
अना वश्यक</w>
स्टैं ड
सम् बो
शी द</w>
नि लंबन</w>
तबा ही</w>
र ः</w>
पिछ ला</w>
उतर े</w>
ab le</w>
मै प</w>
7 0
क्रा फ्ट</w>
उद् धार</w>
अह मियत</w>
सुरे ंद्र</w>
मे ंस</w>
बा लक</w>
चक्र वर्ती</w>
मो हित</w>
प्रशि क्ष
दाख़ि ल</w>
ता व</w>
जद यू</w>
सुविधा जनक</w>
सरस्व ती</w>
ब चना</w>
ख् ते
गं तव्य</w>
रंग ार
तत् पश्चात</w>
चौ ं
अज हर</w>
अखंड ता</w>
अ द
6 4
पढ़ ी</w>
अप ो
म नों</w>
सज दा</w>
पुन रा
दर् भ</w>
ड़ ें</w>
घ ्
किराये दार</w>
शॉ र्ट</w>
वि मोचन</w>
पो ं
कपड़ ों</w>
हुकू मत</w>
उ छा
1 10</w>
हा ट</w>
र भ</w>
फ्रां सीसी</w>
एम एसपी</w>
कि से</w>
इं ड</w>
प्रशं सक</w>
एफ डीआई</w>
व का
मूल्य वान</w>
बि स्तर</w>
अर् ध</w>
हार् य</w>
ली केशन</w>
उपभो ग</w>
निष्क्रि य</w>
तबा ह</w>
पृथ क</w>
आ श्रम</w>
अका ली</w>
सं यंत्रों</w>
दाहि ने</w>
उन् नाव</w>
फल स्वरूप</w>
ग्रे स</w>
गुस् से</w>
c h</w>
शॉ ट</w>
बहा ली</w>
न ्य
अय ्यू
ॉ रिटी</w>
रा घ
फ़ा इ
दायि त्वों</w>
हम े</w>
मध ु</w>
कुरि न्
in e</w>
वक् ताओं</w>
लेख कों</w>
पर्स नल</w>
का स्ट</w>
p s</w>
डरा ने</w>
क़ ब्
प्र वी
नै शनल</w>
ग़ ु
हे मंत</w>
श न्स</w>
ब्र ै
प्र जनन</w>
ढा ंचागत</w>
दिख े</w>
क्रां ति
अमी रात</w>
बर्खा स्त</w>
दया लुता</w>
प्राइम री</w>
शी त
मा ने
मा दा</w>
निरं तरता</w>
सोच ता</w>
सड़ कें</w>
अमृ ता</w>
मा धुरी</w>
ऑ फ
इ वेंट</w>
20 ,000</w>
बुनिया द</w>
ब जाए</w>
ऑ ल
साइ ज</w>
गो ले</w>
सुल् तान</w>
सुर जेवाला</w>
बेरोजग ारी</w>
पद् म</w>
१ ः</w>
विष ा
वार् नर</w>
रिजि जू</w>
रिक् तियों</w>
उ ठे</w>
अ विश्वास</w>
लम् बे</w>
कम्प ्यूटर</w>
अय्यू ब</w>
अ पार</w>
वरि ष्ठता</w>
लाभा र्थी</w>
फि ंच</w>
प नों</w>
इं टी
रू ख</w>
प ल्ली</w>
दम दार</w>
प टिया
ति श</w>
गु णा</w>
निप टा</w>
वि श्रा
डॉ क्
A P</w>
मौ तों</w>
चित्र ित</w>
मा तृ
पै ट</w>
ट्रां समि
के दार
आपत् ति
वे ल्स</w>
फ न</w>
पूर्ण ता</w>
आर टीआई</w>
अ से
ना नक</w>
दा मों</w>
टे लर</w>
स्ना तको
पुरस् कृत</w>
थ र्
गुरु वार</w>
अ धू
बन् ध</w>
प्रदर् शनों</w>
द स
हैं डल</w>
ब्यौ रा</w>
प्र द</w>
नी ज</w>
प्रि ंस</w>
प्रका शि
से मी</w>
घुसपै ठ</w>
कारो बारियों</w>
अन् तर
हॉ ट</w>
महा जन</w>
एन र्जी</w>
30 .
पु ल्स</w>
ति ल</w>
उपा धि</w>
उत्सु क</w>
रि यन</w>
ना थ
हल् का</w>
सम् पन्न</w>
प्रिंसि पल</w>
वै न</w>
फार ू
मि टा</w>
नी रज</w>
कै लेंडर</w>
l d</w>
रे ं
दा ल</w>
४ ः</w>
हि ज
ह ड्
ग ्य
इ ज्
रि लीज़</w>
बा गी</w>
चुनौती पूर्ण</w>
ग रम</w>
उद्यो ग
पुस् तिका</w>
ध रो
कि य
प्ले ट</w>
अप ्
ले ंगी</w>
मै या</w>
कमि ंग</w>
सित ारों</w>
मोमि नीन</w>
पूछ ते</w>
घोटा ला</w>
वर् क
बेहि श्त</w>
आ धी</w>
राय गढ़</w>
या जक</w>
मे घ
ड बल</w>
खा ओ</w>
ंस लर</w>
ै न</w>
बॉर् डर</w>
बढ़ा ते</w>
गोप नीयता</w>
सिं ह
ष ड
साक्ष रता</w>
जंग ली</w>
सूर् य
बर तने</w>
ड्रो न</w>
K um
हा र्ट</w>
सि ल</w>
फि न
पदा धिकारियों</w>
ता नों</w>
आ विष्
वि द्रोह</w>
र क्षण</w>
पो षित</w>
तो ह
जै क</w>
जे ड</w>
स्नातको त्तर</w>
सु चार
ब टा
परेशा नियों</w>
कर न</w>
दी क</w>
टी के</w>
पा द
नौकर ियों</w>
आर जेडी</w>
मेर ठ</w>
पहुँ चने</w>
टि का</w>
पु त्री</w>
झ लक</w>
खुश खबरी</w>
एम एस
A T</w>
3 8
खा नों</w>
सात वें</w>
ट मा
पूंजी गत</w>
पी पुल्स</w>
तात् कालिक</w>
कच्च ा</w>
मे न
मा दक</w>
गो ला</w>
मा ई</w>
प्रोड्यू स</w>
न हरें</w>
उपा ध्याय</w>
दि त्य</w>
त करीबन</w>
चैलें जर्स</w>
सु हाना</w>
श ार
विवा दा
चश्मदी द</w>
क्रे न</w>
क़ा त</w>
st r
अ नौ
E n
राज नेता</w>
काफि रों</w>
सौंप े</w>
लोक प्रियता</w>
इन को</w>
2 2.
ऊंच ा</w>
सि ब्बल</w>
पा बंदी</w>
यू जीसी</w>
दा ं
शु द्धता</w>
क्र ै
मा स्ट
प्रतियोगि ताओं</w>
ख त</w>
परि पक्
कच रा</w>
स्टे प</w>
मि त्रा</w>
पब् लि
अटै क</w>
मु हर</w>
माइ क्रो</w>
का ल्
मं जिल</w>
पढ़ ना</w>
रहा णे</w>
पु ख्ता</w>
पा र्थ
निका ह</w>
ख़ त्म</w>
एंड रसन</w>
प्र वासियों</w>
नारा जगी</w>
आज़ा द</w>
अस हम
एह सान</w>
हर दीप</w>
फोर् निया</w>
मो न</w>
पा ँ
ए पी
ंब ु
औचि त्य</w>
3 4
डिप्लो मा</w>
कृ त्यों</w>
फे र
id ent</w>
सील दार</w>
विवेका नंद</w>
धू प</w>
सो नू</w>
सू खे</w>
चक्रवा त</w>
खु द
वर् जन</w>
धर ना</w>
थ ीम</w>
क ते</w>
१ ३</w>
दो गुना</w>
क़ा यम</w>
मि र्
बा गवानी</w>
प् वा
पुस्त कें</w>
पट री</w>
शि का</w>
न ारि
ख ड़</w>
विवादा स्पद</w>
र ंगों</w>
च रम</w>
ख़ु शी</w>
री ज़</w>
बा ज़ी</w>
चु प्पी</w>
एसडी एम</w>
शाखा ओं</w>
मि कता</w>
प्रक्षे पण</w>
दंड ित</w>
कच रे</w>
छो ड़ी</w>
सु संगत</w>
बार ी
पंच नामा</w>
htt p</w>
ले वल</w>
जन सभा</w>
गुजरा ती</w>
गोष् ठी</w>
ए एस</w>
रो ड
आई एन
अय स्क</w>
मित् तल</w>
प्र था
बने गी</w>
मु रा
मु न्
वे ली</w>
सुब्र मण्य
मु थि
जर लैंड</w>
उठा ई</w>
अ प्रिय</w>
E D</w>
हा व
क्लॉ ज</w>
केदार नाथ</w>
ं डिंग</w>
सा ढ़े</w>
शि यन</w>
र त्
दि वा
ति या</w>
ट्रांसमि शन</w>
शिल् पा</w>
उन्न ति</w>
लो हे</w>
न्यू ज़</w>
कि ला</w>
प् ता
पा यर</w>
कांग्रे सी</w>
अल् प
निय मा
ँ गें</w>
o w
शु मार</w>
तो ड़
यू एस
प्रकाशि त
धमा के</w>
दुर् भाग्य</w>
गो लियां</w>
काफ़ि रों</w>
बद ली</w>
ते ज़ी</w>
वका लत</w>
ऑ प्
आपत्ति जनक</w>
प कों</w>
दिख ने</w>
तं बाकू</w>
y a</w>
प्रतिष्ठा नों</w>
ठ हरा</w>
ए ण्ड</w>
हि ए</w>
सं गम</w>
आ इ</w>
ह नुमान</w>
से ंगर</w>
पूर्वा ग्रह</w>
पहि या</w>
नि की</w>
बु खार</w>
प्रकाशित वाक्य</w>
त मंद</w>
स्नैप ड्रैगन</w>
शे न</w>
ब टलर</w>
दुर् व्यवहार</w>
घ टी</w>
वि नियम</w>
पचा स</w>
म थु
डा न</w>
ठ ंडा</w>
आ ला</w>
स्टू डियो</w>
फै न</w>
इजा ज़त</w>
पोर् ट
पॉ वर</w>
स् खलन</w>
एन आर
व ारा</w>
स् त्रि
पुन री
उठा ये</w>
अमेरि कन</w>
अ क्षर</w>
रंगार ंग</w>
महत्वाकां क्षी</w>
बि ला
बाधा ओं</w>
फे ड</w>
ॉ ल</w>
र तन</w>
चक्रवा ती</w>
क्र म
ऑ डिट</w>
आ पूर्
सम् मति</w>
महा द्वीप</w>
नै दा
दि न
चढ़ा व</w>
18 0</w>
सी म</w>
सम् पत्ति</w>
रह ीम</w>
कै दी</w>
एयर लाइंस</w>
S ing
दी ल</w>
लॉ स</w>
कू द</w>
म सन</w>
फ़ा य
ए ड</w>
रॉ न</w>
नो टों</w>
ख़ु श
हम में</w>
इ ंद्र
सीख ना</w>
रक्षा मंत्री</w>
बो ली
फे फ
दी क्षा
ग् ध</w>
अं बेडकर</w>
एम एल</w>
दली लों</w>
क़ त्ल</w>
आशु तोष</w>
लि ंग
रे फर</w>
मुथि युस</w>
मल व</w>
जिस पर</w>
वि नियमों</w>
क न
एजेंसि यां</w>
विस्फो टक</w>
फै ले</w>
छि पा</w>
शि ंदे</w>
विक्रे ताओं</w>
बे चा</w>
बा बुल</w>
ख ै
बाह ्य</w>
कैथो लिक</w>
p er
दो हरे</w>
आ भूषण</w>
त ड़
हम ी
सप नों</w>
वि हार</w>
दिव्या ंग
दर् जन</w>
डी एसपी</w>
ज़ माने</w>
जगदी श</w>
जा मिया</w>
A r
मान ें</w>
छु ड़ा
घो र</w>
ं सर</w>
वित्त पोषण</w>
एस एसपी</w>
उप राज्यपाल</w>
मि टा
दश मलव</w>
बे सब
धार णा
द लि
ती मुथियुस</w>
य नों</w>
कोशि का</w>
ने र</w>
दो हरा</w>
सं योजक</w>
मै सर्स</w>
नक ली</w>
द्वी पों</w>
१ ६</w>
तो ड़ा</w>
अनौ प
लेक् शन</w>
पे ड़ों</w>
आश्र य</w>
सहानु भूति</w>
मै सूर</w>
धर ने</w>
एप् लिकेशन</w>
आईपी एस</w>
से टअप</w>
नेट वर्
डो मेन</w>
दे यता</w>
च क्कर</w>
शा सी</w>
मुजफ्फर पुर</w>
मान ती</w>
म कानों</w>
बु ला</w>
बन ें</w>
पेश े</w>
आगा ह</w>
2 1
सि ग्
लू का</w>
त्र ी
गुणव त्
ंड ई</w>
यू के</w>
मौ तें</w>
बा ग़
नॉ न</w>
मि या
ड्रा मा</w>
आई ओ
ब र्थ
पै सों</w>
ख्वा हि
अंग्रे ज़ी
सन राइ
रु झा
मुर ली</w>
निक लता</w>
दि यां</w>
आ ति
ँ गी</w>
a st
त ारा
टी बी</w>
ना यर</w>
राज नीति
स् क्वा
वे ंक
पड़ ते</w>
पक्ष कार</w>
रसो ई</w>
पै दा
के बल</w>
अफगा न</w>
स् टी</w>
पह नने</w>
च ारे</w>
कम्युनि स्ट</w>
ंब ले</w>
सं काय</w>
रि हाई</w>
ई ई</w>
3 ,000</w>
स स्पे
रह म</w>
चा ँ
क्षमा शील</w>
15 0
ले बल</w>
नो बेल</w>
ता इ
t ion</w>
19 47</w>
हि या</w>
समे ंट</w>
सं जू</w>
बे ल
प्रति भूति</w>
प्र यत्न</w>
प्र गतिशील</w>
उ म
अथ ॉरिटी</w>
हा मि
सिद् दीकी</w>
मुख ्
परिवर्त नों</w>
नि फ्टी</w>
लि यत</w>
चिं तन</w>
सार्वभौ मिक</w>
फै ली</w>
घ ी</w>
बे दी</w>
की ट
सि कता</w>
सम स</w>
फ्रे ंच</w>
कॉन् फ्रेंसिंग</w>
क़ुर आन</w>
आ रा
अभिन ंदन</w>
स्वाय त्त</w>
सिग रेट</w>
सार िक</w>
बन् दे</w>
छो ड़े</w>
क् या
अभि यानों</w>
व मेंट</w>
निर् भ
सप् लाई</w>
बिंद ुओं</w>
नि का</w>
ता दाद</w>
जोड़ ें</w>
सि ंगर</w>
ज़िम्मे दार</w>
A l
198 5</w>
स्ट ा</w>
विक्र य</w>
रु द्दीन</w>
जी रिया</w>
उद य
आँ खों</w>
ंड ा
यूए ई</w>
i al</w>
ग्रे टर</w>
ए ग्री
प्रशा सक</w>
अप कमिंग</w>
अ ंद
12 ,
सौं दर्
मौ द्र
जमा त</w>
आज़ा दी</w>
स्थ गन</w>
कार् ट</w>
आसि फ</w>
वर्ष गांठ</w>
रू चि</w>
सां सारिक</w>
फि क्
द बो
प्रा णी</w>
का ंग
सो र्
फ़ो न</w>
निश ंक</w>
ण ता</w>
टि याँ</w>
क ती</w>
ल् टर</w>
प्रमो द</w>
नैदा निक</w>
निप टाया</w>
उ दार
म ग
ठहरा ने</w>
च यन
से बी</w>
मल् टी
परंपरा ओं</w>
अस्प ष्ट</w>
५ ः</w>
नी तियां</w>
सि लि
शिला न्यास</w>
म्र पान</w>
C R
सी ने</w>
लाभ दायक</w>
चाल कों</w>
2 3.
सुल भ</w>
पीडब् ल्यू
ग्वा लियर</w>
सम न</w>
पर त</w>
द् वाज</w>
द ती</w>
अलगा व
अनौप चारिक</w>
सिया सी</w>
पे य</w>
अन् तिम</w>
12 8</w>
पीएन बी</w>
धि कारों</w>
टी एस</w>
ए टर</w>
शि ना
शर् मना
पर मिट</w>
पत् त
डॉ न</w>
गो वि
कुफ् र</w>
ह ॉ</w>
प्रेर क</w>
पाय दान</w>
ई ए</w>
लू र</w>
रह नेवाले</w>
नारि यल</w>
ic al</w>
स स्ता</w>
बा क़ी</w>
बन् दगी</w>
अनं तपुर</w>
o t</w>
लगा ये</w>
यो गा
गि यर
ऐ ंड</w>
समा वेश</w>
नवो न्
श ू</w>
2 1.
स वारी</w>
आ क्रो
वि नियमित</w>
वा ड़</w>
पि तों</w>
न् तर</w>
द ण्ड</w>
अ ंगों</w>
योज ना
बढ़ो त्तरी</w>
आर ओ</w>
अंतर् निहित</w>
सं ग्राम</w>
गु ट</w>
ने ताजी</w>
कार तू
मि थ
फि केशन</w>
प्र दाता</w>
चौ की</w>
इ ल्
अपर् या
0 8
टा वर</w>
आ ब
ल लित</w>
भाव नात्मक</w>
सामंज स्य</w>
साइ टों</w>
रिया यत</w>
यथा स्थिति</w>
पटिया ला</w>
ए प्पल</w>
पू नम</w>
पुनरुत् थान</w>
श् वरी</w>
शर्मना क</w>
भ द्र</w>
फ ंस</w>
चिन् हित</w>
चि त्रों</w>
र खिए</w>
मा ंस
बीएस एनएल</w>
पह ल
जी वी</w>
वे बि
प्रतिभा शाली</w>
सै म</w>
गु फा</w>
गि ता</w>
कं धे</w>
हि ता
रवी ंद्र</w>
मथु रा</w>
प्रा ं
चंद्र यान</w>
EN T</w>
2 4.
सम कालीन</w>
मु ल्क</w>
गि नी</w>
भार द्वाज</w>
ज ्यू
उद्य मी</w>
सिल् वर</w>
प् तता</w>
सि ंग
शो एब</w>
ब ड़</w>
प्रति रोध</w>
पर स
w e
पर्यावर णीय</w>
तहरी र</w>
जन गणना</w>
उन् हे</w>
वे णु
धरो हर</w>
खा सी</w>
१ ८
याचिका एं</w>
पो षक</w>
उतर ने</w>
स् के
सि क
राजा ओं</w>
मान सिकता</w>
निषे ध</w>
टें शन</w>
अ ने
co m</w>
घ टाने</w>
तै मूर</w>
काउ ंटी</w>
ू र</w>
एयर लाइन</w>
स्वा र्थ</w>
कठि ना
सै नि
सज् जित</w>
खा लि
को रियाई</w>
ए पि
सी जी
समी प</w>
वै ल्यू</w>
तारी खों</w>
डा लर</w>
खरी फ</w>
पि च</w>
सो वि
लि याँ</w>
बी ह</w>
ही र</w>
वि कृत</w>
मू ला</w>
बा ंड</w>
प ारा</w>
से क्रे
ऑक् साइड</w>
2 7.
बाध्य कारी</w>
जा हि
एं जे
A R</w>
रख ्
सुप्री मो</w>
सद नों</w>
दीक्षा ंत</w>
ब टो
ने हा</w>
नर् सिंग</w>
उ म्र
फे स्टि
तं ज</w>
व ल्ल
J UD
ज जों</w>
घं टा</w>
श र्ट</w>
मॉ ड्यूल</w>
महारा जा</w>
घु स</w>
आई बी
मु शर
पारिस्थि तिकी</w>
तुम्ह े</w>
सि डनी</w>
नामा ंकित</w>
जान कारि
ग़ ैर</w>
कै श</w>
और तें</w>
आर डी</w>
N ame</w>
रोमा ंटिक</w>
म दन</w>
गियर बॉक्स</w>
197 1</w>
बन ीं</w>
भू पेंद्र</w>
डी एम</w>
ज़ा लिमों</w>
ग्र हों</w>
कु ंबले</w>
इच्छ ा
एफ पी</w>
h n
वी सी</w>
रॉय ल्स</w>
बी सीएम</w>
बदमा श</w>
ना स</w>
ज नी</w>
गो विंद</w>
क़ ू
इक बाल</w>
सिफारि शें</w>
के शव</w>
इब्रा हिम</w>
i b
Ex t</w>
पी ओ
कि न्
अन ै
अग् नि</w>
h a</w>
हु बली</w>
प्रति वर्ष</w>
क्रि समस</w>
समा योजित</w>
लाभा ंश</w>
पहचा ना</w>
परिस्थि तियां</w>
तत्व दर्शी</w>
कुल म</w>
३ ०</w>
हार ून</w>
गे म्स</w>
ह ड्डी</w>
स्वा द</w>
ला ती</w>
रि तेश</w>
अंग्रेज़ी ः</w>
A D
रे जि
नारा य
न रों</w>
तु ल्य</w>
कह ेगा</w>
मत गणना</w>
डे क्स</w>
इं टर</w>
आं खें</w>
अस दु
I V</w>
हा थी</w>
ला ठी
बर्थ डे</w>
तं त्रि
जय ंत</w>
ज टि
क़ु बूल</w>
आ र्ट</w>
अं डर
निर्भ या</w>
दू तों</w>
कवा यद</w>
स्व देश</w>
टू रि
कीट ना
दुर् घटनाओं</w>
ती व्र
गे शन</w>
आद मियों</w>
स्वि ट्
पें शन
मुकद मे
पशु पालन</w>
न् दा</w>
नो टिफिकेशन</w>
जे डीयू</w>
कु शी</w>
ऑ प्शन</w>
on e</w>
सर े</w>
बिगा ड़</w>
फार् मा
ने ं
उप रा
9 00</w>
हरी श</w>
रा बी</w>
च ंदा</w>
ऐ क्
सं विदा</w>
महा विद्यालय</w>
कु र
स्टो न</w>
राज ग</w>
डाय री</w>
जग न्
आत्म घाती</w>
196 2</w>
विरोधाभा स</w>
ने वालो</w>
तृ तीय</w>
जा ली</w>
एप् लीकेशन</w>
वेणु गोपाल</w>
रि ले
बैठ कर</w>
प्रति भू
दे गें</w>
इंत ज़ार</w>
ंग ी
u m</w>
Sing h</w>
वसी म</w>
ख़ े
उप योगि
मौद्र िक</w>
मर् द</w>
वरी यता</w>
परि सरों</w>
कठिना इयों</w>
विधान मंडल</w>
र् व</w>
परम्प रा
धू म्रपान</w>
घटा कर</w>
कमा ंड
पीपी पी</w>
गु रू</w>
ई एस
हरा ने</w>
सनराइ जर्स</w>
वा चा</w>
मार्के टिंग</w>
डु चेरी</w>
मेह मान</w>
नवोन् मे
घ् न</w>
आम ने</w>
अर्थ शास्त्र</w>
सु साइड</w>
दा दी</w>
ज ना</w>
I T</w>
दी पा
चिं ता
19 50</w>
प्य ारे</w>
पा ट</w>
दलि तों</w>
खट ख
महा संघ</w>
दर्शा ती</w>
हत्या कांड</w>
वं श
काय दा</w>
का जोल</w>
मॉ ल</w>
बे ड</w>
कैलि फोर्निया</w>
एल पी</w>
स लीम</w>
चु निंदा</w>
कि र</w>
ओ मान</w>
उपे क्षा</w>
आइस ो
लैं ड
न्द ु</w>
फाइ नेंस</w>
दे ंगी</w>
or ld</w>
हस्ताक्ष रित</w>
बो ट</w>
गलिय ारे</w>
एम एम</w>
विशेष ताएं</w>
प्रदर्शन कारी</w>
द्व ार
योग ्य
द् धार</w>
छ ठी</w>
मु बार
फू ट</w>
जे ब</w>
काफ़ि र</w>
एम आई</w>
हामि द</w>
लाठी चार्ज</w>
पे ंडे
ग़ लत</w>
रि फाइन
रा वल</w>
पं प</w>
शि क
फ़ रिश्ते</w>
भो ज</w>
ईश्वर ीय</w>
0 9
से ले
राष्ट्र ी
प्रवी ण</w>
पो जी
दु र
गांधी नगर</w>
ती र्थ</w>
ह रों</w>
रोह तक</w>
प्र ज्ञा</w>
पा लि
चू र</w>
कारतू स</w>
JUD GM
पीडि़ त</w>
ए बी</w>
वि क्की</w>
भागी दारों</w>
म् बा
म ः</w>
न्न म</w>
द पुर</w>
५ ०</w>
लो कल</w>
र् ा
बार ूद</w>
जा पुर</w>
इं टेलि
हा फि
एन एफ
ड्रे स</w>
ई पीएफ
वेबि नार</w>
ब्रॉ ड
पाय नियर</w>
आकां क्षाओं</w>
राज े</w>
ख़ बरी</w>
उज् ज्
ंचा इ
G o
मांस पे
प्रभु त्व
नर्म दा</w>
क हर</w>
सौ रभ</w>
मुशर ्र
बै क्
पद भार</w>
चू ँकि</w>
कदा पि</w>
ए य
स्ट ु
सो चि
णु ओं</w>
घा स</w>
अं ध
व सु
बहु जन</w>
ड ऩे</w>
घट कों</w>
काल् प
हा नी</w>
सा वर
बना एंगे</w>
करा धान</w>
आई आर
हे लि
सर पर
शिवि रों</w>
ग् लास</w>
इ ब्
व्या स</w>
विज यी</w>
मल् टी</w>
परस तिश</w>
O R
श्री कांत</w>
यू रिया</w>
बेल् जियम</w>
बा ल्
जि यो
गी तों</w>
मै सेज</w>
मा कपा</w>
न हर</w>
टै गोर</w>
al l
5 000</w>
सम् भव</w>
पराज ित</w>
निका लना</w>
गिर फ़्
सी ता</w>
ब्रह् म
डी ल
ड सन</w>
चु नी</w>
चंद्र मा</w>
कर दाताओं</w>
अभ्य र्थी</w>
तु ओं</w>
कॉ लम</w>
एनसी सी</w>
अर् ज़</w>
ह स्
सावधा नी
ब ला</w>
आत्म समर्पण</w>
आ हत</w>
सुल ह</w>
सु राग</w>
व क़्त</w>
था ई</w>
ट ल्स</w>
चा ह</w>
कैं प</w>
2 6.
2 5.
हर संभव</w>
सि खाने</w>
डा लना</w>
काल्प निक</w>
इको नॉ
लक्ष णों</w>
जा दू
महा भारत</w>
तरी क़े</w>
क् वॉ
एन बी
आ लू</w>
सी पी
दा खि
क ना</w>
वा टर</w>
फि ल</w>
पड़ो स</w>
न शी
आ लम</w>
पाइ प</w>
ध्व स्त</w>
गा ड़ियां</w>
e p
बिग ड़</w>
ने अ
क् वीन</w>
कन् हैया</w>
16 0</w>
हे नरी</w>
लू ंगा</w>
री मेक</w>
रसू लों</w>
मस् ती</w>
ति करण</w>
फा र</w>
पै क</w>
करा ची</w>
ह टने</w>
बि पिन</w>
दाय रा</w>
क्रू ज</w>
का व</w>
ई एम</w>
Kum ar</w>
स गाई</w>
फिली पी
प्रा न्त</w>
JUDGM ENT</w>
व्य ं
मस् जि
तर्क संगत</w>
वित्त मंत्री</w>
पि ंक</w>
नज़ दीक</w>
दिखा ती</w>
ट्र म</w>
सर कशी</w>
बद नाम</w>
न ्यो
ग ंगा
आ यत</w>
5 6
ार स</w>
भार त
फरी दाबाद</w>
तथा कथित</w>
खरी दारी</w>
an ce</w>
परि प्रे
क् कड़</w>
रे गा</w>
यु ज
भी म</w>
कुरिन् थियों</w>
ऋष भ</w>
अभि लेख</w>
अभि योग</w>
ारो पण</w>
सुर ंग</w>
व पूर्ण</w>
भि ड़
ध नु
i r</w>
म् ब</w>
बे च
A p
रिक् शा</w>
प्र जाति</w>
नु मा</w>
छोड़ ना</w>
श्वे ता</w>
बाद शाह</w>
जे ंसी</w>
घू मने</w>
उ भर</w>
तह सीलदार</w>
अपी लों</w>
जानकारि यां</w>
चु ंब
क्रांति कारी</w>
4 4
2 8.
विध वा</w>
रो चक</w>
डे कर</w>
आपूर् ति
वॉ ट</w>
मस ला</w>
जै की</w>
जु द्दीन</w>
शर् म</w>
डीएम के</w>
्य े
प्रति रक्षा</w>
परी क्षणों</w>
R C</w>
लिहा जा</w>
ig h
B i
स् या
मै री</w>
अं डे</w>
R es
सु शासन</w>
सम्बन् धित</w>
शिना ख्त</w>
भ क्तों</w>
दक्षि ण
डु अल</w>
गे टिव</w>
क टाई</w>
जा सू
उछा ल</w>
चर् चित</w>
म जे
बी मा
रे स्
यु क्ति</w>
घे रा
अध्या पक</w>
स्कू टर</w>
साइ ना</w>
भ त्ता</w>
को ले
उभर ते</w>
आवा गमन</w>
A m
दिना ंकित</w>
ए वि
स वा</w>
दीपा वली</w>
घु टने</w>
मि त्रता</w>
बं बई</w>
चौ टाला</w>
प्राची नों</w>
स्क्रि प्ट</w>
ब्र ु
प्रति ज्ञा</w>
द त्
आ माल</w>
सा प्ता
च लाते</w>
वि ना
की ट</w>
स्तु ति</w>
री करण</w>
मे क्सिको</w>
निक ली</w>
त् ति</w>
ड रता</w>
टी पी</w>
कमजो री</w>
ऑपरे टिंग</w>
ब लू
जा य</w>
अव य
सम न्वित</w>
संशो धनों</w>
ड कै
सराह नीय</w>
हौ सला</w>
बा हम</w>
खा या</w>
अना वरण</w>
सुग मता</w>
नै तिकता</w>
जोड़ ना</w>
आपत् तियों</w>
M O
चि यों</w>
गि र्द</w>
ए के
सावर कर</w>
लिख ना</w>
गु ड</w>
कल् पित</w>
c l
P ro
हर ि</w>
सावधानी पूर्वक</w>
जल् द
एशि यन</w>
आयुर् विज्ञान</w>
रिया य
करा ते</w>
ईपीएफ ओ</w>
9 0
निरा शा
डे ल</w>
स ्</w>
मुश्कि लें</w>
पार्ष द</w>
प्रभुत्व शाली</w>
ठि कानों</w>
ट् टा</w>
वि ख्यात</w>
मौ र्य</w>
ड्रा फ्ट</w>
क्रमा ंक</w>
10 8</w>
हफ् तों</w>
भ ै
प ख
निकल ते</w>
रो मन</w>
रिपोर् ट्स</w>
मन ु</w>
न म्बर</w>
च यी</w>
गु रू
आसमा नों</w>
आ सार</w>
मृ दा</w>
पि या</w>
ड् ढा</w>
ड ीन</w>
चो टिल</w>
कला पों</w>
क ब
बर् ताव</w>
नव जात</w>
क लं
हु ंडई</w>
सी पीआई</w>
ध नी</w>
जी वंत</w>
खड़ गे</w>
20 30</w>
वय स्क</w>
बे व
ना ले</w>
जुर् माने</w>
ग ट</w>
अमे जन</w>
v al
री दी</w>
ज़रू र
ऊ ं</w>
साहित्य िक</w>
खुद कुशी</w>
कार खाने</w>
एजे ंडे</w>
म द</w>
बना एगा</w>
पु जारा</w>
धु ं
एल डी</w>
जय ललिता</w>
करु णा</w>
पीजी आई</w>
तु क</w>
कि स
इंग् लिश</w>
रामा यण</w>
बुजुर् ग</w>
पवि त्रा</w>
ईमान वालों</w>
सोवि यत</w>
रो ष</w>
ए रिया</w>
ए ंगी</w>
प्रो टे
198 1</w>
विकला ंगता</w>
पहल वान</w>
न मन</w>
कु लर</w>
अभ्य र्थियों</w>
बहु मूल्य</w>
फ ट
चै ट</w>
ग न्ना</w>
आया म</w>
लाइ ब्रे
मैन ्यु
ज लाने</w>
अफ वाह</w>
संगीत कार</w>
महत् त्व</w>
ब्रह् मा
त म्
एड म</w>
रू नी</w>
निय ल</w>
टी ओ</w>
साप्ता हिक</w>
ब ्यो
प्रमा णन</w>
परि णी
द्र मुक</w>
च ्यु
घ राने</w>
इ ब
अन धिकृत</w>
बद ला
अ तुल</w>
ंग र
विश्रा म</w>
भू स्खलन</w>
उप देश</w>
असदु द्दीन</w>
प्रो फाइल</w>
क तर</w>
इकट् ठे</w>
परिप्रे क्ष्य</w>
डू ब</w>
पार्थ ि
घेरा बंदी</w>
i es</w>
ह ता</w>
सु धीर</w>
राज मार्गों</w>
मंड लीय</w>
बर् न</w>
फ्रे म</w>
नौ जवान</w>
आरो पितों</w>
o ur
सद् भाव</w>
य क़ीन</w>
पूछ ो</w>
त फ
ख री</w>
हेल् पलाइन</w>
स्पि न</w>
वें शन</w>
प्रश स्त</w>
निका लकर</w>
जल्द बाजी</w>
गति रोध</w>
ए ओ</w>
सुल झा</w>
वर्ग ीय</w>
य कों</w>
मह ंगा</w>
गाव स्कर</w>
इ मा
अंग्रे जों</w>
P S</w>
बा ंस</w>
जह न्नम</w>
कं ड</w>
सिं ध</w>
प्रति स्थापित</w>
मी त</w>
पट कथा</w>
जय राम</w>
च लाना</w>
करि यां</w>
वा ड़ी</w>
गार् डन</w>
मं चों</w>
सीमा वर्ती</w>
श्री राम</w>
वे दन</w>
बी बी</w>
पर क</w>
कौ ल</w>
इका इयां</w>
अ संगत</w>
बॉ न्ड</w>
बू थ</w>
नॉ ल</w>
e st
प्रो वि
झ ी
ख्ते यार</w>
शे ड्यूल</w>
दह शत</w>
अ द्वितीय</w>
हँ सी</w>
फ ्यू</w>
दुर् घटना
छि पे</w>
ख ं
कार बार</w>
तीव्र ता</w>
सीख ते</w>
शे र
i d</w>
हो स्ट</w>
ला एगा</w>
वि स</w>
व ः</w>
थि एटर</w>
अंत ः
फ ज़ल</w>
जोड़ कर</w>
वाक़ि फ</w>
ता र्
हाफि ज</w>
ल ीं</w>
फ्रे ंचाइ
पत् तियां</w>
ज न्य</w>
फेस्टि वल</w>
दो ज़
डि क</w>
इ तर</w>
आ ल
स् ती
कड़ ाई</w>
खे तों</w>
कु श्ती</w>
एंटर टेनमेंट</w>
यि का</w>
मुशर्र फ</w>
भाव ुक</w>
कार्य वाहक</w>
or e</w>
4 8
14 ,
युज वेंद्र</w>
मो मिन</w>
मन प्रीत</w>
मजे दार</w>
गांधी जी</w>
का न्
एन एम</w>
Th e</w>
सहा य</w>
बं सल</w>
चा प</w>
कद र</w>
एनटी पीसी</w>
आर् कि
लि फ्ट</w>
रि फंड</w>
म री</w>
छा प</w>
as e</w>
तिहा ड़</w>
झ ंडी</w>
उ ड़ा</w>
19 70</w>
पर म</w>
बर सात</w>
विवर णों</w>
ले क</w>
छात्र वृत्ति</w>
गल तियों</w>
O S
वि लियम</w>
भा स्कर</w>
गवर् नेंस</w>
ऑपरे टर</w>
अन मोल</w>
10 वीं</w>
हि ना</w>
स्त रा
ग ्य</w>
ख़ु श</w>
रूपां तरण</w>
जगन् नाथ</w>
से तु</w>
सब मिशन</w>
स कार</w>
मिल ीं</w>
टी चर</w>
किस् मत</w>
कल् चर</w>
इलेक् ट्रो
अनु प्रयोगों</w>
इ ट</w>
अ ज़ी
सु सज्जित</w>
समू चे</w>
लियो न</w>
लड़ कियां</w>
मना ई</w>
बरा क</w>
वी एसएम</w>
बू झ</w>
बि जी</w>
ट्रांस पोर्ट</w>
198 2</w>
प्रत्या शियों</w>
आई आरसी
स्ना न</w>
श्र ो
रे शम</w>
बा उ
पूर् णि
पूछ ना</w>
चार् जिंग</w>
साह ू</w>
जीवन साथी</w>
कमि ंस</w>
उभर ती</w>
ु त्
वा मपंथी</w>
अ संवैधानिक</w>
13 ,
भ त्ते</w>
प्वा इंट</w>
द रख्
डा क्टर</w>
ल कॉम</w>
फू लों</w>
ना सा</w>
क़ा दिर</w>
भट् टा
पोजी शन</w>
ंड ्स</w>
वि ल्
रवि ंद्र</w>
गे श्वर</w>
पी टी</w>
पि स्त
नवा न्
टे स्टिंग</w>
A G
बैक् टी
ब डी</w>
पुनर् निर्माण</w>
पार्थि व</w>
न् दर</w>
एय रो
एक्स पो</w>
रे स्तरा
मल् लि
घे रे</w>
अन न्त</w>
2 9.
10 4</w>
सहभा गिता</w>
श मन</w>
रि से
मै क्स</w>
प्राधि कृत</w>
दे वे
दी वारों</w>
फ्लै श</w>
प्रथा ओं</w>
डिय़ ों</w>
को चिंग</w>
कु दरत</w>
क मा</w>
I A
हार् ड
सिपा ही</w>
मं ज़ू
निग मों</w>
च ंद
आई ए</w>
हा स</w>
हड़ कंप</w>
मय ंक</w>
बेसब ्री</w>
ब हार</w>
ग्य ार
कं पा</w>
सो लर</w>
सं त
धू ल</w>
डे ढ़</w>
डी डी
ग म्
ग्रे ट</w>
ख़े रत</w>
ंच र</w>
ब् बर</w>
पुनरी क्षण</w>
हे ल</w>
सा मी</w>
जब लपुर</w>
चा वला</w>
स कर</w>
राज़ ी</w>
म ैं
पेशे वरों</w>
गर् ल</w>
एग् जाम</w>
एएन आई</w>
अ मन</w>
समी र</w>
स त्रों</w>
न्द्र नाथ</w>
ज्ञ ता</w>
करू ं</w>
अप्र त्या
o b
सक् सेना</w>
पद्मा वती</w>
घ ट</w>
को ष
ओ आरएस</w>
आ ॅ
A s
व्या प्त</w>
डो भाल</w>
चा र्ट</w>
गु ल</w>
किय ारा</w>
अ स्थिर</w>
लु धि
टिक टों</w>
घा ई</w>
समी करण</w>
लगा एं</w>
फार् मा</w>
फ़ि र
गोप नीय</w>
ग णि
NI C</w>
स्टे ज</w>
य श</w>
महा निरीक्षक</w>
मंग ो
क़ि यामत</w>
अर्थ व्यवस्थाओं</w>
अर् चना</w>
व न्य</w>
तब् दील</w>
ढ ी
ठ हरे</w>
कॉ क</w>
ऊ ल</w>
आइ टम</w>
आ भा
ंच ल</w>
u g
भ य
ब त्ता</w>
एनजी ओ</w>
वर् द्
सुन् दर</w>
मे नन</w>
म जा</w>
दंड ा
अह सास</w>
अपर्या प्त</w>
3 1.0
गुजर ने</w>
एयर वेज</w>
M C</w>
ौ दा</w>
ठहरा ते</w>
जो सेफ</w>
गी र</w>
ए एसआई</w>
उ ंग
हा ड़ी</w>
वा कि
मा ओ
ब्रा ंच</w>
दावे दारों</w>
स्वे च्छा</w>
सरपर स्त</w>
दा एं</w>
को श</w>
कर् फ्यू</w>
वि दों</w>
जी एस
घ निष्ठ</w>
अफ सरों</w>
अपना ए</w>
बंट वारे</w>
पक्ष पात</w>
खर् चों</w>
ं कर</w>
CA A</w>
ह वा
शरणा र्थियों</w>
प्र क
पुन ः
नौ वहन</w>
साध ते</w>
रे ंट</w>
प न्ना</w>
को चर</w>
197 2</w>
स्वप् न</w>
पत्त नम</w>
ई टी</w>
इंटेलि जेंस</w>
अ विश्वसनीय</w>
मे ट्रो
फ्रा ंसि
पंड ्या</w>
ट ः</w>
1, 0
जिन पिंग</w>
कि सके</w>
मै ट</w>
दा ंव</w>
द बा</w>
टै क्सी</w>
प्र ख्यात</w>
उड़ा नें</w>
आ ख़ेरत</w>
सज ग</w>
द् द
डा ई</w>
e g
पे ड
पार्ट नर</w>
ती र्ण</w>
चट र्जी</w>
सोना ली</w>
त ह</w>
ए लेक्स</w>
at h
२ २</w>
शब् द
वि द्रो
मृत्यु दंड</w>
व गै
बा जवा</w>
विलिय मसन</w>
फ् लिप
जी रो</w>
क तें</w>
198 3</w>
से कंड</w>
भरो से
नीदर लैंड</w>
चा ंसलर</w>
क मेंट</w>
से व
जे ंडर</w>
च रण
स्वयं सेवक</w>
सॉ लि
शि फ्ट</w>
पै केट</w>
परिणी ति</w>
सुन ो</w>
आपात काल</w>
भाग्य शाली</w>
जे ने
क ताएं</w>
अग्र सर</w>
os t</w>
ar y</w>
राज कोट</w>
डा क्टरों</w>
उ मा</w>
er s
बहु पक्षीय</w>
बढ़ा ता</w>
पु ं
ध ौ
जन ल</w>
सर पंच</w>
शिष्ट मंडल</w>
मो ड़ा</w>
15 ,
शि पिंग</w>
ग्रं थ</w>
सूच नाएं</w>
भव नों</w>
तकली फ़</w>
छा पे</w>
गिरि राज</w>
अप्रत्या शित</w>
व ज़
बद तर</w>
तिब् बत</w>
डब्ल्यू एचओ</w>
एल् बम</w>
ल यी</w>
निशा ने</w>
कि र्
उच्चा युक्त</w>
प्राधि कार</w>
ल र्
ण ः</w>
जी ना</w>
अध्या पकों</w>
सक ने</w>
रा बाद</w>
फॉ र
प्रे सि
जन हार</w>
चौं काने</w>
ग्रेजु एट</w>
ला म</w>
मण् ड
ब्रा उ
बा लिका</w>
पीसी एल</w>
न्याय संगत</w>
उपयोगि ता</w>
जन् नत</w>
ख़ ौफ</w>
स्ट डी</w>
ड्र ग</w>
ार े
सं गोष्ठी</w>
नवा जुद्दीन</w>
स ता</w>
लड़ ते</w>
पढ़ कर</w>
न न्
दार् श
त्रु टि
कर नेवाली</w>
रो मियों</w>
र श्
बु रा
का ः</w>
इन कम</w>
से ल
श ॉ</w>
मुकदमे बाजी</w>
फो रेंसिक</w>
१९ ८
सु खद</w>
ज या</w>
कि ब</w>
उच्च स्तरीय</w>
जन जातियों</w>
चीज़ े</w>
P C</w>
197 6</w>
स ँ
लोक पाल</w>
मा धव</w>
किर दारों</w>
कार् जुन</w>
उ स्
वा क
पी एचडी</w>
ता एँ</w>
कै ल्
25 ,000</w>
हि प</w>
स स्ते</w>
डा क
an t
भ गो
प्रै क्
चढ़ ा</w>
ए एम
स ें</w>
रि सा
परे श</w>
नु क़
दे न
ढ़ ि
सू री</w>
सम ैन</w>
शुरू आती</w>
मनो वैज्ञानिक</w>
इसरा ईल</w>
ज रे
SC A</w>
4 9
व्य ुत्
महा प्रबंधक</w>
कि ग्रा</w>
वनस्प ति</w>
म हा</w>
खरी दार</w>
क़ि स्म</w>
कंटे नर</w>
सिक्यो रिटी</w>
ला र्
रह ूंगा</w>
रवि चंद्रन</w>
पर म
देश ीय</w>
टे लाइट</w>
e m</w>
लगा ता</w>
प्रचार क</w>
ढ े</w>
ज हर</w>
अनु कंपा</w>
i p
14 0</w>
ख रा</w>
i z
0 7
व् ला
मै क्स
मै के
ब्लै क
फ्लिप कार्ट</w>
प के</w>
ज़ ो</w>
ग्रैं ड</w>
अल बत्ता</w>
रह ू
भि न्नता</w>
गढ़ वाल</w>
खी ंच</w>
उम्मीद ें</w>
P h
नरे गा</w>
डि टे
ह सीना</w>
सम् बद्ध</w>
वें टि
ये गी</w>
डी डी</w>
इलेक् ट्रि
अन्त तः</w>
हज़ ारों</w>
प्ले क्स</w>
पु डुचेरी</w>
अभिभाव क</w>
म रा</w>
प्रे त</w>
पिस्त ौल</w>
दे सी</w>
खिड़ की</w>
E T</w>
ह वाओं</w>
जु ड़ा
ख ल
ए ली
3 9
सांख्य ि
वो डा
मे रिट</w>
जॉ नी</w>
उन्हो नें</w>
ई यों</w>
स्टि क्स</w>
मि यां</w>
परि वार
क ष्ट</w>
नवा ब</w>
न ंदा</w>
कॉलो नी</w>
अधि ग्र
है सियत</w>
शि क्षाओं</w>
रि न</w>
या र्ड</w>
पा की
सुचार ू</w>
शा ऊल</w>
मुख्या तिथि</w>
है री</w>
धि का</w>
दूर स्थ</w>
चिकित् सकीय</w>
खा तिर</w>
उ पर</w>
ना ः</w>
ज़ बान</w>
चम त्कार</w>
क् सन</w>
भो ज
ओ लि
हु नर</w>
माउ ंट</w>
पिछ ड़ा</w>
हाई वे</w>
स् किन</w>
वि हित</w>
लि एः</w>
रा ह
अफ रीदी</w>
मै क्
मना ते</w>
प्लेट फार्म</w>
ना र्
सु मन</w>
बी वी</w>
फारू क</w>
णु ता</w>
जासू सी</w>
से रे
ला ः</w>
रोक ते</w>
जी पी</w>
आईसी एमआर</w>
ol og
क्रिके टरों</w>
स्प ै
शत्रु तापूर्ण</w>
परामर् श
ति यार</w>
कि न
अ सं
रि पब्लि
निशा नियों</w>
गम् भी
ill age</w>
9 99</w>
ॉ न</w>
पी ढ़ियों</w>
ना मज
डा लता</w>
टी डीपी</w>
ऑ ं
आया मी</w>
तु ष
ट ंडन</w>
जे क्शन</w>
D A</w>
्या ह</w>
रि वा
मल्लि कार्जुन</w>
ठु करा</w>
शिक स्त</w>
टिप्प णियां</w>
गर् भ</w>
याद गार</w>
ation al</w>
U n
2. 5</w>
दर्शा ते</w>
गैंग रेप</w>
w ar
भरोसे मंद</w>
बी म
बी एचपी</w>
A d
सह कारिता</w>
लेक् सी</w>
या स</w>
पीडब्ल्यू डी</w>
न्न ू</w>
डि स</w>
खे द</w>
ए लान</w>
वि न्यास</w>
वि ं
फो सिस</w>
ग ज
एन काउंटर</w>
हाउ सिंग</w>
शा सकीय</w>
लुधि याना</w>
बि ता</w>
पार् श्
ज़ कात</w>
घ ने</w>
es s</w>
ग् लेन</w>
W P
हो ल्डर</w>
स्पेक् ट्रम</w>
वा म</w>
बॉ बी</w>
डेन मार्क</w>
ज् र</w>
r i</w>
सं प्रभुता</w>
वोडा फोन</w>
बो लना</w>
ने स्को</w>
ओ ली</w>
C M</w>
त ारों</w>
का वट</w>
स्टैंड र्ड</w>
मॉ न
मृत का</w>
पांच वीं</w>
ट लैंड</w>
की मती</w>
सं ब
मा सू
त् तों</w>
चु री</w>
इस्राए ली</w>
हिष् णुता</w>
सर्व सम्मति</w>
प्रो ग्रा
तु च्छ</w>
क ु</w>
आयर न</w>
आकाश वाणी</w>
हा वी</w>
बख् श</w>
प ठान</w>
त टर
को त
क ण</w>
ए नि
ह लाल</w>
मैक्स वेल</w>
पु कारा</w>
ति ल
C on
स्टा र्क</w>
वर ना</w>
जुड़ा व</w>
आर् टिकल</w>
अ स्वीकृति</w>
o h
भया वह</w>
अव तरित</w>
पै थी</w>
ग ारी</w>
कु क</w>
शाला एं</w>
व्य भि
मि ठा
नि रोध</w>
नवी नीकरण</w>
एफ एसएल</w>
आधार ों</w>
ला र्ड</w>
बाग़ ों</w>
प्र वास</w>
om e</w>
R C
मुख ़
ड ं
टै रिफ</w>
गर् मियों</w>
हा शि
नामज द</w>
न म्रता</w>
त्या ग
आं धी</w>
4 50</w>
संक लन</w>
स ु</w>
रॉ क</w>
प ठ
त ली</w>
डि यन</w>
आइ डिया</w>
२ ५</w>
जहा ज
राठ ौ
ब वाल</w>
कॉ लिंग</w>
ऑ डि
है रानी</w>
सु पुर्
ख ैर</w>
कर् नू
R BI</w>
मुश्कि लों</w>
टु कड़ा</w>
सा न
मान कर</w>
जंग लों</w>
व ना</w>
मि लान</w>
भती जे</w>
दिव्या ंग</w>
अके ली</w>
समझ कर</w>
राज ़</w>
पे ड</w>
को मल</w>
an k
गो रि
19 60</w>
ताला ब</w>
जग न</w>
स्टा र्स</w>
मन माना</w>
म म्मी</w>
फ़ रिश्तों</w>
चौ ड़
उ तरी</w>
हिंदु त्व</w>
वस्तु तः</w>
भ रत</w>
बन् दी</w>
चढ़ कर</w>
को ंक
अ सीम</w>
विरो धियों</w>
दा सपुर</w>
जु टता</w>
सीआर पीसी</w>
यू रो</w>
यू क्रेन</w>
दो हरी</w>
एस सीओ</w>
अपना ना</w>
रसी द</w>
बॉ य
दिव ्य</w>
इस हा
is t</w>
संवेद नशीलता</w>
वास्तु कला</w>
ता ल्
त बी
जी ते
आईआरसी टीसी</w>
R S
ले बर</w>
मै त्री
प्रोड्यू सर</w>
कार्य बल</w>
आउट पुट</w>
षड ्य
रा धिका</w>
ते हैं
ग्रा फर</w>
कोष ीय</w>
एम बी
आन न</w>
अज मेर</w>
ही त</w>
सीख ी</w>
ल जी</w>
गर् ल
सै द्धा
बहा ने</w>
इंडि गो</w>
IP C</w>
बि तर</w>
ने पाली</w>
0 5
ी कृत</w>
हो गें</w>
सं चयी</w>
ल ड़े</w>
ने कर</w>
क्रिया न्वित</w>
क माने</w>
सर् व</w>
वै ट</w>
रॉ केट</w>
मंत्र ी
तू न</w>
आए ँ</w>
शं करा
लाइ फ
बी जिंग</w>
पत्र कारिता</w>
नेह वाल</w>
सामा नों</w>
शं घाई</w>
विशाखा पत्तनम</w>
म्प िक</w>
त्या गी</w>
किंग डम</w>
अ निश्चित</w>
सोचि ए</w>
शा ंक</w>
विज्ञा पनों</w>
लाइब्रे री</w>
फर् ना
पि यां</w>
एक् ज़ि
ं टों</w>
मेमो रियल</w>
उपरा ंत</w>
सरा हा</w>
जा ँ
चै ले
गं वा</w>
एक जुटता</w>
ए आईआर</w>
आ दिल</w>
ं तिक</w>
स स</w>
बी एम
ई शा</w>
बह ू</w>
निशा ने
कल्याण कारी</w>
आब कारी</w>
समय बद्ध</w>
राज कोषीय</w>
बो तल</w>
फं साया</w>
4 5
पन डु
ट रिंग</w>
जी तना</w>
हाजि र</w>
रोमा ंस</w>
न् ग</w>
द ंगों</w>
खो लकर</w>
i ii</w>
पत् नियों</w>
गा यिका</w>
W orld</w>
सम ी</w>
मो र</w>
ऑ ब्
वज़ ह</w>
रु स्त</w>
राय बरेली</w>
मु कु
बांट ने</w>
चिकित् सा
क्वा लिटी</w>
विलिय र्स</w>
फा नन</w>
परी क्षक</w>
f or</w>
CC I</w>
ब्रा यन</w>
बना एगी</w>
क़ ों</w>
यो न</w>
निरा धार</w>
दा ंत</w>
द रिया</w>
ताप सी</w>
टी आरएस</w>
चा ंद</w>
हि फा
बी ती</w>
न ल्ड</w>
ति तर</w>
स्विट् जरलैंड</w>
रि यां</w>
भाष ी</w>
ढ ाई</w>
स् किल</w>
भे दों</w>
का नी</w>
s e
बै क
फ ली</w>
प्रबं ध
ढा का</w>
खरी दे</w>
आश्चर्य जनक</w>
3 2
शह द</w>
वृ द्ध</w>
री श</w>
रह स्य</w>
किशो री</w>
ए ड्स</w>
अ रे</w>
संचा लक</w>
पेंडे ंसी</w>
क क्षाओं</w>
इन् सान</w>
बह नें</w>
प्र गा
पनडु ब्
ज माने</w>
ऑल राउंडर</w>
मा ओं</w>
चु काने</w>
क़ा बू</w>
क ड
होल् डिंग</w>
ह वीं</w>
से क्
मधु र</w>
सा ने</w>
बदला वों</w>
पहि ले</w>
ट र्ड</w>
कु णाल</w>
प्रति फल</w>
जन्म भूमि</w>
ग्री न
ारि याँ</w>
सब री
शा र्
वॉर् नर</w>
फ त</w>
दा माद</w>
एका द
इ मर
अं कुश</w>
स्वर्ग दूत</w>
भेज ना</w>
ध रा</w>
ट्रै क्ट</w>
नो ई</w>
नियुक् तियों</w>
डिस् चार्ज</w>
s e</w>
FI R</w>
२ १</w>
वि ज़न</w>
ज्ञा न
ज फर</w>
च लें</w>
विक लांग</w>
र् म
रि ज</w>
ब्राह् मण</w>
फिल् मी</w>
नुक़ सान</w>
नव रात्रि</w>
टर् न
उर्वर कों</w>
अ सुरक्षित</w>
ससु राल</w>
पीएस यू</w>
क प
ली डर</w>
पी एससी</w>
डे स्
टा र्
ट वार</w>
वॉ च</w>
वन ्य
लैं डिंग</w>
रेस्तरा ं</w>
रि चर्
प्रे शर</w>
ने टर</w>
दुश् मनी</w>
तटर क्षक</w>
च लिए</w>
कार् ति</w>
वर न</w>
मो ली</w>
बल् स</w>
नौ का</w>
निर्या तकों</w>
चो टी</w>
करो ड</w>
इमा म</w>
रिए बल</w>
महा निदेशालय</w>
A D</w>
30 2</w>
बॉ क्
प्रति यां</w>
पु ष्ट</w>
प य</w>
क्ल स्टर</w>
इब्रा नी</w>
हम ी</w>
वि शि
रिपब्लि कन</w>
औप चारि
समारो हों</w>
स ड
मौ कों</w>
बी त</w>
नेअ मत</w>
आईसी यू</w>
परि वेश</w>
दं पति</w>
तार् किक</w>
कर घा</w>
ंद्र े</w>
र चा</w>
फिल् म्स</w>
प्रा मा
चैले ंज</w>
ए आईएम
स्ने ह</w>
सर् जिकल</w>
मर् या
बि न्दु</w>
प रा</w>
दि लाता</w>
तुष ार</w>
P r
A I</w>
हाद सों</w>
स्टार र</w>
राइ डर्स</w>
मानवा धिकारों</w>
U R
बो ल्ड</w>
फ ड़
प्र धा
जहा ज़</w>
ख़ ैर</w>
उत् तीर्ण</w>
अरू ण</w>
राठौ ड़</w>
मै ग
मेडि सिन</w>
ना ड</w>
नवी करण</w>
न कल</w>
ध क्का</w>
कु त्ते</w>
सूच क</w>
संरच नात्मक</w>
वी के</w>
ति लक</w>
जु नून</w>
जु टा</w>
ओ रि
एनजी सी</w>
उदाहर णों</w>
हरि द्वार</w>
मेन का</w>
सम्बन् धी</w>
ला देश</w>
भ्र मण</w>
बु ला
फ्रेंचाइ जी</w>
तबी यत</w>
जिला धिकारी</w>
जा म
ख ंगा
is s
वन ंत
त मं
जहाज रानी</w>
कल ौ
ha m
en ce</w>
जो ंग</w>
चि स्तान</w>
ह ंसी</w>
ध माल</w>
खा सा</w>
की र्ण</w>
ंब ू</w>
बटा लियन</w>
डे टाबेस</w>
विद्यु तीकरण</w>
प् लॉट</w>
च ड्ढा</w>
क ति
आर बी</w>
ं कार</w>
S H
सं योग</w>
शा यर</w>
पा त्रा</w>
A B
वा क्या
प क्की</w>
जरु री</w>
गुणवत् तापूर्ण</w>
गि स्तान</w>
4 6
वि क्टो
प्रि य
परम्प रा</w>
नि विदा
च कित</w>
t er</w>
7 50</w>
फाइ ड</w>
न रम</w>
सां झ</w>
राइ फल</w>
माइक्रो एसडी</w>
ब त्
ट सन</w>
उतार ने</w>
अर् जें
अं पायर</w>
ही रा</w>
दा न
ट्रे ड
खू बी</w>
कू ट</w>
६ ः</w>
मि नार</w>
बार ीक</w>
जल मार्ग</w>
ख़ री
सब् जी</w>
यू नेस्को</w>
मिल नी</w>
प्रार म्भ</w>
निप टाने</w>
१ ०
सु र</w>
रोज़ गार</w>
न कार</w>
गुरु द्वारा</w>
लु त्
फुट बाल</w>
प्र चु
u t</w>
बां टा</w>
ना ल्
द य
कोशि शों</w>
एच एस</w>
हे लना</w>
फ ों</w>
प्राइ म</w>
दृश्य ों</w>
घट न</w>
कर्नू लु</w>
आ गं
a i</w>
वगै रह</w>
रि च
यं कर</w>
कीर् ति</w>
उठ ने</w>
अ र्ट</w>
श् चि
दिल जीत</w>
टे ंगे</w>
टमा टर</w>
चौ बे</w>
अन ु</w>
बा य
ब घे
प्र दाताओं</w>
पीएम ओ</w>
लै ण्ड</w>
रे ंगे</w>
प्रां तीय</w>
द् दी</w>
चतुर् वेदी</w>
च मक</w>
परो क्ष</w>
अलगा व</w>
S e
वे री</w>
निय ो</w>
गोल् डन</w>
क मो
उदय पुर</w>
अगर चे</w>
सीआई एल</w>
सर् दियों</w>
सम्बो धित</w>
जा ति
लै क्
भरो से</w>
ब छ
डाय बि
चो रों</w>
एक तरफा</w>
आई वी</w>
अव हेलना</w>
वा ए</w>
मॉन सून</w>
मस लन</w>
सू जन</w>
बड़ ौदा</w>
न् नी</w>
नि हिता
दस्तावे जी</w>
डी आर</w>
क टो
नौ करियां</w>
उत्तर प्रदेश</w>
सुब्रमण्य म</w>
वै रिएंट</w>
राज पत्र</w>
d e</w>
हटा ना</w>
गर्भ पात</w>
आमंत्र ण</w>
ं टि
वर्द् धन</w>
न ं
कर् मों</w>
U S</w>
२ ४</w>
सम् बंधित</w>
शर् मि
अनु क्रम</w>
फ रिश्ते</w>
ए एम</w>
उद्ध रण</w>
पी डी</w>
जा ल
भर ें</w>
बा ना</w>
कौ न
वे ग</w>
ला नत</w>
रख नी</w>
पे शा
A AP</w>
स्त ीन</w>
झा ंसी</w>
घि रा</w>
घर वालों</w>
ंब ली</w>
बे ट</w>
निर्दे शिका</w>
ता हिर</w>
इं डेक्स</w>
सै ट</w>
सद् भावना</w>
शौ च</w>
न कोट</w>
ट्रि पल</w>
आविष् कार</w>
d o
P ol
इन् स</w>
आत् मिक</w>
बि छा
ड़ ो</w>
आर के</w>
In di
तंत्रि का</w>
ओ ल
मु न
प्ले यर</w>
प्राथमि कताओं</w>
गुला बी</w>
कर ारा</w>
195 1</w>
वी रता</w>
वी एस</w>
ल् ड
ल ड
ब ँ
ने गी</w>
T C</w>
M S</w>
स्ट ो</w>
शा सन
मुना फा</w>
धो खे</w>
दु ल्
काग जात</w>
इंत ज़ाम</w>
अ स्थ
मन न</w>
भ यंकर</w>
बर् लिन</w>
ब गल</w>
प ल्ल
देश भक्ति</w>
देख ती</w>
राष्ट्र वाद</w>
बा ध</w>
नवा जा</w>
घो ड़े</w>
P A</w>
स् ट्रो
समा योजन</w>
शंकरा चार्य</w>
विज यन</w>
राइ ड</w>
म क़
छा वनी</w>
B CCI</w>
बा घ</w>
धर्म निरपेक्ष</w>
ता कत
बल् ले</w>
प्रभा स</w>
कार्य वा
कदा चार</w>
ह ंस</w>
शिव कुमार</w>
फि ंग</w>
ड ्री
क् सो</w>
क ंब
अफवा हों</w>
भी त</w>
पॉ प</w>
पक्ष ता</w>
ड्रि ंग</w>
ए ंबु
हस्त शिल्प</w>
हला क</w>
राजे न्द्र</w>
मि नेशन</w>
फ् लि
0 4
सी डेंट</w>
कु ंभ</w>
कने क्ट</w>
सांख्यि कीय</w>
मार्ग दर्शक</w>
ग् न</w>
कै प</w>
का बुल</w>
PW 2</w>
श स्त्र</w>
एथ लीट</w>
वा न
वनंत पुरम</w>
रि व्यू</w>
अमर नाथ</w>
ह म्
साह सिक</w>
स ना
रा दित्य</w>
पो लैंड</w>
इ ज</w>
s t</w>
CO VI
मु स्त
मि ड
मांग ें</w>
गर्ल फ्रेंड</w>
16 ,
हवाई अड्डे</w>
सो रेन</w>
व्हा ण</w>
व ह
बं धु
नस् ल</w>
ओ एनजीसी</w>
साव ंत</w>
बे सिक</w>
पूर्ण तः</w>
तर ों</w>
ज्ञ ेय</w>
ग ड़े</w>
करा एगा</w>
अवै धता</w>
र हिए</w>
प्र ू
पै ड</w>
प ौर</w>
डी टी</w>
आईएस आई</w>
कहा नियां</w>
सुले मान</w>
निर् विवाद</w>
कुर् सी</w>
कलं क</w>
सिद्धा न्त</w>
मो टी</w>
गो स्वामी</w>
२ ३</w>
स् पोर्ट</w>
प्र हार</w>
तुर न्त</w>
गु ड़
अभि प्रेत</w>
अ ज़
a in
मि लाया</w>
भट्टा चार्य</w>
बह ने</w>
प ंद्र
डी डब्ल्यू</w>
अ मान्य</w>
ion s</w>
समा हित</w>
शेयर धारकों</w>
वाइ ड</w>
ड्र न</w>
ज पा</w>
च व्हाण</w>
से ल्स</w>
G ST</w>
30 ,000</w>
से टिंग</w>
प्रति पक्ष</w>
चिन् ता</w>
ख जू
सीआई आई</w>
वा हा</w>
भ्रा मक</w>
भौ तिकी</w>
बन ारस</w>
छा पा</w>
सीमा एं</w>
बघे ल</w>
डी लर</w>
el l
रिफाइन री</w>
पं क्
निर् मल</w>
न ्यौ
दोज़ ख़</w>
ज्योति रादित्य</w>
ज् ड</w>
गा नों</w>
उ गा
हा फ</w>
ला र</w>
बो नी</w>
बि क़</w>
पाइ पलाइन</w>
के न्या</w>
काम गार</w>
क सा</w>
ं टल</w>
है क</w>
पेड नेकर</w>
आं ध्रप्रदेश</w>
पाकी ज़ा</w>
कह लाता</w>
उत्पाद कों</w>
ले ग</w>
पै लेस</w>
पुनरा वृत्ति</w>
गो पी
गर् भा
सु दूर</w>
स ते</w>
र बी</w>
निष् पक्षता</w>
ताकत वर</w>
कति पय</w>
सां के
गति शीलता</w>
मॉ री
निराशा जनक</w>
गा ली</w>
एन एच</w>
प्रे षण</w>
पा लक</w>
थ लग</w>
आ ल</w>
ं त्र</w>
लो का
म कर</w>
कंप ्यू
एथ ले
अन न्या</w>
अंद रूनी</w>
लग ीं</w>
बुझा ने</w>
राम पाल</w>
बो बडे</w>
बैठ ी</w>
गिर कर</w>
कार्य क्षेत्र</w>
ऑटो मोबाइल</w>
इला का</w>
इब्रा नियों</w>
सिं हासन</w>
फि ंगर
प टल</w>
च मोली</w>
गिर ि</w>
ख दान</w>
शीत कालीन</w>
मि लन</w>
भेज कर</w>
जोड़ ता</w>
जू ते</w>
अम् बेडकर</w>
सं हार</w>
पुर्तगा ल</w>
छ त्र
चे स्टर</w>
आया तित</w>
M e
सांके तिक</w>
फार्मा स्
प्रति योगी</w>
पि यन</w>
एक् सेस</w>
स् लो
स में</w>
र ते</w>
हि रा</w>
शि यां</w>
श द</w>
ध ब्
जाय ें</w>
कार्यवा हियों</w>
un d
हथ करघा</w>
स्त न
सो ल</w>
धनु ष</w>
कारि णी</w>
एस एचओ</w>
आज्ञा कारी</w>
मि का</w>
पहुँ ची</w>
ट्रा ई</w>
चार् टर्ड</w>
सिं धू</w>
सा ड़ी</w>
प्रति पा
पौ रा
करे ंः</w>
ई आर</w>
3 3
धू म
टा यर</w>
गा म</w>
कै च</w>
एम टी
आक्रो श</w>
in f
१ ८</w>
ब्र ी
कि या
स्टु अर्ट</w>
शो रूम</w>
बस ें</w>
खिला डि़यों</w>
किरा ये</w>
श्री निवास</w>
या ंत्र
बु ज़ु
दली लें</w>
तना ग</w>
को लं
आनु वं
अर्ध शतक</w>
सो नो
राज भवन</w>
मुख्य धारा</w>
मुख् तार</w>
बृह स्प
परिणा मी</w>
म ग़
निर् गम</w>
न ंद
दिक् कतों</w>
दार्श निक</w>
का इ
उप योक्ता</w>
19 48</w>
स्त ू
ब लता</w>
नक्स लियों</w>
इस मे</w>
आ बं
९ ९</w>
वर् जित</w>
एक्स प्रे
N H
1 70</w>
चू ड़</w>
ऊ र्
ने ंगे</w>
कृत ज्ञता</w>
ई न</w>
होम ्यो
ला पन</w>
बि गड़
बता यी</w>
प्रॉ पर्
थर् मल</w>
एबी वीपी</w>
ए ए</w>
अधि नियमों</w>
शाह ीन</w>
कार गिल</w>
ओ म
उम्मी दों</w>
आदर् शों</w>
महा धि
पूर्व वर्ष</w>
गा इ
कत ई</w>
10 2</w>
पू जन</w>
नि स्त
डि पार्टमेंट</w>
चर्चा ओं</w>
अधिग्र हित</w>
अंश दान</w>
अ दिला
O S</w>
व् स</w>
मुं ह
प्र संग</w>
टु कड़ों</w>
कु बूल</w>
ए एस
१ ७</w>
ल् फ</w>
भू खंड</w>
पा नीपत</w>
पल टवार</w>
एपि सो
उपलब् धियां</w>
बेह तरी</w>
त्र ाओं</w>
it e</w>
5 7
स्टा इ
सात वीं</w>
शा क</w>
ब्रि ड</w>
बद लती</w>
पा ंव</w>
ने ल</w>
सेव काई</w>
प्ला निंग</w>
प्रेर णा
नै नो</w>
छा ती</w>
अव शेष</w>
अन् तर्
लु टे
भे जे
परि लक्षित</w>
चैम्पि यन</w>
क्रू र</w>
क् लीन</w>
संघ र्ष
राम देव</w>
फर माया</w>
नजी र</w>
ध न्य</w>
स् की</w>
महा वीर</w>
गै लेक्सी</w>
IC C</w>
सी रीज़</w>
वि ला
ला नेवालो</w>
टै क्
ए आई
ec hn
सं क्रामक</w>
मद र
एक् सिस</w>
वॉ शिंगटन</w>
पौरा णिक</w>
परि संपत्तियों</w>
टे ंडर</w>
ए हद</w>
ए एल</w>
ई एस</w>
इं फ्रास्ट्रक्चर</w>
अ वि
महा पौर</w>
ता ज
0 6
सा हा</w>
सन् देह</w>
शो भा</w>
शत्रु घ्न</w>
फ्र ै
दा ना</w>
जी प</w>
ऊँ ची</w>
150 वीं</w>
सी रियल</w>
मस लों</w>
थे रे
in dia</w>
संके तों</w>
फॉ लो</w>
पार् सल</w>
अ रा
वं शी</w>
माइक्रो सॉफ्ट</w>
बर् तन</w>
पी सीआर</w>
चाइ ना</w>
भ टक</w>
को ठ
सौंदर् य</w>
शा दी
वर् धित</w>
मि लों</w>
फा ल</w>
दु ग्ध</w>
कर ारी</w>
अगु आई</w>
सु नीता</w>
व्ला दि
वेस्ट मेंट</w>
भा टिया</w>
प्रति लिपि</w>
जॉ य</w>
ंग ू</w>
s on</w>
शि ष्य</w>
वा ंग</w>
न ंब
ठा णे</w>
वृत् ता
मि शनरी</w>
बाद ु</w>
प्र हरी
दा लों</w>
ंड री</w>
as s
लड़ ना</w>
भड़ क</w>
जवा नी</w>
ऑ स्कर</w>
अदिला बादु</w>
17 5</w>
बा बर</w>
निहिता र्थ</w>
जी एस</w>
एक्ज़ि बिट</w>
C S
सू खा</w>
प्रहरी दुर्ग</w>
प्रधा ना
निकट तम</w>
ख़ राब</w>
एच आईवी</w>
रो कता</w>
दीर् घा
ग राज</w>
उ धार
ac h
ब् वे</w>
पहुंच ीं</w>
ऊँ चे</w>
सौहार् द</w>
म नरेगा</w>
भूमि गत</w>
बेह श्त</w>
पट् ट
थ ित</w>
ति मा</w>
अव ज्ञा</w>
अनु मानों</w>
बा बरी</w>
प्ले स</w>
तला शने</w>
आर ती</w>
10 :
सो र्स</w>
सैद्धा ंतिक</w>
लॉन् ड्रिंग</w>
रह स्य
मैथ ्यू</w>
पॉ पु
जादू गर</w>
शि रो
प्र पत्र</w>
बिला सपुर</w>
दृ ष्टा
दर् ज़</w>
सी वर</w>
ष्ट ियों</w>
श्वे त</w>
लक्ष द्वीप</w>
बुजुर् गों</w>
पी स</w>
पत्रि काओं</w>
पठा नकोट</w>
दुश् मनों</w>
डिजा इनर</w>
वोल् टेज</w>
पा वन</w>
गुर दासपुर</w>
अनुप स्थित</w>
ं को</w>
हार्ड वेयर</w>
सैनि टाइ
रवी श</w>
दो हन</w>
ग न
ए ंगल</w>
उ खा
श्रद्धा लु</w>
शरणा र्थी</w>
विन ष्ट</w>
लौ टना</w>
लगा व</w>
बिता ने</w>
दे नेवाला</w>
दवा एं</w>
ठि काने</w>
जी वनी</w>
चिंता जनक</w>
च ॉ
उत्तर दायित्व</w>
अश् लील</w>
अ लं
अ दि
बर स</w>
बना ओ</w>
बना एँ</w>
नाइ जीरिया</w>
गिरफ् त</w>
औष धीय</w>
वि गत</w>
रं जीत</w>
प्रतिबि ंब
डी एसटी</w>
जं क्शन</w>
का ले
मौ न</w>
पहचा नने</w>
पर्यवे क्षक</w>
टो नी</w>
ग मेंट</w>
ऋ ण
आई जी
अर्जें टीना</w>
A u
197 9</w>
वि नियामक</w>
ता ज़ा</w>
तब् बू</w>
क्षेत्र फल</w>
कॉ मन</w>
अनं तनाग</w>
197 4</w>
वा जि
ग जे
क कर</w>
उम्र कैद</w>
सा ख</w>
श ृंखला</w>
यो द्धा</w>
बां ध
फ ँ
क्र मिक</w>
an t</w>
सि टर</w>
आई फोन</w>
मो शन</w>
मे मो</w>
ब हि
नज़ रिया</w>
तोह फा</w>
ल ड़ी</w>
फ़िर औन</w>
पीपी ई</w>
परि पूर्ण</w>
निवार क</w>
आ नेवाले</w>
सह ारे</w>
रच ना
क टा</w>
am p</w>
C up</w>
समझ दार</w>
मन मानी</w>
पहुंचा ना</w>
चढ़ ाई</w>
आबं टन</w>
10 1</w>
मर ्रा</w>
पढ़ ता</w>
जू ट</w>
का ठ
197 5</w>
तम न्ना</w>
जिन् ना</w>
क च्छ</w>
ऋ णों</w>
सर े
बा यो</w>
प तन</w>
कार्य कारिणी</w>
मु ल्
प्र वा
१ ९</w>
वि कार</w>
माध्य मों</w>
मल बे</w>
ढ ील</w>
ग् लै
सर् दी</w>
रुझा न</w>
रि यो
य ियों</w>
फो लियो</w>
फी ल्
प्रच ंड</w>
पद् म
गिरफ़् तार</w>
उप खंड</w>
ख्वा जा</w>
कि रेन</w>
क ता
ऊँ गा</w>
हे म
भाव ना
नां तर</w>
ते श्वर</w>
आर् य</w>
आई ओ</w>
अस मानता</w>
अ काउं
T o
21 वीं</w>
0 2
समि ट</w>
घोषणा पत्र</w>
एन पीआर</w>
एंबु लेंस</w>
उ तने</w>
15 ,000</w>
ल क्
दू ँगा</w>
दुर्घटना ग्रस्त</w>
ज़ि ंदा</w>
ग्र ता</w>
उत्तरा धिकार</w>
ई शान</w>
20 ,
स टे</w>
वर् ण
फ़ त</w>
g ar
संदिग् धों</w>
म् स
भे ड़ों</w>
फ़ै सले</w>
फ राज</w>
पि स्टल</w>
धर्मे न्द्र</w>
दर्शा ने</w>
जु र्म</w>
चट् टान</w>
आरो ग्य</w>
आ ला
संरच नाओं</w>
शे खा
फिंगर प्रिंट</w>
पत्थ रों</w>
जा द</w>
ग्र ै
करू ँ</w>
सेक्रे टरी</w>
सर कश</w>
वच न
पा ला</w>
नाबा र्ड</w>
धुं ध</w>
स्वि च</w>
व् वा</w>
नियमा वली</w>
दी न
T V</w>
सवा ब</w>
ल र्स</w>
मही ना</w>
पूर्व व्यापी</w>
प छ
ता लु
तला क़</w>
जि ंद
उठ कर</w>
सु थ
स ्रा
दा निय
सं देशों</w>
शिल् प
ला एं</w>
र क
मु कुल</w>
पि घ
ता क</w>
कोत वाली</w>
u k
रा स्त</w>
पो ते</w>
नि कोल
197 8</w>
सि य
फिन लैंड</w>
पट ॉप</w>
जरे कर</w>
क्लि ंटन</w>
त ृ</w>
क्वि ंटल</w>
res ident</w>
सत्ता धारी</w>
सक्रि यता</w>
मुला क़ात</w>
ड़ ित</w>
के आर</w>
कारी गरों</w>
एम जी</w>
बी बीसी</w>
पुनर् जीवित</w>
जि ये</w>
कैं डि
आईएस एफ</w>
सुना ने</w>
सर सों</w>
च म्
P l
संपा द
रिपोर् टिंग</w>
क़ु दरत</w>
आव ृ
अल् ट्रा</w>
अधि नियमित</w>
रा ख</w>
तोड़ फोड़</w>
ह ारे</w>
शिव पाल</w>
लाइ ड</w>
यु द्
पो र</w>
पह ना</w>
एल आर</w>
N E
L A</w>
रिसे प्शन</w>
मौ नी</w>
प्रतिभा गी</w>
पि ड</w>
न् तों</w>
ग्री ष्
ंगे ः</w>
से मिनार</w>
बे होश</w>
बा ईं</w>
धी नता</w>
ट्रेड मार्क</w>
गुजर ना</w>
का बिल</w>
उत् थान</w>
अनुया यियों</w>
196 3</w>
ौ री</w>
स्त्रि याँ</w>
सुन ना</w>
श्रे यस</w>
पहुंच ना</w>
रवै ये</w>
नियमि तीकरण</w>
नि यो
कम्प नियों</w>
इलेक् ट्रा
अजी ज</w>
फ् लू</w>
ड रे</w>
क सौ
या ंत्रिक</w>
फै लाव</w>
झुठ ला</w>
जु टा
खरी दारों</w>
ष णों</w>
मु जाहि
ज् जु
ए मि
सी नेट</w>
फी फा</w>
प न्नू</w>
धू म</w>
दिखे ंगे</w>
ठ ंडे</w>
खुश हाली</w>
अप मानित</w>
मं डा
पि ताजी</w>
अनू प</w>
or s</w>
राठ ौर</w>
फ़ ं
पो म्पि
क्रे ता</w>
कर् णी</w>
इ ल
सा जिद</w>
रक्त चाप</w>
फिलीपी ंस</w>
पॉ ली
जा नेवाले</w>
का ँ
उत् साह
T R
पार े
टी जर</w>
अभि नेताओं</w>
अध्य यनों</w>
हिन्दु ओं</w>
त बाद
जर् सी</w>
पै तृ
खिला डिय़ों</w>
ओ मी</w>
मॉरी शस</w>
ब त
प्रा णियों</w>
पहुंचा ई</w>
त ाराम</w>
खु दाई</w>
u st
ac e</w>
195 2</w>
सी टी</w>
सब्जि यां</w>
प्रोफे शनल</w>
अत्या चारी</w>
as t</w>
S BI</w>
म च्छ
बांग् ला</w>
ड़ ला</w>
कोह रे</w>
m a</w>
नवा ड़ी</w>
नक् शे</w>
जम शे
कब ड्डी</w>
एपिसो ड</w>
सू बे</w>
र्म याह</w>
यि र्मयाह</w>
मुता बिक़</w>
ग नी</w>
शुक् ल</w>
बे र</w>
पा ओगे</w>
निभा ती</w>
थि ये
छि पी</w>
गम्भी र</w>
आँ खें</w>
Bi har</w>
बा लि
अभि लेखों</w>
अन् ना</w>
ं ं</w>
4 ,000</w>
पुं छ</w>
ध ं
ति ज</w>
टो क्यो</w>
कोलं बिया</w>
ई एल</w>
इत् ते
हे मा</w>
मे सी</w>
परी क्षाएं</w>
उ ड़</w>
ो ली</w>
सी डब्ल्यू
सारा ंश</w>
समा नांतर</w>
विज्ञा नी</w>
ले री</w>
बि लों</w>
ं ब</w>
वा ंस</w>
मग ध</w>
ब् ध</w>
करा कर</w>
इमर जेंसी</w>
अ स्था
सी एम
सब मिट</w>
शि य
शा ब्
लो स</w>
भेज ें</w>
तर् ज</w>
कृ षक</w>
संवेद नाएं</w>
श्रे णी
वै ष्ण
ला ं
मे कर</w>
प्रत्य र्पण</w>
निकल कर</w>
ब ग
पह ना
टा र</w>
छात्रा वास</w>
इंजीनिय रों</w>
अनियमि तता</w>
id e
at a</w>
समझ दारी</w>
रिय लिटी</w>
मौजि ज़े</w>
मे टिक</w>
मु ंडा</w>
मा ली</w>
नी ले</w>
ट ार
जे ज</w>
20 25</w>
से न्
मां जरेकर</w>
बॉ लि
ग याः</w>
खि यां</w>
क्र ीम</w>
एल बी</w>
0 3
स्कॉ टलैंड</w>
यांत्र िकी</w>
बो ल्ट</w>
त ख्
गि ना</w>
आन् दो
COVI D</w>
ह ारा</w>
वि वश</w>
वि ज</w>
लॉ जिकल</w>
लक्ष् मी
रि वर्स</w>
मू न</w>
दु रुस्त</w>
गि रीश</w>
कला प</w>
राम चंद्र</w>
प्र स्थान</w>
पैतृ क</w>
निर् बाध</w>
का फिर</w>
इच्छ ाओं</w>
y st
रि क्ति</w>
बा न्
फ ्रि
पंच वर्षीय</w>
त टों</w>
ए वाई</w>
आलोच कों</w>
आई टीसी</w>
आ घात</w>
अभि योगी</w>
ंध रा</w>
संस्था एं</w>
शादी शुदा</w>
बो लता</w>
बा हुबली</w>
प्रतिबिंब ित</w>
ए ला</w>
साझ ी</w>
सां त्व
श प</w>
टे प</w>
ं टाइन</w>
हाव ड़ा</w>
मै टिक</w>
बलू चिस्तान</w>
न ारी</w>
चे तन</w>
कूट नीतिक</w>
m e</w>
स्वाय त्
लाल च</w>
ला एँ</w>
ल व
मुकद मों</w>
पि स</w>
चाह ेगा</w>
घन त्व</w>
े गें</w>
विचार ण</w>
रिज़ र्व</w>
पैदा वार</w>
कन् या</w>
s c
है प्पी</w>
पीएम सी</w>
पा टी
एनएस जी</w>
इ फि
विवे क
त ताओं</w>
टो यो
चार् ल्स</w>
च मक
उग्र वाद</w>
स्त न</w>
साइं सेज</w>
सद मे</w>
शा सकों</w>
मि ड</w>
पोर्ट फोलियो</w>
धारणा ओं</w>
डे ल्
अ ड़
i e
ह नी
विना श
डा ंसर</w>
D R
वॉ र</w>
रश् मि</w>
प्रा य</w>
ताइ वान</w>
गं ध</w>
कुल भूषण</w>
C r</w>
विक्टो रिया</w>
मंड प</w>
पीपी एसी</w>
दी स</w>
दर् जनों</w>
द पूर्ण</w>
का एँ</w>
क तार</w>
इ ण्
es h</w>
ू ं</w>
मु गल</w>
भर पाई</w>
बे गम</w>
कैल् शियम</w>
बे ची</w>
पा दरी</w>
ग ़</w>
अंधे रे</w>
4 7
वसु ंधरा</w>
फोटो ग्राफी</w>
निर् वाह</w>
ट्रे डिंग</w>
कार्य पालिका</w>
अप ्स</w>
राम विलास</w>
म ता
फ़ र</w>
नै नी
डेस् कट
गे ट्स</w>
ख्वाहि श</w>
कुल् हाड़ी</w>
आप दाओं</w>
अग् निश
195 7</w>
1 1.0
ससु र</w>
र न
बा ह</w>
गु हार</w>
18 ,
मार् श</w>
बि ड़ला</w>
खु राक</w>
ख दे
आं बेडकर</w>
र शिप</w>
न म्र</w>
न कारी</w>
झो ंक</w>
जी एम</w>
ख न</w>
में ः</w>
मूर् त</w>
फौ ज</w>
ने ड</w>
चौड़ ाई</w>
कौ शिक</w>
en er
विलिय म्स</w>
लै पटॉप</w>
रॉ स</w>
फु ल्
करु णा
इतिहा सकार</w>
ent s</w>
श ॉर्
मंड लों</w>
पद्ध तियों</w>
डे ट्स</w>
जा ज</w>
ख ने</w>
कैम रों</w>
आ धि
असहम ति</w>
्ये ल</w>
रिच र्ड</w>
मो स</w>
उम् दा</w>
इं साफ</w>
अ मान
१९ ७
मैत्री पूर्ण</w>
मे धा
फट कार</w>
टेली कॉम</w>
झे ल</w>
अ त
P F</w>
विंड ो
दूर दर्शन</w>
क़ ै
ओल म्पिक</w>
हे ल
स् केल</w>
य मन</w>
महाधि वक्ता</w>
दिखा कर</w>
डेस्कट ॉप</w>
कै श
की ः</w>
आ स्ति</w>
अभि नीत</w>
शु ष्क</w>
भविष्य वक्ता</w>
ज्या दती</w>
जा ं
ज़ो न</w>
एम् बु
अनै तिक</w>
श म
लू स</w>
बर बाद</w>
नि न</w>
न जात</w>
ज लने</w>
खु ल्
हे रा
य कृत</w>
टोयो टा</w>
इ ज़
g l
197 7</w>
रु के</w>
मि स्टर</w>
म सौदे</w>
पें टिंग</w>
धार ियों</w>
थु न</w>
से वी</w>
समझ ी</w>
वेंटि लेटर</w>
वफा दारी</w>
बा ड़ी</w>
पुकार ते</w>
निकोल स</w>
थु र</w>
झ ंडा</w>
खु र्
काब ा</w>
12 :
स्त गी</w>
सु मित</w>
वै दिक</w>
बढ़ा ए</w>
फेंक ने</w>
चुना वः</w>
कॉन् ग्रेस</w>
कमा ंडिंग</w>
आर् बि
अल् प</w>
हा उस
बे ं
प्रकाश ना</w>
ड ि</w>
p ar
बाला कोट</w>
बारी की</w>
फ़ं क्शन</w>
दु चेरी</w>
करू ँगा</w>
उस् मान</w>
आदि वासियों</w>
आ ड़</w>
1 15</w>
सर फराज</w>
रि टेल</w>
बे ल्ट</w>
जॉ ब</w>
अपरि हार्य</w>
बहु ल</w>
प्रस्तु तियाँ</w>
पे रि
पदोन्न त</w>
ट्रि लियन</w>
इनो वेशन</w>
अनिश्चि तता</w>
ar d</w>
an c
सि खों</w>
फ् ले
न ट
डर ने</w>
गि ंग</w>
खु लने</w>
आइसो लेशन</w>
अग्निश मन</w>
अ सफलता</w>
अ राज
A N</w>
नैनी ताल</w>
धर्म शाला</w>
छ लांग</w>
I A</w>
व नों</w>
ले पन</w>
माइ श</w>
फ्र ॉ
जाग रण</w>
गिरा ने</w>
कु वै
6 50</w>
तैय बा</w>
गर् भाव
के के</w>
के क</w>
एस एससी</w>
एनएच एआई</w>
अँ ग्रे
p re
2 1.0
प ड
खा एं</w>
उद् दीन</w>
S T
नि टी</w>
दानिय ्येल</w>
तर े</w>
गन् ने</w>
सीआर ए</w>
शेखा वत</w>
रिले शन
मं ग</w>
ect ion</w>
बे चे</w>
बच ी</w>
दा ब</w>
डि क्
टे कर</w>
15 00</w>
वज ों</w>
रण ीय</w>
यो नि</w>
बे यर
उ बर</w>
ंग ि
र ना</w>
प्रतिभू तियों</w>
पि यो</w>
ते हैं</w>
डे ली</w>
एह तिया
मंग े
देख ोगे</w>
कैप् शन</w>
अन्तर ्राष्ट्रीय</w>
1 12</w>
स्टू डेंट</w>
मं थन</w>
ना का
जिम्मे दारियों</w>
ग्र न्
आन न्
ल लए</w>
मुंह तोड़</w>
फॉ लो
प्रया गराज</w>
प्रति वाद</w>
जा बाद</w>
एस के</w>
आन ंद
अथ क</w>
र् ो</w>
पा ओ</w>
ति यात</w>
का लि
अ क्षमता</w>
त दर्
आ हू
htt ps</w>
साम यिक</w>
संपा दित</w>
या र्क</w>
मार् कस</w>
मांसपे शियों</w>
बढा ने</w>
निस्त ारण</w>
ड ब
ख ौ
रण जी</w>
परि ष्
२०१ ६</w>
पक ड़कर</w>
श्र ृ
वि ष्ट</w>
व ैं
भु ला</w>
बु लाए</w>
निर्या तक</w>
ध्रु व</w>
चौ की
चा लीस</w>
खे प</w>
अ दर
सम या
बर सा
पर् सन</w>
डा लो</w>
एफ टी</w>
उम्मीद वारी</w>
आर ए</w>
196 5</w>
हेलि कॉप्टर</w>
परि संघ</w>
t a</w>
E R
श् ले
ना सिक</w>
खालि द</w>
कल ीन</w>
अभ य</w>
सि व</w>
साझे दारों</w>
शि ंग</w>
वे डिंग</w>
मनी षा</w>
थ र</w>
जे क्ट</w>
ं दा
रजि स्ट्री
डी बीटी</w>
करा यी</w>
एडि शन</w>
अल् मोड़ा</w>
शौचा लयों</w>
श कर</w>
फे ंका</w>
फ़ ्रा
पो रा</w>
तदर् थ</w>
यू आई</w>
मत भेदों</w>
बै लेंस</w>
पू ज
निकल ती</w>
जी पुर</w>
जवाब देह</w>
कैं पस</w>
राज नेताओं</w>
बु लेट</w>
पा पों</w>
क पल</w>
सोनो वाल</w>
रो ने</w>
म्म े</w>
फॉर् मेट</w>
डी ड</w>
S c
12 4</w>
व ता</w>
मालि नी</w>
प्रासं गि
पांच ों</w>
थो रा
V illage</w>
ला ओं</w>
य ंग</w>
मासू म</w>
म ंगल</w>
भाई चारे</w>
फि क्की</w>
निष्का सन</w>
तौ भी</w>
एआईएम आईएम</w>
एं व</w>
अ शुद्ध</w>
olog y</w>
सीबी डीटी</w>
लॉ र्ड</w>
बा पू</w>
तना वपूर्ण</w>
10 9</w>
सुना ते</w>
मान चित्र</w>
तिरु वनंतपुरम</w>
त व
id e</w>
सिने मा
लड़ ेगी</w>
बु ले
ब क
प्रस व</w>
पर फॉर्
दबा ने</w>
चि ट</w>
इ श्
आगा ज</w>
अ ा
In ter
प्रवि ष्टियों</w>
प्र गट</w>
थ ्र
जहा ँ
कोशि शें</w>
के सः</w>
M an
ारि का</w>
ले ड</w>
रिलेशन शिप</w>
बह ती</w>
पुरा तत्व</w>
त नु
8 GB</w>
फा तिमा</w>
परिस्थि ति
डे ंगू</w>
एन एसएस</w>
ए व</w>
ले वा</w>
कर् ण</w>
अ जिं
सी ज</w>
सा ंग
सन सनी</w>
षड्य ंत्र</w>
या त्राओं</w>
नौ जवानों</w>
दिख ती</w>
ड रा</w>
छि ड़
आईसी टी</w>
it ion</w>
7 5
शो पियां</w>
शाब् दिक</w>
बर्खा स्तगी</w>
प्ले इंग</w>
ति वार</w>
च्छ ा
अस्था ना</w>
os s</w>
h an
वाजि ब</w>
पारि श्रमिक</w>
खुला से</w>
एन आईटी</w>
M S
संस् कृतियों</w>
रो के</w>
महा नगर</w>
भ्र ू
प्राधि करणों</w>
पो ज</w>
परि धि</w>
पंद्र ह</w>
ख ्य</w>
१ ५
स नीय</w>
रु ख़</w>
फ्र ा</w>
प्रता ड़ित</w>
ऑ क्स
अ खब
वा दन</w>
ल् ले</w>
म्बा ब्वे</w>
पा र्ट</w>
पछ ता
दे शियों</w>
ती खी</w>
डो दरा</w>
हस् तियां</w>
या न
फर् नी
पत् तन</w>
12 6</w>
सम्मे लनों</w>
ब्रॉ ड</w>
पुरू षों</w>
पी राइट</w>
बचा ओ</w>
ओ बे
उड़ा या</w>
N S
सीएस आर</w>
मो टा
बरा मद
प्रचु र</w>
195 5</w>
हो ट
सीएन जी</w>
ल ौर</w>
मै त्री</w>
था नों</w>
ती र</w>
कॉन् फ़ि
उ भरा</w>
अ शर
हार ने</w>
ब्ला स्ट</w>
प्रासंगि कता</w>
प्रगा ढ़</w>
अनो खी</w>
11 :
ड मैन</w>
माप दंडों</w>
मा फ़</w>
पाउ ंड</w>
नै नो
दू षित</w>
दिव्यांग जनों</w>
चे ले</w>
ख़ बरदार</w>
1 14</w>
दु ष्य
टि स्ट</w>
उकसा ने</w>
हैं ड</w>
वे न्यू</w>
म ज़ा
भोज पुरी</w>
बद लें</w>
पा म</w>
त न्या
C R</w>
ब्यो रा</w>
प्र वृत्त</w>
ठहर ने</w>
जे श</w>
छा ई</w>
क्ल र्क</w>
आ द</w>
अदाल तें</w>
स्ट्री म</w>
स्कै न</w>
सार् क</w>
शि शु
म् बर
मह त्व
न मी</w>
डि विलियर्स</w>
डि जी
को षा
का या
विनाश कारी</w>
र मा
मक् खी</w>
प्रोसे सिंग</w>
पी ते</w>
पर्व तीय</w>
ढा ँ
/ 0
लै टिन</w>
मो ट</w>
ता कतों</w>
योग िक</w>
बन् धन</w>
इ ता
H ome</w>
भेज ता</w>
भ ्या
पूर् वजों</w>
पर ि</w>
द्वि वेदी</w>
जॉर् डन</w>
क बू
आ ड़े</w>
व्यवसा यों</w>
लुत् फ</w>
या ज
बु वाई</w>
तुल सी</w>
तं जा
चर् या</w>
गुड़ गांव</w>
es s
स्वास्थ ्य
सीमा ंत</w>
शब् दा
व्यवसा यी</w>
ठ प</w>
अखब ारों</w>
ह वेली</w>
स्व रा</w>
1, 5
थ क</w>
खा द</w>
है और</w>
वॉ यस</w>
मै ट्रिक्स</w>
निष्का सित</w>
जी पीएस</w>
उठ ते</w>
ल्यू म</w>
भेज ते</w>
चंद्र चूड़</w>
कोवि न्द</w>
एल एमटी</w>
एंड्र यू</w>
उत् ते
अन जाने</w>
विश् वासी</w>
लो कार्
बद लता</w>
प्रभु त्व</w>
निभा ता</w>
ना हक़</w>
दा ने</w>
टा स्क</w>
f t</w>
J N
स्ट ीन</w>
ली वर</w>
ला इन
मह फू
टो न</w>
क लिन</w>
अल वर</w>
साध ना</w>
व ू
लि नी</w>
बह रीन</w>
बरामद गी</w>
गा यन</w>
गर्भाव स्था</w>
एनडी पीएस</w>
अर्थ शास्त्री</w>
ल ज्
ब्रा उन</w>
नि जता</w>
झ ंडे</w>
घू म</w>
करा ती</w>
उप वास</w>
आईएम डी</w>
हॉ ट
सुन् नी</w>
बे रोजगार</w>
पह न</w>
दोहरा ते</w>
ए आईसी
अदर क</w>
28 8</w>
स् त्रों</w>
न ली</w>
ट्रे ंट</w>
ट ल
जे नि
जी करण</w>
एं टनी</w>
सू त्र
सं कीर्ण</w>
वो टर</w>
वसू ल</w>
में ट्री</w>
उ भरी</w>
अनु करण</w>
o w</w>
स्ती नी</w>
वाक्या ंश</w>
फिर ते</w>
डी के</w>
जी ओ
कि ता</w>
ऑपरे टरों</w>
लं धर</w>
पे टीएम</w>
पी डिया</w>
धड़ क</w>
कर नाल</w>
por t</w>
हो नेवाली</w>
वा ड़े</w>
ले डी</w>
मो ती</w>
पा गल</w>
न्यो ता</w>
नि ंद
जरूर तमंद</w>
चौ थाई</w>
को टक</w>
एफ ए</w>
पी ठा
नो ड</w>
एथ ली
उल झ
वसी य
लैं डर</w>
लु प्त</w>
बो नस</w>
बी का
बि ठा
डा लेगा</w>
जा मा</w>
कु टु
सं पत्तियां</w>
शुक्र गु
मेधा वी</w>
ब सा</w>
पु जारी</w>
नेटवर् किंग</w>
स्त्र ो
ब ब्बर</w>
निर सन</w>
चाँ द</w>
मि मी</w>
माप ने</w>
पूर्णि मा</w>
तम् बाकू</w>
छा ए</w>
क्वा लकॉम</w>
आई टीआई</w>
आ स्ट्रेलियाई</w>
हा र्ड</w>
सा ध्
सं गणित</w>
मूर् ति
एन पीएस</w>
2 30</w>
व्यभि चार</w>
वि ध्व
टि यम</w>
F A</w>
वि शुद्ध</w>
डी ओ
च्छ े
कि स्त</w>
भड़ काने</w>
न ु</w>
टा इल</w>
जिम्मे द
ग़ै रह</w>
कन् वेंशन</w>
आर एल</w>
सांत्व ना</w>
धी श</w>
झु ंड</w>
क्र य</w>
अधि रो
मोह लत</w>
मो दी
परी क्षा
दुष्य ंत</w>
तस वीर</w>
ठे स</w>
है रिस</w>
मी ना
दी वानी</w>
दि ला</w>
टू थ</w>
गिर वी</w>
सब र्ग</w>
मन माने</w>
बहादु री</w>
निभा एंगे</w>
दो सांझ</w>
ड्रो म</w>
चु पके</w>
उठा एं</w>
अ हिंसा</w>
स्वा धीनता</w>
शार दा</w>
द स्
ड से</w>
जो नास</w>
चो कसी</w>
उच्च ारण</w>
अन देखा</w>
अ स्वीकार्य</w>
स्था ना
सि क्का</w>
मुबार क</w>
मु हिम</w>
बे थ</w>
ब ती</w>
ज्जु ब</w>
N RC</w>
स ्र
ब्रह्मा स्त्र</w>
बे किस्तान</w>
प्रक टीकरण</w>
पी ना</w>
दा ँ
00 0
हिफा ज़त</w>
सें टी
राज भाषा</w>
एह काम</w>
17 ,
हु ओं</w>
संपा दन</w>
पीएस ई</w>
नी ंबू</w>
निकट ता</w>
नर सिम्
ज म</w>
को णीय</w>
के ला</w>
अ रेस्ट</w>
w or
हड् डियों</w>
सं भ
लि ए
पर ता</w>
प क्के</w>
नक्स ली</w>
दीन दयाल</w>
अर् हता</w>
अ सा
सै टेलाइट</w>
रजि स्ट्री</w>
मूर् तियों</w>
मि टाने</w>
भूमि काएं</w>
निपट ना</w>
उठा एंगे</w>
इं स्ट्र
से फ्टी</w>
ले खि
म्यू जियम</w>
बॉ य</w>
पो प</w>
नी तू</w>
दा वरी</w>
काठ मांड
व डोदरा</w>
राइ फ
बस ु</w>
दे नेवाले</w>
त्रा सदी</w>
चा हो</w>
गुर् जर</w>
1, 4
सस्पे ंड</w>
रो ज़े</w>
राधा कृष्णन</w>
र चने</w>
पॉपु लर</w>
अपरि वर्त
er v
T a
शिका गो</w>
पे स्ट</w>
ट्रै किंग</w>
चाहि एः</w>
उ ड</w>
ic s</w>
होट लों</w>
सिक् के</w>
म लि
ड्र ॉ</w>
गो दाम</w>
शॉ पिंग</w>
वे रि
मे हर</w>
म दुर
फ ट</w>
डी एस
अ ग्रे
g e</w>
3 000</w>
दू ँ</w>
ठ ्
को टे</w>
कार् बो
समू द</w>
शत्रु ओं</w>
प्रॉपर् टी</w>
प्रचार कों</w>
पा एँ</w>
तीर्थ यात्रियों</w>
खा ए</w>
क जा
h e
सोम नाथ</w>
फैक् टरी</w>
पो लि
प ल्स</w>
द ंगे</w>
खे लेंगे</w>
1, 6
बैक्टी रिया</w>
प्रा तः</w>
नी ल
नज रिया</w>
च ्यू
ग् ले
उ तारी</w>
हमी रपुर</w>
संके तक</w>
वि दर्भ</w>
बै ल</w>
प्रबं धित</w>
कथा ओं</w>
अ सुविधा</w>
Ne w</w>
ह् न</w>
हा य</w>
स् कि
बृहस्प तिवार</w>
बा ती</w>
ब खूबी</w>
ग ड्
उ बर
७ ः</w>
स्थि तियां</w>
स शक्
वर् तक</w>
ले नदार</w>
बे टियाँ</w>
द ड़</w>
जीवन शैली</w>
अला र्म</w>
अ संतोष</w>
ंद ना</w>
वे द
म् भिक</w>
मू वमेंट</w>
बि नती</w>
फोटो ः</w>
द्धा ओं</w>
गा इड</w>
एम्बु लेंस</w>
सिंघ वी</w>
शर ारत</w>
य ्य
द शह
चुंब कीय</w>
उ र्जा</w>
हि च
भू पेश</w>
तर् कों</w>
जो नल</w>
छत्र पति</w>
कै री</w>
il l</w>
सह ार
शु गर</w>
वै गन</w>
मुर ली
बन ो</w>
न क़
जे नरे
आ बे</w>
हाइ ब्रिड</w>
बाद ः</w>
पट् टा</w>
विश्वास योग्य</w>
वि निवेश</w>
फे ज</w>
फी सद</w>
नाइ जेशन</w>
अ धर्म</w>
B ig
ह क़ी
सा त्मक</w>
सं चरण</w>
लौ टकर</w>
रे ख
धारा वाहिक</w>
डायरे क्शन</w>
टूरि ज्म</w>
गठ जोड़</w>
हि सार</w>
मा थुर</w>
बे बी</w>
धार् मिकता</w>
जान लेवा</w>
सा बु
फि क्स</w>
फार सी</w>
नाराय ण
न ह
थिये टर</w>
जि ंदर</w>
10 6</w>
सौहार् दपूर्ण</w>
सं पर्
स फा
वाई एसआर</w>
मि ग</w>
मान स</w>
बर् थ</w>
प्रशा सकों</w>
तौ रेत</w>
जै कलीन</w>
घ मंड</w>
को ट
क नी</w>
क टा
प ारा
ने तन्या
धू मल</w>
घि रे</w>
w it
से ठ</w>
सं गी</w>
बेव कू
बं दो
पृथ् वी
पु त्रों</w>
ड़ ता</w>
जी आर</w>
जा ऊंगा</w>
ज ली</w>
गवर् नमेंट</w>
क्रै श</w>
इता अत</w>
em ent</w>
समझ ो</w>
री ढ़</w>
नी लम</w>
ना त</w>
खु ल्ला</w>
ख ले</w>
क्लि प</w>
ार ू
र् षि</w>
य क्
न्याय पूर्ण</w>
धूम धाम</w>
a w
ल य
मे हुल</w>
ब गा
न्यू टन</w>
तो ड़कर</w>
त फरी</w>
उ ग्र</w>
ran s
ct ion</w>
सुंद रता</w>
लो केश</w>
रच नाओं</w>
बा ली</w>
एल वी</w>
एथले टिक्स</w>
उज्ज् वल</w>
ं शु</w>
सी ताराम</w>
मूल तः</w>
फ ैं
घोषणा ओं</w>
के सी</w>
आ राम
ar i</w>
व्य ू
लु रु</w>
प्रमाण ीकरण</w>
परिस्थिति जन्य</w>
जै केट</w>
जब र्
च रिंग</w>
कुवै त</w>
सुपर हिट</w>
र् ग
भा ड़</w>
फाइ नें
ने त्र</w>
कॉ पीराइट</w>
इब रत</w>
अजिं क्य</w>
साझी दार</w>
मुश रे
करू ंगी</w>
स वे</w>
शु ल्
शि याई</w>
लोकार् पण</w>
र जा</w>
फ् लाइ
तेज स</w>
घे रा</w>
क्वाली फाई</w>
केवी आईसी</w>
कम रा</w>
क हूंगा</w>
आईएफ एफआई</w>
ि ा
विजय वर्गीय</w>
य र्ड</w>
भु ज</w>
बु श</w>
थ ्य</w>
कम्प ्यू
श्व सन</w>
वर् ण</w>
परहे ज</w>
न म
द बि
ता ला</w>
en s
स्प ष्टता</w>
शि ए
वि किरण</w>
पॉ इंट</w>
जी रा</w>
s c</w>
सा ल्
शी त</w>
मह तो</w>
बिता या</w>
नेतन्या हू</w>
गी गा
काबि ज</w>
ह व्वा</w>
सेके ंडरी</w>
श शांक</w>
वन्य जीव</w>
पहुँचा ने</w>
पहा ड़ियों</w>
पर वेज</w>
नाई क</w>
दि वाला</w>
जी एसटी
कब् र</w>
सं स्थापित</w>
विष य
वा पिस</w>
रो मी</w>
रि की</w>
ट नः</w>
चतु र्थी</w>
कार्य प्रणाली</w>
उज् जैन</w>
अनुशं सा</w>
स् पो
लु भा
महा भि
त्यो हारों</w>
चंद्र ा</w>
अट कल
m a
हा स्य</w>
मो ह</w>
पा एगी</w>
न्यू यार्क</w>
दि ता</w>
टै ब</w>
छुट् टियां</w>
चौ कसी</w>
घु मा
फते ह
प्रशं सनीय</w>
नि ब
डी टी
अलगाव वादी</w>
अफ़ ्री
सफ दर
प्रार्थ नाओं</w>
प्रदू षित</w>
डी वी
गलिय ारा</w>
क मियों</w>
25 6</w>
४ ०</w>
लेखि का</w>
मो इ
मा तृ</w>
मले रिया</w>
ब ग़ैर</w>
प्रस्तु तिकरण</w>
डिस् काउंट</w>
जाव डेकर</w>
को टि</w>
कस् बे</w>
स् कों</w>
सी ता
वि पत्ति</w>
वा लिया</w>
राज ौरी</w>
रा तों</w>
भिड़ ंत</w>
प्रभा कर</w>
पहचा ने</w>
दाखि ला</w>
दरवा ज़े</w>
खा कर</w>
कब् ज़ा</w>
एड वाइ
आइ ये</w>
बा ब</w>
छ ेद</w>
खटख टाया</w>
यो द्धाओं</w>
धमा का</w>
C W
सार णी</w>
व ग़ैरह</w>
गर् म
अंग्रे ज</w>
5 9
40 ,000</w>
ले वी</w>
मेहर बानी</w>
दर् स</w>
क ली</w>
उठा एगा</w>
इ ताल
आई आई
अभि भाषण</w>
C r
19 ,
वाकि फ</w>
ला त</w>
ल यन</w>
में टल</w>
मे ड</w>
मे टा
बता एं</w>
प्रेसि डेंट</w>
स्को प</w>
व्या प
ले टेस्ट</w>
मॉ नि
तुल नात्मक</w>
अन न्य</w>
अक्ष रों</w>
रो हन</w>
मै दानी</w>
पाय ल
ती यक</w>
डायबि टीज</w>
टी सीएस</w>
कैपि टल्स</w>
k et</w>
विश्व कप</w>
मे य</w>
बोर् डों</w>
प ण
ति रू
ता लीम</w>
तत् परता</w>
डी जी</w>
क्र ू</w>
कि सकी</w>
ऊँ चाई</w>
असे ंबली</w>
अनुया यी</w>
अग् नि
ar e</w>
हु यी</w>
स्वा मी
से क्सी</w>
श्री नि
वा क</w>
मह ंगी</w>
5 8
व्य तीत</w>
लो गे</w>
प् लै
ता ज्जुब</w>
क़ समें</w>
एक साथ</w>
अर् जन</w>
अन गि
ं जय</w>
से गमेंट</w>
सब ब</w>
प्रा योगिक</w>
ता ने</w>
इलेक्ट्रि कल</w>
आरसी बी</w>
लु रू</w>
रा खी</w>
मो नो
मूर् ख</w>
नि हाल</w>
ख ला</w>
के र
आंग नवाड़ी</w>
विश्ले षक</w>
मो हि
मि त्त</w>
भी म
नाट कीय</w>
जी ः</w>
गल तफ
खि ये</w>
कट्टर पंथी</w>
R O
वै चारिक</w>
व ंदे</w>
मु ंडे</w>
पाठ कों</w>
नाम करण</w>
दि ली</w>
जह री
खींच ा</w>
अभ यार
अन् जाम</w>
m e
प्रे शन</w>
द वाइ
ए लियों</w>
उत्ते जित</w>
आर् टिफि
सें जर</w>
परि वी
ताज महल</w>
सैं पल</w>
य ंत्र
मुशरे कीन</w>
मर् डर</w>
बं दर</w>
नि धियों</w>
त्रि वेदी</w>
ढे रों</w>
ट्र कों</w>
कं ट्री</w>
अ काल</w>
ब्रह् म</w>
बु ढ़ा
फॉ रेंसिक</w>
पार ियों</w>
पवि त्रता</w>
इ र्द</w>
अधिकार िक</w>
C H
स वाई</w>
वि यर</w>
वरि श</w>
लगा यी</w>
राष्ट्र व्यापी</w>
फ् लॉ
IN D</w>
F C</w>
२ ६</w>
सूर ती</w>
सम वर्ती</w>
वे ंचर</w>
रेलगा ड़ी</w>
य ्या</w>
भर कर</w>
पो शाक</w>
क क्षों</w>
14 5</w>
12 2</w>
पो लियो</w>
गि लानी</w>
कु पोषण</w>
आठ वें</w>
लॉ गिन</w>
बचा ए</w>
प्रति ब
पर वरिश</w>
त न्य</w>
टी शन</w>
टि कल्स</w>
छ पाक</w>
कुल कर्णी</w>
कमि टी</w>
in ter
196 7</w>
13 5</w>
सर् कल</w>
प्र चालन</w>
निर न्तर</w>
त फ्
का टा</w>
सा गर
समझ ती</w>
वीर भद्र</w>
मू एल</w>
मंगो लिया</w>
बीका नेर</w>
परि धान</w>
ना ता</w>
द स्ते</w>
द फा</w>
जि म्मा</w>
उड़ा ने</w>
अनो खा</w>
ari able</w>
सा थि
शौ क</w>
वांछ नीय</w>
म वर्क</w>
बा गेश्वर</w>
चि ली</w>
चि त्
og le</w>
10 7</w>
सिग् नल</w>
मुजफ्फर नगर</w>
फैस ल</w>
देश द्रोह</w>
जा म्
X X
हटा कर</w>
सत्य ता</w>
लो हिया</w>
म ारि
भर ना</w>
पू रब</w>
कला त्मक</w>
आन्दो लन</w>
अ रि
B oss</w>
37 6</w>
मि लाने</w>
प्रति स्थापन</w>
पी डीएफ</w>
पा चन</w>
नो स</w>
नी र</w>
c t</w>
सि फ़
साध् वी</w>
सं विदा
व ई</w>
म् परिक</w>
बीमा कर्ता</w>
बि यन</w>
बढ़ ेंगे</w>
डॉ क्यू
गु टों</w>
कांग ड़ा</w>
S R
20 24</w>
196 6</w>
भाई यों</w>
पहुंच ते</w>
नेट िक</w>
एथली टों</w>
आकां क्षा</w>
स्ता ना</w>
लि प्तता</w>
महफू ज़</w>
फेर बदल</w>
फर् श</w>
धा त्मक</w>
गो दावरी</w>
क़ब् ल</w>
क लेट</w>
एन एम
अरू णाचल</w>
अदा य
ec t</w>
ष ें</w>
व ले</w>
एक्स ट</w>
ंक ः</w>
is h
ह नन</w>
स्टी वन</w>
वा त</w>
म ख़
ब्लॉ ग</w>
चौकी दार</w>
चट् टा
अशर फ</w>
S p
1, 7
शा द</w>
लट का</w>
मान द</w>
नाय ें</w>
दू ं</w>
ढूंढ ने</w>
च लाता</w>
गुर मीत</w>
उत् तेज
ब्लू टूथ</w>
ब त्रा</w>
पांच वां</w>
परामर्श दाता</w>
त नों</w>
ढ़ ने</w>
जि म्बाब्वे</w>
करवा कर</w>
एजे ंटों</w>
बो त
ना फर
ड़ि याँ</w>
यु ग्
बांग्ला देशी</w>
दर गाह</w>
एल एन
196 9</w>
२० ०</w>
व्ही ल</w>
बे ड़े</w>
टैं कर</w>
चौ ड़ा</w>
एयर क्राफ्ट</w>
val ue</w>
i pur</w>
Big g</w>
व्य ता</w>
मसा ला</w>
द ह</w>
कि याँ</w>
उ ठी</w>
अव साद</w>
lo c
हाइ ड्रे
य रिंग</w>
भाष णों</w>
परिपक् व</w>
डि मांड</w>
क्वार ंटाइन</w>
कार् टू
एल टी</w>
इ ने
आं की</w>
सौ ते
ना ईं</w>
द बद
कम ्यू
क टक</w>
एम एम
इ ना
योगा त्मक</w>
यू एन</w>
प्राधि कारियों</w>
दोष पूर्ण</w>
ताल् लुक</w>
डा टाबेस</w>
छ ठा</w>
च ंदन</w>
गर्म जोशी</w>
कसौ टी</w>
करवा ना</w>
ईमान वाले</w>
1. 2</w>
होम्यो पैथी</w>
स्टी फन</w>
सु ने</w>
रे टर</w>
मह ंगे</w>
ब गी
नि जा
ज्वा ला
खे ल
क ्</w>
एमबी बीएस</w>
6 ,000</w>
हा ने</w>
स्कॉ ट</w>
सै र</w>
सिद् धार
रिचर् डसन</w>
मॉड लों</w>
प्राय द्वीप</w>
पंचा ट</w>
तस बीह</w>
त नत</w>
छु आ</w>
इताल वी</w>
I S</w>
सी जे
मज़ दूरी</w>
नि देश</w>
डकै ती</w>
के शंस</w>
ऑपरे टिव</w>
U S
1, 8
विवे चना</w>
बॉलि वुड</w>
जा लंधर</w>
ग्यार ह</w>
खनि जों</w>
कस् बों</w>
मह र्षि</w>
प्रदर् श
टि ंग्स</w>
कुफ् फार</w>
अर शद</w>
अ कार
0. 5</w>
र ची</w>
य करण</w>
माम ा</w>
प्र बन्ध</w>
नॉ ट</w>
आईसी एआर</w>
सं स</w>
वी करण</w>
भ्र मित</w>
भा इ
बू ती</w>
ठ ियों</w>
चि रा
सुख बीर</w>
विश्ले षकों</w>
लर् निंग</w>
बैठ ते</w>
पे न
पर्य वेक्षण</w>
खुल् लम</w>
क्ष ो
उ प्र</w>
अप ि
6 7
समझ ें</w>
वा क़
नि सान</w>
ना ना
गुला ब</w>
ऑप् टिकल</w>
a z
सफदर जंग</w>
लग ेंगे</w>
नी ः</w>
दा ह</w>
कै मि
६ ०</w>
श हर
वा दक</w>
रा वण</w>
यू आईडी
भाषा एं</w>
फर्नी चर</w>
प्रा इस</w>
ध् दि</w>
दे ल</w>
जोड़ ते</w>
चा हू
घट ा</w>
ऋ तु</w>
उ तारे</w>
इजरा इल</w>
इं स्टि
आठ वीं</w>
मेह मानों</w>
भा गे</w>
पड़ ा
जाए ँगें</w>
ख ली
आ कृति</w>
हे गड़े</w>
सुंद र
सहार नपुर</w>
सबरी माला</w>
महाभि योग</w>
फिल्म फेयर</w>
ण ्य
ट ीय</w>
जा ट</w>
केन्द्र शासित</w>
एटी एस</w>
1 15
हु र
कै ब</w>
ए त
2 2,
स उ
मर ज़ी</w>
ब चे
पला यन</w>
ध रन</w>
तत् त्व</w>
कम ज़ो
एच एएल</w>
अ ज्र</w>
U P
सशक् तीकरण</w>
स लू
रु कता</w>
रजि स्ट
मर् ग</w>
पद्मा वत</w>
तफ् तीश</w>
करा ये</w>
M ar
I n</w>
सिद्धार मैया</w>
विश्वास घात</w>
फाइनें शियल</w>
पैके जिंग</w>
पा एं</w>
दुर् बलता</w>
चरण बद्ध</w>
क्यू टिव</w>
र ि</w>
या मी</w>
फे क्ट</w>
न कर्ता</w>
थ कान</w>
छि पाने</w>
ए लन</w>
आस ाराम</w>
आर्कि टेक्
अव रुद्ध</w>
अ जन
स्ट्र ॉल</w>
सं कोच</w>
शि म
विजय वाड़ा</w>
मुक्के बाजी</w>
मा ण</w>
बज रंग</w>
बचा ना</w>
परहेज़ गारों</w>
पं ख</w>
चार् टर</w>
कु शा
इन् फ्रास्ट्रक्चर</w>
आनुवं शिक</w>
आ शि
सुपुर् द</w>
मो हाली</w>
बे सिन</w>
बा ंद्रा</w>
फॉ क्स</w>
डू बने</w>
चाह ने</w>
गुना ह
क्ला र्क</w>
कम ला</w>
V I</w>
सरी ही</w>
रख ेगी</w>
ढा ल</w>
डी सीपी</w>
गे स्ट</w>
आपूर्ति कर्ता</w>
ि द्ध</w>
श्रीलं काई</w>
वाक़ि फ़</w>
र मा</w>
बी एच
ऊ तक</w>
अं बाला</w>
p art
हो नेवाले</w>
सुरक्षा कर्मियों</w>
स वीं</w>
ग श्त</w>
ओप नर</w>
अपो जिट</w>
अदाय गी</w>
अंदा जा</w>
अ शांति</w>
.0 5</w>
रो बोट</w>
ग्रैं ड
इंटर फेस</w>
N W</w>
JN U</w>
10 3</w>
शोध कर्ता</w>
रख नेवाले</w>
मी डिया
बि स्
पा वर
नवान् वेषण</w>
न फ़
डिब् बे</w>
कै टे
कि ं
कार्या त्मक</w>
ए काउंट</w>
u n</w>
स्प ष्ट
स्टा लिन</w>
वे ने
रंग ीन</w>
निंद नीय</w>
I D
३ १</w>
व्युत् पन्न</w>
बा बू
नि जात</w>
टु क
छ े</w>
एक्सप्रे सवे</w>
श मूएल</w>
मै क्सिको</w>
मिनि स्टर</w>
मशी लता</w>
मना ली</w>
नि न्दा</w>
ख ारी</w>
ओ स</w>
उठा ता</w>
स्ट्र िया</w>
रख नेवालों</w>
ब्लॉ कों</w>
बी एमसी</w>
नो म</w>
णा धीन</w>
गह ने</w>
कॉ प्
ओप निंग</w>
अंदा ज़</w>
यश वंत</w>
भो गी</w>
बन वाया</w>
परा ली</w>
उप नगरीय</w>
उच्चा योग</w>
हॉ स्टल</w>
मी ना</w>
मास्ट र्स</w>
भ्रू ण</w>
फ कार</w>
ख जाने</w>
o ut
हिन् द</w>
वा न्वित</w>
पत् ते</w>
न्यौ ता</w>
ह ण</w>
रघु राम</w>
प्र ज्
चे तेश्वर</w>
च लेगी</w>
कवि ताओं</w>
आ नेवाली</w>
या पन</w>
दी पा</w>
था इ
ए श्
अर बों</w>
अं धा
सं लिप्तता</w>
भाग लपुर</w>
पार म्परिक</w>
पट्ट नम</w>
P O</w>
सं दाय</w>
मा ताओं</w>
भा ं
बो पन्ना</w>
डि स्ट्रि
ज लन</w>
क ठु
एह तियात</w>
सी एफ
रोहि ंग्
रु कावट</w>
मेल बर्न</w>
ता ना</w>
ग्रं थों</w>
गणि तीय</w>
अदि ति</w>
7 :
से नानी</w>
श्र ृंख
फेफ ड़ों</w>
फि जिकल</w>
थेरे पी</w>
त्रि वे
आं का</w>
196 8</w>
1, 9
टू टने</w>
ग्रे नेड</w>
अ नियंत्रित</w>
l y</w>
सर्वो परि</w>
लु ढ़
महे न्द्र</w>
मज लिस</w>
ब्रॉड बैंड</w>
बंग लादेश</w>
कस्ट म</w>
एग् जा
सं ख्य
श बाना</w>
विश्व नाथ</w>
मर् सि
बा इन</w>
पृथ्वी राज</w>
कै रे
एवि एशन</w>
महा मंत्री</w>
बै र</w>
फ़िल् मों</w>
द ंगा</w>
चै तन्य</w>
खो ई</w>
ए जी</w>
अ न्न</w>
सी पीएसई</w>
सा पेक्ष</w>
दस वीं</w>
डि यर</w>
ज नित</w>
खो लें</w>
gar h</w>
शिंग टनः</w>
मुद् दीन</w>
मी णा</w>
बं ध
ब स्
प्रशिक्ष ु</w>
कंड क्टर</w>
उ भार
अंग ु
रै लियों</w>
बि रा
बता इए</w>
तार ें</w>
त क़
डि पो</w>
जो रों</w>
आई ओसी</w>
हर सिम
लो हा</w>
र शीद</w>
ना फ़र
दा मन</w>
ज ड़ा</w>
क न्या
आभा सी</w>
हल् दी</w>
सम् भावना</w>
सम ता</w>
शिशु ओं</w>
यू रे
मालि काना</w>
ने ल्
चर वा
ऊँ चा</w>
अर् द्ध
मो टिव</w>
भी तरी</w>
डें टल</w>
ड स</w>
जु लूस</w>
B ha
सर दारों</w>
सं धू</w>
वॉ ल्यूम</w>
लैं ड्स</w>
भाव पूर्ण</w>
बा लन</w>
प्य ारी</w>
दा गे</w>
डि यां</w>
को लंब
कर ियों</w>
क ठ
g y</w>
ac t
व त्</w>
रस् सी</w>
यो चित</w>
यू निय
मार ते</w>
फ़ाय दा</w>
दोहरा ई</w>
चे न्न
कठु आ</w>
आहू जा</w>
आधि पत्य</w>
अ स्थाई</w>
N O</w>
२०१ ५</w>
ू ल</w>
फा ल्
तर जी
छ ड़ी</w>
घट ने</w>
क टे</w>
एस बी
आईटी बीपी</w>
अन जान</w>
Go ogle</w>
1, 3
समा धानों</w>
ला पुर</w>
दा ग</w>
डि पॉजि
चैंपि यंस</w>
अनगि नत</w>
अध्य क्षों</w>
en c
सॉलि सिटर</w>
मैन चेस्टर</w>
बुल ंद
फ़ र्
प ना</w>
डिब् बों</w>
जमशे दपुर</w>
जन् मे</w>
कश्मी रियों</w>
उल्लेख ित</w>
अधि वक्ताओं</w>
ंब े</w>
हि म
हत्य ारों</w>
स्पर् श</w>
रोहिंग् या</w>
रो ग
रं दा
मनो बल</w>
भि जवा
फं डिंग</w>
धमा केदार</w>
झ ल
गु म
अति थियों</w>
k h
M od
संप्र ग</w>
रै पिड</w>
परिष दों</w>
खूब सूरती</w>
कीटना शक</w>
कार्य स्थल</w>
उद्य मशीलता</w>
m od
व्लादि मीर</w>
परहेज़ गारी</w>
को चों</w>
अ ज्ञा
सेलि ब्रे
सा ल
ष्ट िक</w>
रो नाल्
या बीन</w>
मो ती
तत् पर</w>
जा किर</w>
ज घ
क़ू ब</w>
ul t
o un
सुना मी</w>
सत्य पाल</w>
वाय नाड</w>
न दियां</w>
द कर</w>
ठ ह
गौर वान्वित</w>
कॉम् प्लेक्स</w>
इश ारे</w>
सा ठ</w>
स हिष्णुता</w>
यूआईडी एआई</w>
अर्थ ों</w>
अ नियमित</w>
लु ईस</w>
यू थ</w>
मसी हा</w>
फे मस</w>
दा विद</w>
त ल्
गि रे</w>
खा ं</w>
एड वांस</w>
इ कलौ
आ फ
v el
Ra j
C E
ल् लत</w>
या क़ूब</w>
मान ंद</w>
ब हा</w>
नि गाह</w>
उद्देश ्य
आ सन</w>
S a
प्रवा हित</w>
पायल टों</w>
ध्या न
दूर दराज</w>
दबि श</w>
क्ष ु
अ संतुष्ट</w>
हो इए</w>
सि खा</w>
मा ई
निप ट</w>
द ंगल</w>
थ ्रि
ग ने</w>
किन ारों</w>
कश्मी रः</w>
inf o</w>
C C</w>
सं कु
लॉजि स्टिक्स</w>
रि मोट</w>
फाइ लों</w>
पी ले</w>
इ शांत</w>
पाँ व</w>
पा त्रों</w>
पशु धन</w>
ज त्
क णों</w>
एसोसि एट</w>
M P
15 1</w>
.0 9</w>
सो न
सुर् खियां</w>
संप्र दाय</w>
सं चित</w>
विन म्र</w>
लाभ प्रद</w>
मोमि नों</w>
भ े</w>
बा ई
ब च्
दु बारा</w>
जे ंट</w>
आ ं</w>
हरसिम रत</w>
सं ज्ञेय</w>
श्री मान</w>
वि स्थापित</w>
मुद्र ित</w>
बर ती</w>
प्ले न</w>
पीओ के</w>
तस वी
ट्र ू
वि का</w>
पा टनी</w>
डि नर</w>
चु कता</w>
गिर जा
ग म
एसोसि ए
एस एच
एमसी जी</w>
एना लि
शि ष्यों</w>
मिल ें</w>
नव दीप</w>
ड़ ी
टे गा</w>
उन् मुख</w>
आरोप पत्र</w>
आ क्
ol l
e e</w>
हि लेरी</w>
वं शा
या ंग</w>
फा नी</w>
प्रति पूर्ति</w>
एके डमी</w>
मंत्रि परिषद</w>
फ्रे मवर्क</w>
दे वा</w>
जाय ज़</w>
कम लेश</w>
एफ सीआई</w>
उप ग्रहों</w>
सिं ड्रोम</w>
श्रेणी ः
वि चित्र</w>
मार् जिन</w>
बे स्ड</w>
न डाल</w>
दा दाओं</w>
जल स्तर</w>
के केआर</w>
करे ंसी</w>
क क्कड़</w>
19 49</w>
हत्य ारे</w>
व संत</w>
बो लियां</w>
बुज़ु र्ग</w>
पों टिंग</w>
जघ न्य</w>
गो लियों</w>
भ द्र
तहरी क</w>
डर र</w>
19 08</w>
स्टॉ ल</w>
युक् ति
बुलंद शहर</w>
प्रैक् टिस</w>
पनडुब् बी</w>
अँग्रे ज़ी</w>
ंग ो
ु ण</w>
स् फो
स घन</w>
भू जल</w>
बो इंग</w>
प्रस्ता वना</w>
पो तों</w>
जाय सवाल</w>
ग्रो थ</w>
खो री</w>
कै रो
ं ट्स</w>
t is
ग्रेजु एशन</w>
कृत ज्ञ</w>
कुल् लू</w>
कु छ
ओ सा
एआईसी टीई</w>
अन् न
u l</w>
म रो
भ्या स</w>
प्रभाव कारी</w>
पीडि़ ता</w>
द ही</w>
त बा</w>
जटि लता</w>
अ नीता</w>
स्मार कों</w>
मह ंत</w>
ब डा</w>
पार ण</w>
निका स</w>
निका लते</w>
जल कर</w>
चा ंद
को ल्ड</w>
केमि कल</w>
उज् ज
आ बाद</w>
बहा ना</w>
पै क्ट</w>
ना ज</w>
द्र व्य
गा यों</w>
कि सका</w>
E l
स् काई</w>
सो लं
सु म</w>
सरो वर</w>
फू ँ
अनुसं धान
im e</w>
सा लेह</w>
सद ी
शि खा</w>
राष्ट्र पिता</w>
मै री
पा बन्दी</w>
नर मी</w>
धु न</w>
13 8</w>
1 18</w>
1 17</w>
सर्व प्रथम</w>
सं भोग</w>
मानव जाति</w>
भय भीत</w>
न्या सी</w>
गु हा</w>
गि फ्ट</w>
खो ने</w>
का वेरी</w>
उखा ड़</w>
ई ंट</w>
शि र्क</w>
वर् दी</w>
बा तिल</w>
करे गें</w>
अभि व्यक्त</w>
अनु बंधों</w>
अंतर् देशीय</w>
सु धा
साय ना</w>
रि डा</w>
यू नी
बना नी</w>
डि ग</w>
जो गी</w>
जबर दस्ती</w>
ईएस आईसी</w>
आर्टिफि शियल</w>
P O
30 4</w>
हल चल</w>
संत प्त</w>
वृ ति</w>
व ंदना</w>
दिशा ओं</w>
कर ंट</w>
D I</w>
18 2</w>
सन् दर्भ</w>
वर दान</w>
व ध</w>
दरा र</w>
or y</w>
6 9
साह सी</w>
साइ कि
ष् टा</w>
शासन काल</w>
फिक् सिंग</w>
परहेज़ गार</w>
नि मित्त</w>
झे लनी</w>
ओ ला
उद्योग पति</w>
आति थ्य</w>
सो याबीन</w>
ष्ट मी</w>
व्यव सायिक</w>
मु ल</w>
म ते</w>
पी ड
आनन् दित</w>
अफ़ सोस</w>
A No</w>
संस् करणों</w>
रवी न्द्रनाथ</w>
बि स्तरों</w>
फ् लोर</w>
फर् नां
पीठा सीन</w>
ट नर</w>
खींच ने</w>
ंग री</w>
K han</w>
रे पो</w>
मा र्ट</w>
मस्जि दों</w>
फे री</w>
फ़र मा
अव रोध</w>
अभयार ण्य</w>
अ सम
वि भेद</w>
रो ज़ा</w>
पे स</w>
ट नों</w>
खान पान</w>
कि नार</w>
ई मानी</w>
अ मीन</w>
स जा
नी ना</w>
चे यर</w>
च चे
गी ः</w>
खा नी</w>
के विन</w>
ई शांत</w>
सं भाग</w>
विवेक पूर्ण</w>
र बा
मॉ रि
मिले ंगी</w>
दि खी</w>
तू ल</w>
ओम प्रकाश</w>
उ द</w>
सी वेज</w>
ब ड
फिर ौती</w>
प्ला ज्
नॉर् वे</w>
गा था</w>
i v</w>
रौ शनी</w>
रिया द</w>
म दार</w>
तिल हन</w>
टि की</w>
अफ़ ग़ा
2 40</w>
सोलं की</w>
सम् मुख</w>
शिरो मणि</w>
वि की</w>
म ध्या
बी जों</w>
निकल ना</w>
डि श</w>
कु रु
U P</w>
हज ारे</w>
स्वी कारो
स्व रुप</w>
प्प ड़</w>
प ्यू
क सर</w>
उप द्र
उतर ा</w>
अनू ठी</w>
अटकल ें</w>
ंडी ज</w>
er n
I L</w>
हो प</w>
शि प
वा सों</w>
बेंग लू
बु लाते</w>
पर् य</w>
नि बंध</w>
धी मा</w>
देश ः</w>
दया लु</w>
ङ ्
ग ंदगी</w>
उ मंग</w>
आशी षें</w>
आर् चर</w>
रंग मंच</w>
मं जू</w>
ने वि
जे ईई</w>
कि श्
इ मो
आईएन एक्स</w>
सूक्ष् म
वि कि
लि ना</w>
मीना क्षी</w>
परि संपत्ति</w>
छोड़ ते</w>
च ें</w>
e y</w>
रू ए</w>
राइफ ल्स</w>
मरा ठा</w>
फे म</w>
प्रवि ष्ट</w>
त्रुटि ः</w>
तु कों</w>
जा ब</w>
ए डी</w>
उप न्या
ंप िक</w>
for m
सर् कुलर</w>
वा स
यथा र्थ</w>
मि शनों</w>
भविष्य द्व
बी वियों</w>
बी ता</w>
ब क्स</w>
क्यू बे
एम के</w>
do c</w>
स्वर्ग दूतों</w>
सेके ंड</w>
सीओ ए</w>
स वि
व्य थित</w>
यूरो पियन</w>
मौ समी</w>
निपट ारे</w>
डि ंग्स</w>
जे लों</w>
छू ने</w>
ए नी
अपना ते</w>
1 16</w>
सां विधिक</w>
प्रोजे क्ट्स</w>
पत्थ र
करा एं</w>
ए ज</w>
आलो चक</w>
आ नी</w>
अने कों</w>
सौ राष्ट्र</w>
शि ं
प्रक्रिया एं</w>
नमा ज</w>
द्वार का</w>
चि राग</w>
कै म्
कार्य ो</w>
एनडी एमए</w>
व तन</w>
ध निया</w>
ट्वी टर</w>
b h
मू ंग
पूछ ता</w>
नी स</w>
गै ंग</w>
खे लो</w>
आई आईएम</w>
अर वि
A K
सां प</w>
लम् बाई</w>
बे री</w>
बंग लौर</w>
थि यो
त ंगी</w>
ज ड़े</w>
24 ,
हाइड्रो जन</w>
हा ब</w>
वि जि
रा स्तों</w>
भ न</w>
ब्रा वो</w>
फा टक</w>
प्रयोग शालाएं</w>
नि ल</w>
नवी स</w>
अ समर्थ
यहो शू</w>
न न
क निष्ठ</w>
एफ डी</w>
17 4</w>
सिर सा</w>
सज् जन</w>
रेस् क्यू</w>
मर्या दा</w>
पठ न</w>
नु स</w>
नही ंः</w>
दी वाली</w>
दबा या</w>
कोल् हा
रि पब्लिक</w>
पी के</w>
घृ णित</w>
गु ने</w>
A L</w>
195 8</w>
सउ दी</w>
जो ड़ों</w>
जि ज्ञा
आग जनी</w>
स्वि स</w>
व्यं जन</w>
व जी
ब्ले यर</w>
बा दलों</w>
फ़ि र</w>
पौ ष्टिक</w>
पा लों</w>
पख वाड़े</w>
तात् पर्य</w>
त प
डी वाई</w>
कृ ष्ट</w>
कुश वाहा</w>
एल एफ</w>
इस्रा इल</w>
हि रानी</w>
स्त ो
साथि यो</w>
मे टल</w>
प्रक्रिया त्मक</w>
पर दे</w>
सा ए</w>
वु हान</w>
विदा ई</w>
र सेल</w>
फ्रै क्चर</w>
फि क्र</w>
प्ले सिस</w>
पी बी</w>
जा सूस</w>
गु ड़</w>
काउ ंस
d ic
स्वायत् तता</w>
सो चे</w>
रिटा यर</w>
बू ढ़े</w>
परि कल्पित</w>
जस्टि न</w>
क ड़ा
ए मी</w>
अल्प कालिक</w>
स्वीकारो क्ति</w>
ष्ट ों</w>
रूप ण</w>
मुसी ब
परम्परा गत</w>
दरख् त</w>
तालु का</w>
ट्रा फी</w>
झु काव</w>
चे हरों</w>
घु ड़
को र
कु एं</w>
एड वां
अभि ला
at h</w>
at es</w>
से ब</w>
सी एमडी</w>
शुभार म्भ</w>
व ही
राजनीति ज्ञ</w>
ब्र ों</w>
पु रोहित</w>
थे ः</w>
जू झ
घ मा
की र</w>
अ मृत</w>
I O
2 20</w>
बु द्दीन</w>
पा ण्
च खो</w>
कोले स्ट्रॉल</w>
कोंक ण</w>
की ल</w>
ई ई
अं चल</w>
स्टे न</w>
शिव म</w>
वा ष्
लि प</w>
बे स
च मत्
रो इन</w>
रा स</w>
मि तों</w>
मंत्रि मण्डल</w>
परिष् कृत</w>
डि टेल</w>
जमान ती</w>
क लेक्शन</w>
ए ख्तेयार</w>
हि ला</w>
वा द्य</w>
व लित</w>
रे न्द्र</w>
मुस् कु
ट् ट
खर् चे</w>
क्रिया ओं</w>
एफ टी
एग्जा मिनेशन</w>
स वे
वै द्य</w>
रु ए</w>
मै ंग
म झ
प्रबंध कों</w>
थे नॉल</w>
ट्रे ंड</w>
जा र्
ज म्
कु ंड
उप द्रव</w>
अंत रा
8 :
सू डान</w>
श्रीनि वासन</w>
लो शिप</w>
यूनि टी</w>
मो स्ट</w>
मि त्र
बा ंट</w>
ध ना</w>
गाय कवा
अभि वादन</w>
मि स्त्री</w>
परफॉर् मेंस</w>
दि लाना</w>
थ ्रो
तार ो
त ख्त</w>
क आउट</w>
ऑक्स फोर्ड</w>
ऊंचा इयों</w>
इंटी रियर</w>
आज़ माइश</w>
अ खा
M A</w>
11 वीं</w>
शा प</w>
ल ारा</w>
मोर् गन</w>
ए र्
ऋष ि
आ प्
ंट ीन</w>
शो षित</w>
राज्य ीय</w>
र साय
र च</w>
भाइ यो</w>
पूर्ण तया</w>
एग् जिट</w>
ल हू</w>
नी ला</w>
धर् मा
जि यों</w>
m an
सफ़ र</w>
रे डियो
अर रिया</w>
सुरक्षा कर्मी</w>
साह नी</w>
सा बर
वाइ ट</w>
रि स्पॉ
मशी नें</w>
बुरा इयों</w>
बा सी</w>
फे डरर</w>
इस्ला म
अ मूल्य</w>
at ive</w>
ै त</w>
सू जा</w>
रम जान</w>
र बर</w>
मो बिलिटी</w>
बाध्य ता</w>
प्रजा तियां</w>
पश्चा ताप</w>
ना ग</w>
जा नों</w>
कॉ मेडि
के न
कवि यों</w>
इं जेक्शन</w>
आयु क्तों</w>
p r
il e</w>
शॉर् ट
मो ं
क् लेश</w>
वर्त न</w>
बड़ ाई</w>
द ने</w>
जे हाद</w>
ज़बर दस्ती</w>
गंग वार</w>
का स्टिंग</w>
19 0</w>
13 2</w>
सो ल
रोनाल् डो</w>
ये चुरी</w>
बी टा</w>
खे ड़ा</w>
अर बाज</w>
Ch hat
195 9</w>
सम् मन</w>
माप दंड</w>
बो रिस</w>
पढ़े ः</w>
ज ्य
को रियो
का ली
आँ ख</w>
बुले टिन</w>
फिलि प</w>
तनु श्री</w>
कै डेट</w>
आ दर
सेलि ब्रि
पे शा</w>
पे क्षता</w>
पचा प</w>
थ प्पड़</w>
टेक् नॉ
at ed</w>
D el
2 3,
मो टो
मर ते</w>
बी डी</w>
बगा वत</w>
दि याः</w>
चु पचाप</w>
किन् हीं</w>
कार े</w>
ए फि
इ लैक्
अव स्थित</w>
अ विनाश</w>
C A</w>
6 8
संपाद कीय</w>
लोका युक्त</w>
ल का</w>
रह ी
पर गना</w>
निष िद्ध</w>
देश भक्त</w>
जन पद</w>
ख् तियार</w>
एव ी</w>
ए ट
res s</w>
d ing</w>
12 1</w>
साउ ंड</w>
यू ज</w>
मज़ े</w>
मं जिला</w>
पहुंच ता</w>
ण् डों</w>
क्र ु
i p</w>
मैन्यु फैक्
मूंग फली</w>
बै ट
फ्लै ग</w>
परिपक् वता</w>
न्यू रो
निस् बत</w>
ओ ड़ि
इंजीनिय री</w>
आयोज कों</w>
अपे क्षाओं</w>
WP No</w>
रे डमी</w>
र चित</w>
मां झी</w>
प्रमुख ता</w>
चु ट
री ल</w>
बै ठा
पर् दा</w>
द क्ष</w>
जान कार</w>
घ टिया</w>
कि नारा</w>
इ श</w>
वाई एस</w>
मॉड लिंग</w>
मै दानों</w>
मिल र</w>
प्रवि ष्टि
पटा नी</w>
दे पा</w>
छुट् टियों</w>
कि डनी</w>
अम रा
end ra</w>
वे रिएबल</w>
विशि ष्टता</w>
बो र</w>
एंटर प्राइ
R o
P M
मे हरा</w>
मुना फे</w>
मुजाहि दीन</w>
दो स्ताना</w>
तन् त्र</w>
उप लक्ष्य</w>
आत्म निर्भरता</w>
अनु ज्ञा</w>
ंच े</w>
e b
हर मनप्रीत</w>
पक्ष े</w>
ग्रा मो
ग् गी</w>
गोला बारी</w>
आई आई</w>
सु ष्
वि घटन</w>
मदुर ै</w>
बढ़ा एगा</w>
टि कट
चिकित्सा लय</w>
अ जे
सा दे</w>
विष म</w>
वि भि
राज पक्षे</w>
महारा नी</w>
म वे
बो रे
बी ना</w>
बि म्स
ब स्त</w>
पत्र ा
दे खिये</w>
खा ंसी</w>
इ क्
सी ज़न</w>
ला ये</w>
दबद बा</w>
डाइ ऑक्साइड</w>
ट्र स्टी</w>
जमा या</w>
कं स्ट्र
एल ओसी</w>
एम ए
3 60</w>
सेना नियों</w>
सह ने</w>
मन सुख</w>
प्रया ग</w>
ठ ग्स</w>
क्यो ंकर</w>
श् म</w>
रे गु
फाइ लिंग</w>
दा ख
जु टाए</w>
जला शय</w>
छ ल</w>
खो ली</w>
खा सियत</w>
सा ध</w>
शा किब</w>
श हाद
रे क्
मूर् ख
मिला एं</w>
बिम्स टेक</w>
नि मो
ते ह
क्ष य</w>
ऑफ लाइन</w>
आ टा</w>
अपि तु</w>
अ पार्टमेंट</w>
वेब साइटों</w>
बे बुनियाद</w>
धि याँ</w>
दिख ते</w>
जन शक्ति</w>
क या</w>
उबर ने</w>
आर पीएफ</w>
अज़ी ज़</w>
h o
al l</w>
र वा
बे दार</w>
प्रधान मंत्रियों</w>
प्रति यों</w>
नि शुल्क</w>
नि खिल</w>
डा ल
चर स</w>
ऊ ना</w>
इसरा इल</w>
अ पा
in t
सो नीपत</w>
समा वेशन</w>
संक लित</w>
ते देपा</w>
जाग रुकता</w>
अनुकू लन</w>
a j
T E</w>
I D</w>
हम पर</w>
पड़ा व</w>
ना टकों</w>
को लिन</w>
ऊ न</w>
इज् ज़त</w>
सा जी</w>
विधे यकों</w>
बर कत</w>
प्रोटे क्शन</w>
प्रारू पों</w>
न् सी</w>
घ सी
काफि ले</w>
अर्ध सैनिक</w>
अनु करणीय</w>
अग वा</w>
अ क्ष</w>
196 4</w>
हता श</w>
विच लित</w>
विच लन</w>
मी का</w>
मद र</w>
दिग् ग
च्यु टी</w>
गु ट
के एस</w>
ए ने
आर्किटेक् चर</w>
अस त्य</w>
RS S</w>
D i
स्तं भों</w>
विचार क</w>
रियाय ती</w>
बे ईमानी</w>
फो र्ट</w>
पो लार्ड</w>
पू ँ
पा टेकर</w>
चे ल</w>
गलतफ हमी</w>
क्वा लि
कम रों</w>
आव रण</w>
अ श
um b
समस्या एँ</w>
व फ़ा
ना श्
ज़ लील</w>
लग न</w>
रिटा यर्ड</w>
म ची</w>
पु लों</w>
पीएम एल</w>
पि ताओं</w>
नी मत</w>
घमा सान</w>
कू ला</w>
एल एम</w>
6 5
हा य
मा तृत्व</w>
म जी
डा र्
सि रों</w>
संक्र मितों</w>
स नी
वि देशियों</w>
लौ टी</w>
बॉ स्
बर साया</w>
णि का</w>
टर सन</w>
चे ं
घि नौ
ent r
्र ्
ी त</w>
साबु न</w>
प्रति नियुक्ति</w>
पार स</w>
दू क</w>
डी ई</w>
जिंद ल</w>
कं सोर्
अन् ना
I M</w>
स्ता नियों</w>
प्रे मियों</w>
प्रच लन</w>
पह नी</w>
जन मत</w>
छु पा</w>
छ ी</w>
इल् ज़ाम</w>
ay s</w>
ation s</w>
से प्
सल् तनत</w>
वे दिक</w>
मी डियम</w>
पा यों</w>
दल हन</w>
ट्रे ट</w>
ज हीर</w>
छात्रा एं</w>
गो डसे</w>
खजू र</w>
शक्ति मान</w>
वा ँ</w>
मा नु
ध रा
ट् ज</w>
A M</w>
स्ट्री मिंग</w>
श शि
लम् ब</w>
बेयर स्टो</w>
बी र
प्रका शनों</w>
कॉमेडि यन</w>
के पी</w>
कं टेंट</w>
लाल कृष्ण</w>
यू पीएससी</w>
मं द
ब्रह्म पुत्र</w>
जान कारियों</w>
कु स</w>
कार् डि
कं सल्
एफ एस</w>
ौ न</w>
बा जपेयी</w>
ढूं ढ</w>
उकसा या</w>
4 20</w>
श्री कृष्ण</w>
बि शप</w>
फेड रल</w>
पार् वती</w>
चयन कर्ता</w>
खुर् शीद</w>
उप कर</w>
हकी म</w>
स्पे निश</w>
स्ट्र ॉ
भगवा न्</w>
ना र्थ</w>
ट्स ऐप</w>
जला पूर्ति</w>
जबर् दस्त</w>
कॉर् प</w>
कार्य कलापों</w>
काठमांड ू</w>
u ct
9 :
ष ो
शि यर</w>
वे निया</w>
लि ब
र् ड्स</w>
प्रिं टर</w>
पहुँचा या</w>
प ढ
इमार तें</w>
इ टा
अधी र</w>
el ect
है ट्रिक</w>
संख्या ओं</w>
वेंक टे
मा ले</w>
फं क्शन</w>
प्रतिद्वं द्वि
नियुक् तियां</w>
थ िक</w>
थ र्ड</w>
डे नियल</w>
टर् नर</w>
ज मे</w>
को ला
कार् मिकों</w>
काउंस लिंग</w>
उत्सु कता</w>
सं कल्पना</w>
शीघ ्र
वै यक्
विश्व स्तरीय</w>
वल्ल भ</w>
रोड मैप</w>
दर किनार</w>
ड च</w>
ज़रूर तों</w>
क्रा उन</w>
करा एगी</w>
एक् सर
बीम ारियां</w>
बि चौ
दौ स</w>
कड प</w>
क हूं</w>
क लेक्
अनु भूति</w>
4 3
स्पे सि
साम र्थ</w>
सम् बंध</w>
सब ने</w>
विश्व व्यापी</w>
मो र
प्रधाना चार्य</w>
प्रतिभा ओं</w>
पट रियों</w>
न् त्र
डे ला</w>
जू री</w>
ख्या ति</w>
अ संगठित</w>
ide o</w>
en g
OS No</w>
हो शि
दिग्ग जों</w>
किस् मों</w>
इने लो</w>
इ लिया
1 11</w>
सो ते</w>
सु ई</w>
वो क्स</w>
रिया ज</w>
द्वी प
डो कलाम</w>
डि स्टे
ख रा
क्रि प्
अनु ज्ञात</w>
अ विवाहित</w>
ले ंट</w>
रे गिस्तान</w>
मार ना</w>
भा र्ग
प्रयोज ्यता</w>
ऑर् गे
एल आईसी</w>
इ ज़्
आया मों</w>
y p
सर लता</w>
श रा
लग ें</w>
प्ला जा</w>
ग्रीष् म
अनियमि तताओं</w>
F or
,9 99</w>
१९ ४
स्ट्रो क</w>
युद् धों</w>
भग वा</w>
फर् मों</w>
प्लाज् मा</w>
पुष् प</w>
निष् ठा
धम पुर</w>
ग्र ीक</w>
खोज बीन</w>
उंग ली</w>
इंस्टि ट्यूट</w>
स्ट्रे लियन</w>
सुष् मिता</w>
शॉ न</w>
वृ हद</w>
यथा र्थ
बा ने</w>
बक वास</w>
प्रण व</w>
नो क</w>
ना इल</w>
डिजि ट
चि न
क़ा नू
सा दा</w>
सर् वे
सना तन</w>
लौ टाए</w>
लियो नी</w>
रू ढ़ि
भ ंगा</w>
बंग ला</w>
फ़ा न</w>
थी ः</w>
कार् ब
अस मान</w>
23 :
हो गाः</w>
ह नु
स् लै
सा तों</w>
संभा लेंगे</w>
संचा ल
ष्ण कटि
यि त्व</w>
म् बा</w>
बिल् ट</w>
बना वट</w>
ना गे
डी ज़</w>
जन संपर्क</w>
ए सी
उ भरने</w>
अधिरो पित</w>
वि राज
छोड़ ो</w>
गर्भा शय</w>
कमा या</w>
is m</w>
195 4</w>
ला एँगे</w>
रि एक्शन</w>
ब द</w>
इम् तिया
19 40</w>
13 9</w>
से नन</w>
सिक ंद
मर् दों</w>
फ्लो रिडा</w>
फी ड
प्र ताप
पद्म श्री</w>
चौ कियों</w>
कु म</w>
कर ने
ओबे रॉय</w>
सोच कर</w>
सीआई डी</w>
वि तर
कच्च ी</w>
ऑ नर</w>
ई सी
I C</w>
13 :
शहाद त</w>
ला इन्स</w>
यौ गिक</w>
मू त्र</w>
बहु संख्य
ब ढ</w>
धो ने</w>
त् त
टर् मिन
आ बंट
स्ट ों</w>
लाइसे ंस
त दार</w>
इफि सियों</w>
आईएस आईएस</w>
tis garh</w>
i o</w>
स्ट र्
ल ता
मु सा
फ्लि क्स</w>
परेशा नियां</w>
गे ह
की टों</w>
आयुर् वेदिक</w>
आख़ि रकार</w>
15 3</w>
वि शिष्ट
बं धी</w>
ब यान
फाइ टर</w>
डाइ ट</w>
ठि या</w>
जीवा णु</w>
ग्री स</w>
ग पुर</w>
14 2</w>
स्वा दिष्ट</w>
स्व स्थ
य न्स</w>
महाराष् ट्र
ब करी</w>
पुनरु द्धार</w>
अन लिमिटेड</w>
Re ad</w>
B C</w>
वार् ताला
मी ट</w>
माध्य स्थ
ब यां</w>
प्रति शोध</w>
प्र फुल्
ने गेटिव</w>
क्रि स्टल</w>
उर् व
सु मित्रा</w>
श ल
मार ता</w>
परि चर्चा</w>
न माम
खा ती</w>
के री</w>
कु त्तों</w>
अं किता</w>
सू खी</w>
प्रामा णिक</w>
प्रतिक्रिया एं</w>
टॉ वर</w>
खुश ख़बरी</w>
करवा ए</w>
आवृ त्ति</w>
हिमा लयी</w>
सभ ्य</w>
वर् ट</w>
रिसा व</w>
रि वाज</w>
म म</w>
बि जन
बर न</w>
उल् टी</w>
अन् वे
ं दे
1 19</w>
र् इ</w>
मर्सि डीज</w>
प्रति दान</w>
नजर बंद</w>
टॉ क</w>
टू टा</w>
छि पाते</w>
कॉन् स्टेबल</w>
का ब</w>
आर टी
वज हों</w>
लेन दारों</w>
याज कों</w>
ने ई</w>
तत् वा
एडमि नि
अल् पा
P at
हाइ वे</w>
वंश ज</w>
मनो नीत</w>
भा भी</w>
पार सी</w>
प काने</w>
नग री</w>
टे ली</w>
खुश हाल</w>
ओलि ंपिक</w>
अन् तर</w>
/ 2016</w>
स को</w>
वेल् थ</w>
ल जा</w>
र् त</w>
दुल् हन</w>
एल् गोरि
इन् वेस्टमेंट</w>
P re
E S
20 1</w>
व ज़न</w>
या ज</w>
बत् ती</w>
फि न</w>
फ न
कु ंड</w>
का त्मक</w>
e ar
हा यर</w>
सि ब</w>
सा ईं</w>
श्र वण</w>
वाय दे</w>
मनो रं
मंत्रि मंडलीय</w>
बि न्
प्र ह
नर संहार</w>
दवा इयों</w>
ग्रा फिक</w>
कॉ लिन</w>
/ 2017</w>
ह सीन</w>
शब्द कोश</w>
लाई न</w>
म जू
फ लक</w>
ट करा</w>
Chhat tisgarh</w>
स्था यित्व</w>
सर गना</w>
मिली भगत</w>
मिलि ट्री</w>
प डे
न्या योचित</w>
द ु</w>
घु सने</w>
कमांड ो</w>
आद तों</w>
आ फि
रोज मर्रा</w>
रू ह</w>
फ़ि लहाल</w>
पार् कों</w>
पा बं
ड्री म</w>
की टा
कमा ंडेंट</w>
अंगू र</w>
e v
स्टे टस</w>
स् प्रि
संभा ली</w>
वै भव</w>
वर् थ</w>
व स</w>
लम् बा</w>
मवे शियों</w>
पह नना</w>
दंडा त्मक</w>
त निक</w>
टाइ टल</w>
ज़रि ये</w>
क्रे ट</w>
कहा नियाँ</w>
आईएम एफ</w>
वेस्ट र्न</w>
वृ त</w>
विषा णु</w>
लो हू</w>
लू ट
योग ेश</w>
मौ ला</w>
प्रा ंतों</w>
प तं
के गा</w>
अनू ठा</w>
य ज्ञ</w>
मार् थ</w>
मा इन
निकट वर्ती</w>
डब्ल्यू टीओ</w>
जता यी</w>
क्ला सिक</w>
ए रो
३ ३</w>
सोच ें</w>
वॉ क</w>
रण नीतियों</w>
मे ला
नज़ र
न ता
धा तुओं</w>
त्सा हित</w>
जहाँ न</w>
आए ँगे</w>
yst em</w>
महा नायक</w>
म ्यु
भ राव</w>
दिन भर</w>
दर भंगा</w>
तट वर्ती</w>
ठे के
कोषा ध्यक्ष</w>
का टकर</w>
उ थ
वॉ टर</w>
रे डि
प्र देशा
जो या</w>
जु अल</w>
कुछ ेक</w>
6 GB</w>
12 3</w>
स् का
स ज़ा
वृ ध्दि</w>
म ारिया</w>
भाषा एँ</w>
भावना पूर्ण</w>
फै लता</w>
पीएम एलए</w>
पर्व तारो
प च्च
नौ कर</w>
ऑक् सी
ई स्ट
or g</w>
स्टॉ प</w>
बं धीय</w>
नो न</w>
थे ल</w>
ट् वें
टा स</w>
जा गृ
कै ट</w>
आबंट ित</w>
an k</w>
M o
7. 5</w>
ष ि
लो केशन</w>
लह सुन</w>
मै ट्रिक</w>
पं थियों</w>
थ केयर</w>
कर् षण</w>
एन पीए</w>
उप नाम</w>
से न
सुना ए</w>
शब्दा वली</w>
विश्व युद्ध</w>
मिलि ंद</w>
दशह रा</w>
दर् शिता</w>
ति थि
जा ने
खो जा</w>
आपत् तियां</w>
आगं तुकों</w>
अ मो
ंप ल</w>
विष यक</w>
व क्र</w>
लो जी</w>
र थ
मंज़ू री</w>
पं डि
न् दन</w>
नी म</w>
डी बी</w>
एम बी</w>
आर्थ र</w>
अव र</w>
शे ड</w>
शा स्त्रियों</w>
वै ली</w>
वे ष</w>
बल राम</w>
परा ंत</w>
नशी ली</w>
जा नेवाली</w>
कोह ल</w>
कै म्प
एयर फोर्स</w>
ए से
अ सद</w>
t o
9 8
25 ,
यू एसए</w>
मिता ली</w>
मध्य वर्ती</w>
बे न
पू रन</w>
नेट फ्लिक्स</w>
तब ली
ज पुर</w>
इं सा
अंगू ठे</w>
सम ों</w>
रे न
रू पित</w>
मु ड़कर</w>
दे शिक</w>
तसवी रें</w>
तट स्थ</w>
खे ंगे</w>
ई यू</w>
इंस्ट्र ू
ं ती</w>
b o
1. 1</w>
सु स्ती</w>
सी करी</w>
सम् पा
रोमा ंचित</w>
म या
प्र ह्
टे दार</w>
टी वीएस</w>
गो ं
किता बे</w>
कि ः</w>
अ ड़े</w>
सू रज
समा धि</w>
ले फ्ट</w>
र होगे</w>
मोह न
मज़ बूती</w>
म त्ता</w>
ब्रा ज़ी
प्रि यो</w>
प्रतिब द्ध
क्वार ंटीन</w>
कार्य शील</w>
एडी बी</w>
अभि यांत्रिकी</w>
ॉ क</w>
सा धु</w>
सं कट
मश क्
भार्ग व</w>
देवे न्द्र</w>
ता कार</w>
अव ज्ञा
अल विदा</w>
4. 5</w>
सल ें</w>
रो पण</w>
प्रदर् शक</w>
प्रति साद</w>
अधी नता</w>
e al
F ir
हो ल</w>
स्ट्रि यल</w>
वायर लेस</w>
पुरा ण</w>
दिक् कतें</w>
चि का</w>
चम ड़ा</w>
गिरजा घर</w>
ख राई</w>
स्था निक</w>
सुपर किंग्स</w>
समा मे
सत्या ग्रह</w>
बे त
फा ड़</w>
प लि
ट्राइ फेड</w>
गोल् फ</w>
वाक़ि फकार</w>
वा ज़े
लो जपा</w>
रजिस्ट्री करण</w>
ज़ा ना</w>
ज़ गी</w>
ज ार
मातृ भाषा</w>
परि ण
नि जीकरण</w>
थ्रि लर</w>
झा ं
ज़ ब</w>
ग़ लती</w>
ख राबी</w>
कु ओं</w>
क भार</w>
ऑटो मैटिक</w>
सर् किल</w>
सं श्ले
यु गा
भंड ारी</w>
फ़र माया</w>
प्रदेशा ध्यक्ष</w>
निका लता</w>
नव रा
कंब ो
il ity</w>
ay a</w>
साबर मती</w>
मंत्रि स्तरीय</w>
फि शर</w>
देश ा</w>
ट पुट</w>
जता ने</w>
खरीद ना</w>
क़ दर</w>
एम पी
उल् टा</w>
उप महाद्वीप</w>
से क्टरों</w>
सी आईएसएफ</w>
समि तियां</w>
लौ किक</w>
प्रह लाद</w>
पतं जलि</w>
ड रों</w>
गुज़ रे</w>
क्री ज</w>
ए ली</w>
ंड रों</w>
t ra
1 13</w>
सम तुल्य</w>
श्र म
वी क</w>
रो वर</w>
राज वंश</w>
मु काम</w>
मी म</w>
मांग ते</w>
ने चर</w>
द ंत</w>
ट्री टमेंट</w>
औ रों</w>
श पथ
मो इन</w>
बॉस् केट</w>
बा ड़</w>
टो क</w>
खि लौ
कॉप् टरों</w>
ई श</w>
g an
NH T</w>
वाज़े ए</w>
ला ंबा</w>
यू एन
निर्मा णाधीन</w>
आश्र ित</w>
L a
हा था
स्टे टमेंट</w>
वर्ष ो</w>
झ ुक</w>
जमा व</w>
गीत कार</w>
कर गिल</w>
ap p
ौ ली</w>
सं प्रभु</w>
ऐ ब</w>
3. 5</w>
स्वयं सेवकों</w>
सी एससी</w>
लं दा</w>
रा शियों</w>
बि श्
फि रे</w>
दोष सिद्धि</w>
अ स्थिरता</w>
an n
5 60</w>
हा थ
लो ना</w>
रै फर</w>
ब करियों</w>
पृष्ठ ों</w>
पी आईबी</w>
न जरिए</w>
गा जीपुर</w>
आर डीए</w>
PW 4</w>
सोच ती</w>
से क</w>
सिक ंदर</w>
वि निश्चय</w>
वा यर</w>
या ची</w>
मा ला
मंडा विया</w>
फिर दौस</w>
नाय डु</w>
तरजी ह</w>
कार खानों</w>
कां फ्रेंसिंग</w>
अधि का
सं गण
पैरा मीटर</w>
पुनर् मूल्यांकन</w>
नवा चारों</w>
देश व्यापी</w>
तर ुण</w>
त रो
डिस्ट्रि क्ट</w>
ट्रो जन</w>
उद्योग पतियों</w>
अन् दा
सर्व ज्ञ</w>
भग दड़</w>
ब र्ड</w>
फ साद</w>
तमं दों</w>
जे न</w>
गि ने</w>
कै लो
का े</w>
कंसोर् टियम</w>
echn ology</w>
Pol ice</w>
P ar
शॉ प</w>
रूपा णी</w>
रा बड़ी</w>
भ जनहार</w>
पाद प</w>
तु झ
डेवि स</w>
जिन पर</w>
ग्रे च्युटी</w>
कि शन
इच्छा शक्ति</w>
अं क
ंद्र नाथ</w>
ं ता</w>
g ra
हि मा</w>
सं वर्द्धन</w>
वॉ ल्
मातृ भूमि</w>
पंच कूला</w>
ध् द</w>
दि याँ</w>
डि लीट</w>
अ प्रासंगिक</w>
ं तर</w>
M in
हा ल
हंस राज</w>
सु स्त</w>
शा ल</w>
या त्रा
मु क
बछ ड़े</w>
ना लंदा</w>
द बे</w>
झार खण्ड</w>
गु न
कम र्
एनबी एफसी</w>
इसहा क़</w>
ि कता</w>
समन्व यक</w>
शिव रात्रि</w>
री वा</w>
मार ो</w>
बे दखल</w>
जै सल
गु ड़ी</w>
गा ट</w>
ह नी</w>
व्यवस्था एं</w>
प्रू फ</w>
नौ सैनिक</w>
ठहरा व</w>
गल तियां</w>
ग ढ़ी</w>
अ ख़
शिक्षा विदों</w>
वि न्
राज्य पालों</w>
या नो</w>
मिला प</w>
भार ा
बे गू
दि लाते</w>
डी पी
जान माल</w>
चढ़ ने</w>
गंग ो
कोल्हा पुर</w>
एनजी टी</w>
एक्सर साइज</w>
अन लॉक</w>
हाथा पाई</w>
रक्त दान</w>
नर् सों</w>
झि ल्ली</w>
ज् जर</w>
चचे रे</w>
कली सिया
अदा कारा</w>
m in
सं तों</w>
य ित</w>
भाव नाएँ</w>
ब लेट</w>
न ंगे</w>
झु ल
खि ंचा
क द</w>
आ ब</w>
ंड ु
सुन हरा</w>
ल घु
रो स</w>
राज कुमारी</w>
मुद्रा ओं</w>
न ंदन</w>
थ वेट</w>
ठि यां</w>
ज ड़ें</w>
एम एच
N A</w>
हेल् दी</w>
मेगा वॉट</w>
मा पन</w>
भार ित</w>
बी बी
फा क</w>
फर्नां डिस</w>
निर पेक्षता</w>
जे ड
चेता व
गा हें</w>
ह ॉर्
समय सीमा</w>
मा यू
पो जि
पै ग
ने वी</w>
नी कृत</w>
दबो च</w>
तबाद ला</w>
डॉक् टर्स</w>
टी टी</w>
ज़ि म्मे</w>
ग़ु लाम</w>
ख याल</w>
क् ड</w>
इ ग्
14 1</w>
सेल् फ</w>
रण ो
बै जल</w>
नाफ़र मानी</w>
जोखि मों</w>
जैसल मेर</w>
चैं बर</w>
क् ति
क लों</w>
अधू रा</w>
हेल् थकेयर</w>
मो टा</w>
मांग नी</w>
बोल ीं</w>
बे तु
बास् केट
फा फ</w>
द्वी पीय</w>
कृ पा
कल म</w>
एम ओ</w>
एकाद शी</w>
6 6
विधान सभाओं</w>
बे थेल</w>
बा ज़
प्र लय</w>
ठेके दारों</w>
गे ज</w>
ख़ तरा</w>
कोलंब ो</w>
कर बर्ग</w>
एक्स टेंशन</w>
आ रिफ</w>
अ धो
N ar
15 वें</w>
सर ता
श् लो
शेयर धारक</w>
रै लियां</w>
बहु ता
फ रिश्तों</w>
परि माण</w>
दौ रों</w>
दवाइ यां</w>
टि प्स</w>
गौर व
ई पीएफ</w>
स्त ब्ध</w>
सन् देश</w>
वृत् तियों</w>
लुटे रों</w>
लिख ता</w>
रोहि णी</w>
राम दास</w>
बज टीय</w>
नक़ ल</w>
द त</w>
ग् गा</w>
ग द्य</w>
ख़ ै
औ जार</w>
ए रॉन</w>
उत् खनन</w>
16 1</w>
े श्वर</w>
स रि
श नर</w>
विन म्रता</w>
नि पु
अजन बी</w>
सि खाते</w>
यु नाइटेड</w>
बुद्धि मानी</w>
बी ओ
प्रती कात्मक</w>
तरा ई</w>
चर म
खु शियों</w>
कर् त्
ऊ ष्
उप निवे
M I</w>
1 200</w>
स हू
स को
वीडियो ग्राफी</w>
विरोधाभा सी</w>
बि लि
निर र्थक</w>
नमाम ि</w>
जे एम</w>
जि मी</w>
क गार</w>
ऋ चा</w>
इम ्यू
आर् ट्स</w>
स्टा ंप</w>
वर् कर्स</w>
व ल्
लि क्वि
य थो
मज़ा क</w>
फील् डिंग</w>
प्रोड क्ट</w>
पे शी</w>
दु रा
गि ल
कार्ब निक</w>
का ं</w>
एम बीए</w>
उन्हो ं
अराज कता</w>
5 5
शी दा</w>
शि लांग</w>
बेगू सराय</w>
फ़ ज़ल</w>
प्रह् लाद</w>
प कर</w>
द्यो ग</w>
जु ल्म</w>
गायकवा ड़</w>
कट् टर</w>
अन वर</w>
00 :
स्टे ट्स</w>
शौ र्य</w>
श ल्य</w>
वि संगति</w>
वार्ताला प</w>
लगा ती</w>
मुक्के बाज</w>
प्रका शक</w>
धन ंजय</w>
गुरु द्व
कर दाता</w>
ओ ह</w>
आई ओएस</w>
स्पा इस
सु बोध</w>
शी ल्ड</w>
लं केश</w>
रु कने</w>
राम लीला</w>
राइ ट्स</w>
मोदी जी</w>
मुना सिब</w>
मछ लियों</w>
पर मार</w>
ज ः</w>
ग्र े</w>
क्यू बा</w>
क ॅ
अमरा वती</w>
अप ग्रेड</w>
ig n</w>
ag ar</w>
संपर् कों</w>
वे लियन</w>
वार त</w>
ल पे
मुख़ ा
प्रचार ित</w>
निभा ना</w>
नर क</w>
ज़रु रत</w>
गै लरी</w>
खर् चा</w>
as s</w>
.0 4</w>
ली बिया</w>
यि कों</w>
मा कन</w>
मह ज़</w>
मनु ष्य
तस ्रा
जटि ल
क लाई</w>
al i</w>
200 d
रि श</w>
मि डि
बहु आयामी</w>
प ग
ध्या पक</w>
तब के</w>
जीओ एम</w>
छ पाई</w>
चि प</w>
च लेंगे</w>
उल टे</w>
उदार ता</w>
उदा स</w>
सो मा
सीसी ईए</w>
सं बद्धता</w>
लौ टते</w>
मु आय
ब् बत</w>
द् दा</w>
टू ल</w>
कर् ण
उर्व शी</w>
अभि जीत</w>
u 200d
m A
सेवा एँ</w>
सिफ़ ारिश</w>
सामान्य तया</w>
श्र ुति</w>
ला ग
राज सिंह</w>
पि ंदर</w>
आज मी</w>
S E
NC P</w>
हर फन
सु व्यवस्थित</w>
वि धियां</w>
लॉ ग
मुख र</w>
धब् बे</w>
दूर दर्शी</w>
कृ तियां</w>
कम्युनि केशन</w>
अ दृश्य</w>
d s</w>
al s</w>
a f
In d</w>
र डार</w>
मार् क्स
माय नों</w>
प्प ू</w>
पिक् चर्स</w>
पि ल्ल
दी या</w>
डि प्रेशन</w>
जे स</w>
जस वंत</w>
ग ंगे</w>
कामका जी</w>
ंघ म</w>
7 7
स्ट डीज</w>
व्य ंग
मसा ले</w>
भिजवा या</w>
बोली दाता</w>
तो ड़ी</w>
णा ंक</w>
क् वी
एं जि
आर्बि ट्रे
अरवि न्द</w>
3 20</w>
26 ,
स् पाइ
राज स्था
य ॉ
डायरे क्
ज्वाला मुखी</w>
उधार कर्ता</w>
S on
DE O</w>
B E
सिया सत</w>
शी शे</w>
म्ब ू</w>
मा इल</w>
भो र</w>
फे क</w>
नाम ः</w>
ट्यू शन</w>
खा का</w>
इंड ो</w>
ंक ने</w>
सू ख</w>
सि ले
सह कर्मी</w>
लग ेगी</w>
बता कर</w>
प्रोवि ज़ो</w>
पौ धा</w>
पुष् पा
जी भ</w>
चाइ ल्ड</w>
गा ते</w>
एड मिशन</w>
आईटी आर</w>
n et
M D</w>
सभ ्य
रक् तस्रा
फते ह</w>
पथ भ्रष्ट</w>
न्न त</w>
देख े
घ रा
का कर</w>
सं क्रांति</w>
रण जीत</w>
मु ट्
मी नियम</w>
नरसिम् हा</w>
ढ ी</w>
ठे का</w>
चौ दह</w>
चू ना</w>
घो ड़ों</w>
कर तू
अवय व</w>
अच्छ ाई</w>
PW 3</w>
सहभा गी</w>
बिग ड़ने</w>
बाँ ध</w>
प्रश् न
डे शन</w>
जान नेवाला</w>
क् कन</w>
क टी</w>
U N
S ar
हे र
ब रह
पर् दा
जा न्
चि कन</w>
क्यू ट</w>
कू न</w>
इस्ला मिया</w>
इ मे
अभि प्राय</w>
अफवा हें</w>
C P
स्वा स्थ</w>
सुल् ता
वय स्कों</w>
र ॉ</w>
भड़ के</w>
फि ंगर</w>
पॉ क्सो</w>
पत्र ित</w>
निरा करण</w>
डाक घर</w>
टू टे</w>
जाय ज</w>
चयन कर्ताओं</w>
इन् टर
अनि वासी</w>
S S
३ ५</w>
हि टलर</w>
मुश् त</w>
बे ने
नवोन्मे ष</w>
त्याग पत्र</w>
चेयर पर्सन</w>
इ निस</w>
अत एव</w>
O ne
1 1/
है दर</w>
ह ्र
स्त्रो त</w>
सि का</w>
सला धार</w>
विद्रो ही</w>
लॉजि स्टिक</w>
ब्ले ड</w>
बै कअप</w>
प ्य</w>
डिपॉजि ट</w>
आईडी बीआई</w>
अह ंकार</w>
सो हेल</w>
शह रीकरण</w>
लॉ न</w>
म् या</w>
मिसाइ लों</w>
भड़ काऊ</w>
प्रति रोधक</w>
पहुंच ेंगे</w>
जल वुड</w>
आयोज नों</w>
P D
ह्यू स्टन</w>
सम् मत</w>
मे कअप</w>
परि चालित</w>
नो रा</w>
टेक् स
का ंड
इं क</w>
आकां क्षी</w>
अभिने त्रियों</w>
ंट म</w>
S ha
सी नेटर</w>
ब रे</w>
फे स
क्ष ै
19 46</w>
हार् वर्ड</w>
हा शमी</w>
विशाखा पट्टनम</w>
मुआय ना</w>
मा हिरा</w>
बख् शा</w>
फ राह</w>
पढ़ा ने</w>
नि त्या
दर गुज़र</w>
ती रंदा
जाइ ए</w>
12 8GB</w>
00 1</w>
ही नता</w>
वा निकी</w>
रजिस्ट र्ड</w>
या दें</w>
म प्र</w>
बै टिंग</w>
फू लपुर</w>
पूंजी करण</w>
ना ला</w>
जी ए</w>
उ र</w>
इं ट्स</w>
I P</w>
व्यव हार्य</w>
मो रक्
प्रया सरत</w>
ने त्र
डॉ नल्ड</w>
क्ष रण</w>
D W
16 5</w>
हार् यता</w>
बह ल</w>
बयान बाजी</w>
फार्मास् यू
नशी ले</w>
तरी क़ा</w>
को हराम</w>
किराये दारी</w>
इस् त्रा
अपू र्ण</w>
c ra
Q u
श्रे ष्ठता</w>
वच नों</w>
राइ टर</w>
फ़ कार</w>
पा पी</w>
निभा नी</w>
क् यु
कट ारिया</w>
str uct
सं देय</w>
शो थ</w>
विवर णी</w>
मण्ड ली</w>
बाल कों</w>
प्रा चार्य</w>
जा फरी</w>
क़ी मत</w>
आप् टे</w>
य ती
मै रा
म दों</w>
बहुता यत</w>
प्रशि क्षकों</w>
ट च
घबरा हट</w>
कोवि च</w>
क तारें</w>
ए अर</w>
14 9</w>
सीडब्ल्यू सी</w>
सर् ग</w>
बो ह
फे ंके</w>
दुर् गा
दस् तक</w>
द वाई</w>
एल जी</w>
इ योन</w>
आर एम</w>
r y</w>
r on
मचा या</w>
पैं ट</w>
न् ति
गा ए</w>
क्ला उड</w>
को स्ट</w>
अव रो
p d
c or
राष्ट्री यता</w>
यथो चित</w>
बर् बादी</w>
नही ं
दृष्टा ंत</w>
छ क्का</w>
का जल</w>
असमर्थ ता</w>
ही रा
सम लैंगिक</w>
वैयक् तिक</w>
वर् धक</w>
व रेज</w>
लि फा
मुरा दाबाद</w>
प्र लो
द नगर</w>
छि टपुट</w>
औप निवे
ऑ रेंज</w>
ऑ ंख
एस ए
ए वीएसएम</w>
इं द्र</w>
इ न्द्र
अग्रे षित</w>
से वारत</w>
संवे दी</w>
बु द्ध
पहुंच ेगा</w>
पहुंच ती</w>
गो खले</w>
खो या</w>
ए काउं
K ap
श् वत</w>
मि चेल</w>
म र्जी</w>
बारा मूला</w>
बढ ो
फार् मर</w>
प्रभा र्य</w>
डो मि
चं पारण</w>
ग् ने
आव ्र
अधिकार ी
ath er</w>
S MS</w>
स्पि नरों</w>
मं डियों</w>
बैठ ता</w>
फ र्ट</w>
दुर् भावनापूर्ण</w>
चॉ कलेट</w>
क सरत</w>
o or</w>
l ine</w>
VI DEO</w>
हु ज़ू
सि टी
व म</w>
मू ड</w>
भा वा
बहु तों</w>
नाफर मानी</w>
त्र े</w>
डील रों</w>
डि टी</w>
ज ज़ा</w>
ए ँगें</w>
आर टीसी</w>
अव स्था
b s
17 6</w>
सेंटी मीटर</w>
व्ही कल</w>
वाई सी</w>
मत ः</w>
बो रा</w>
न री
दिखा एगा</w>
डि याँ</w>
गां व
गं वाने</w>
ख़िला फ</w>
क़ै द</w>
आर आर</w>
2. 2</w>
12. 2016</w>
वी ए</w>
वि रा</w>
भू गोल</w>
ज् वार</w>
चिद म्बर
एंड ्रा
ए बीएस</w>
इज़ रा
Mod i</w>
4 जी</w>
राज्य वर्धन</w>
राजन यिकों</w>
मैके निकल</w>
मै क</w>
मंज़ू र</w>
बु तों</w>
फीड बैक</w>
न त
जीवन काल</w>
P N
19 30</w>
हरफन मौला</w>
वैष्ण व</w>
र ंगा</w>
मोह क</w>
ब्रे किंग</w>
नक् शा</w>
दा गी</w>
घा ना</w>
कार्य योजना</w>
ऑ स्ट्रिया</w>
m an</w>
al a</w>
स मान
लॉन् चिंग</w>
रो जर</w>
भा न</w>
बे ड
प्रस्तु तियां</w>
प्रति रोधी</w>
डि लि
डाय ना</w>
जा मिन</w>
ज़ी लैंड</w>
ग्रीष्म कालीन</w>
क्ष णिक</w>
करा एंगे</w>
उप च
ंद वाड़ा</w>
a in</w>
6 4.
सं लिप्त</w>
विका सात्मक</w>
ले आम</w>
लु स्
लिं चिंग</w>
बां टे</w>
फे ट</w>
फ़ाइ लें</w>
पा शा</w>
दिव ्या</w>
दाहि नी</w>
त पे
कु म्
कार् लोस</w>
का ंच</w>
उत्तरा र्
आ यो
Del hi</w>
2, 0
स्टो इनिस</w>
ब्राज़ी ल</w>
बे ंच
ने म</w>
छु ड़
गु ड
ig ht
V II</w>
स्क्वा ड्रन</w>
रि टर्
मु रु
बुद्धि मत्ता</w>
ना मे</w>
दी ः</w>
ऐ प्स</w>
उ री</w>
अनुशं सित</w>
an a</w>
C l
सि राज</w>
शा श्वत</w>
व्हाट्स ऐप</w>
बू ट</w>
दो न</w>
ट र्म</w>
जै क्सन</w>
इंग लैंड</w>
आज्ञा ओं</w>
अ सहाय</w>
संसा धित</w>
रू न</w>
म का</w>
बिरा दरी</w>
प्रोग्रा मिंग</w>
प्रा ण
ए लिय
इंटी ग्रे
अ टूट</w>
5 4
हाउस फुल</w>
से ठी</w>
स रोज</w>
शो का
वार सी</w>
पत ली</w>
प का</w>
थ ू
च री</w>
काया कल्प</w>
एसटी पी</w>
आर ए
p ost</w>
15 :
स्वी कार्य
ला ंटिक</w>
महा विद्यालयों</w>
बा ते</w>
बहुसंख्य क</w>
प्र वर्तक</w>
पुर्तगा ली</w>
द्वीप समूह</w>
थाइ लैंड</w>
टि नम</w>
गै सों</w>
खा मो
कै न</w>
एच एस
अफ़ग़ा निस्तान</w>
अ मा
mA h</w>
m ar
igh t</w>
9 ,000</w>
ल् हे</w>
ल क
रवी ना</w>
पि थोरा
परि व्यय</w>
थि या</w>
त य
घु टनों</w>
ख ौफ</w>
का सिम</w>
ओरि एं
ए रि
अधि शेष</w>
अ योग्यता</w>
हा की</w>
वॉ ल</w>
विक्र म
रॉय टर्स</w>
मोरक् को</w>
मेघ वाल</w>
मख़ लू
नि गेटिव</w>
छ पी</w>
इम्तिया ज</w>
इन् फोसिस</w>
अनु रक्षण</w>
अ ठ
ंड ो</w>
हवा एं</w>
शि कं
रू द्दीन</w>
बे घर</w>
प्रश स्ति</w>
पो शीदा</w>
क्लि यर</w>
क ंडी
i e</w>
C or
सदी क़</w>
वर् ध
मक़ सूद</w>
फोटो शूट</w>
फ ें</w>
त सदीक़</w>
डे स्क</w>
डि फॉ
ट्रां सफ
गह नता</w>
ख दानों</w>
उत्सा ही</w>
आ ंग</w>
सैम सन</w>
सर्व दा</w>
शीघ्र ता</w>
व्या करण</w>
वार ें</w>
वा शिंगटनः</w>
य की
मनोरं जक</w>
बा गान</w>
बंदो बस्त</w>
फो र</w>
न् त
जु दा</w>
घ र्
एस ओपी</w>
आ ंच</w>
अम् ल</w>
बुढ़ा पे</w>
प्रोसे स</w>
डी आईजी</w>
डिजिट लीकरण</w>
ट्वें टी</w>
जाए ँगी</w>
घ बरा</w>
गो रा</w>
कट िक</w>
BS E</w>
माल वीय</w>
बल बीर</w>
पिथोरा गढ</w>
पा ड़ा</w>
ड्रि ड</w>
चर्चा एं</w>
ग लियों</w>
कल ह</w>
उ ज
अव शोषण</w>
अभि गम</w>
अधिका धिक</w>
सी पीएम</w>
रू पी</w>
यूसु फ़</w>
मुद्र ण</w>
मन दीप</w>
फार् मों</w>
प्रणा लियां</w>
देश म</w>
डब् लू
चिं ताएं</w>
कु प
कार्य शालाओं</w>
एडवां स्ड</w>
रि कार्
मा पा</w>
भ रण</w>
द रि
डा र्क</w>
छात्र संघ</w>
ख ार
आवा सों</w>
अमेरि कियों</w>
अ घोषित</w>
हैंड सेट</w>
हत्या ओं</w>
स्क्री न
शा का
व्याख्या ता</w>
रो ते</w>
परिस्थि तियाँ</w>
पड़ ना</w>
न मस्
ठा क</w>
टा ई
जा वा</w>
क् लू
के ंगे</w>
आ ण
13 1</w>
हो तीं</w>
रि ल</w>
मू सलाधार</w>
बे ंद्रे</w>
फॉर वर्ड</w>
प्रा देशिक</w>
पे प्
डीजी सीए</w>
टो पी</w>
ज लाया</w>
चु नना</w>
खा ता
इं ट
14 3</w>
स् लाइड</w>
सु दृढ़
वा इन</w>
मे किंग</w>
मिटा एँ</w>
मधु मक्खी</w>
न बू
ड्रे सिंग</w>
ड्र ॉ
झो ले</w>
ज् जो</w>
घटना एँ</w>
कां टे</w>
एम एलसी</w>
अपू रणीय</w>
स्वीकार्य ता</w>
शी र</w>
विवेका धीन</w>
विल् सन</w>
भाव ों</w>
ना पुर</w>
k s</w>
सिम ट</w>
रा णे</w>
मलि ंगा</w>
भि जवा</w>
पु ण्य
दी वान</w>
ड र्
ग रा</w>
कु दर
इस ललए</w>
अभि दाता</w>
ha t</w>
वि कृति</w>
मॉर् गन</w>
मर कुस</w>
बु आई</w>
फ़ ्रे
फरमा एगा</w>
पूर्ण कालिक</w>
पी टकर</w>
न् तरण</w>
चौ ड़ी</w>
कु लगाम</w>
औपनिवे शिक</w>
इंद ु</w>
S har
28 ,
विराज मान</w>
बो लियों</w>
प् पन</w>
नी ट</w>
नित्या नंद</w>
तात् विक</w>
त ारि
डो ल</w>
डे ंस</w>
m i</w>
श्री पद</w>
शत्रु ता</w>
बर तें</w>
फिर ौन</w>
प्रे मिका</w>
तृ प्त</w>
ट्रै वल</w>
क्ल बों</w>
एम एलडी</w>
एनसी बी</w>
d es
१ ६
सु ध
वृ द्धा
यूनिय नों</w>
म ली</w>
ब म
फा श</w>
पाठ ्य</w>
नव निर्वाचित</w>
को डिंग</w>
एफ एम</w>
उ ष्णकटि
आ स्तियों</w>
A C</w>
14 7</w>
स ट्
वृ ष्टि</w>
क्वि ंटन</w>
ओ ला</w>
ए ख्तियार</w>
अस्थ ि</w>
अपर् चर</w>
u c
p os
३ २</w>
सिनेमा घरों</w>
वरि ष्ठ
बैठ ें</w>
बुल ंद</w>
बीएम डब्ल्यू</w>
बी जापुर</w>
बता एगा</w>
फ सलें</w>
दर् श
त् वा
तिर ंगा</w>
जिला ध्यक्ष</w>
कर् ज
उज् बेकिस्तान</w>
195 3</w>
मनो विज्ञान</w>
प्रस ार
पार्श् व</w>
प डे</w>
ने स्
द्र ता</w>
एन फील्ड</w>
एडवाइ जरी</w>
इ को</w>
du ct
K a
2, 7
स्ट्र ै
सो डियम</w>
भेद भावपूर्ण</w>
पा प
धमा कों</w>
थ ौ
टेक् सास</w>
ख़ बरें</w>
कंस्ट्र क्शन</w>
असं ख्य</w>
सै लरी</w>
वर् च
रि टीज</w>
मान वी</w>
बी आर</w>
बढा वा</w>
पुर् न
देख ेगा</w>
डे ंसी</w>
डी ई
जो फ्रा</w>
जन जीवन</w>
गो पा
अनु बंधित</w>
हि ल्स</w>
हाइड्रो कार्बन</w>
स्टे न
सुख देव</w>
समा जों</w>
मार् क्स</w>
फ़ ार
प्रार म्भिक</w>
नस् लों</w>
टि ड्डी</w>
टि ड्
कठो रता</w>
क पट</w>
इब् न</w>
er e</w>
con t
हे जलवुड</w>
सर्व था</w>
ष् ठा
मशक् कत</w>
फा यर
पा ंडा</w>
न या
धार ण
तपे दिक</w>
जी ईएम</w>
चाल चलन</w>
खे लता</w>
खु शियां</w>
खा मियों</w>
क् लेम</w>
एक् टर्स</w>
अ णु</w>
t rans
an i</w>
1 20
ह बी
सा वि
शिं जो</w>
ल ंच</w>
मता धिकार</w>
भड़ का</w>
पि टीशन</w>
दि श</w>
त्रि वेंद्र</w>
जीवा श्म</w>
ग् लू
गि यर</w>
क्र ों</w>
को म
को ड
कै न
S ch
साइ ट्स</w>
शख् सियत</w>
व त
मॉ स्को</w>
मी कि</w>
मांग ता</w>
फ्यू ल</w>
फेफ ड़े</w>
प्राप् तकर्ता</w>
डाय मंड</w>
गार ं
ई साइ
us h
n ov
.0 2</w>
हिंदु स्तानी</w>
सै न्य
सदा नंद</w>
स जाया</w>
बोह तान</w>
बो र
प्रो फ़ाइल</w>
दिला सा</w>
ढ क</w>
कु ला
अ ध
स्थ ी</w>
स्टाइ लिश</w>
व्यव धान</w>
रु ग्
भो गियों</w>
भू भाग</w>
पल टने</w>
पक ड़
डी ह</w>
ज़ ै
क्रि मिनल</w>
कार पोरेशन</w>
आराम दायक</w>
d t</w>
Com ment</w>
सि ड
लची लापन</w>
नवी र</w>
एक् सी
उम् मत</w>
अनिश्चि त
हंगा मे</w>
सो र</w>
वि लम्ब</w>
मुर् दों</w>
पी तल</w>
पहुँ चे
तु स</w>
डेल् टा</w>
डी एल</w>
कार ो</w>
ंड ्रि
ic ation</w>
२ ८</w>
हिज बुल</w>
सू अर</w>
माम लाः</w>
बर् मा</w>
ध्य ेय</w>
डा लेंगे</w>
जॉर् जिया</w>
जाग ते</w>
का टे</w>
इ मेज</w>
आ येंगे</w>
अगर तला</w>
विध्व ंस</w>
प्रजा पति</w>
नि गेह
ण् डा</w>
णि कता</w>
ची ख</w>
गि ड़
एलएन जी</w>
आंदो ल
C L</w>
14 8</w>
वृ क्षों</w>
लाइन ें</w>
नौ काओं</w>
न ल
डेवि ल्स</w>
चतु र्थ</w>
37 ,
शाह रूख</w>
र् य
मौजि ज़ा</w>
म ग्न</w>
पि न
त्रि कोणीय</w>
झु का</w>
कमांड रों</w>
उ षा</w>
इ ष्ट</w>
सी टी
समा चार
सं वर्ग</w>
वि द्</w>
रा क्ष
मे श्वर
नवा ज़</w>
चि र
चन्द्र मा</w>
खे लेगी</w>
कंबो डिया</w>
औष धियों</w>
एहतिया ती</w>
ए एफपी</w>
समा पक</w>
रिकॉर् ड्स</w>
मि ति</w>
फो गाट</w>
पह े
टी एमटी</w>
करी म</w>
कन् नौ
उ धमपुर</w>
इं फोसिस</w>
अ फेयर</w>
res s
.0 1</w>
हित धारक</w>
सि खाता</w>
सम् मानजनक</w>
शोका कुल</w>
व त्
माओ वादी</w>
ब्रह् मांड</w>
बेल ारू
[...]
