#version: 0.2
t h
i n
th e</w>
a n
r e
t i
e r
e n
e d</w>
a r
o f</w>
o n
o n</w>
e r</w>
an d</w>
s t
o r
i n</w>
o u
h a
in g</w>
t o</w>
i s</w>
a l
a t
i t
e s</w>
r o
d i
q u
o t
i l
i c
a l</w>
o r</w>
a c
a t</w>
p o
d e
a s
ti on</w>
qu ot
quot ;</w>
& quot;</w>
a s</w>
a n</w>
en t</w>
i s
e c
o m
e l
r a
e n</w>
e s
u r
v e</w>
a m
s i
p l
u n
r i
f or</w>
w h
th at</w>
s u
n o
c on
s h
th e
s a
c h
a d
p ro
i t</w>
b e
l i
t s</w>
l e
a g
a tion</w>
l y</w>
po s
re s
u s
m ent</w>
c om
v er
l o
c e</w>
a b
ti on
b e</w>
w as</w>
w it
er e</w>
i st
ha s</w>
o l
b y</w>
a k
i r
er s</w>
s e
ar e</w>
wit h</w>
g o
a r</w>
in di
h e</w>
th is</w>
i d</w>
e x
a pos
& apos
f or
a p
c ou
c i
t r
m in
t ed</w>
p e
s o</w>
at e</w>
v i
il l</w>
m o
m e
a y</w>
no t</w>
l e</w>
n e
ha ve</w>
w ill</w>
u l
p er
g h
p ar
f f
f ro
fro m</w>
re d</w>
sa id</w>
l a
d u
s t</w>
m e</w>
th er</w>
s p
t e
it y</w>
h i
t er</w>
b u
l d</w>
min ist
i r</w>
in g
a in
h o
t h</w>
ic e</w>
d er</w>
h is</w>
al so</w>
m an
y o
w or
i m
tion s</w>
ou r</w>
indi a</w>
be en</w>
v er</w>
re c
u m
o p
on e</w>
al l</w>
d s</w>
w e
2 0
p or
t er
p re
w e</w>
s e</w>
c h</w>
yo u</w>
n a
at ed</w>
ou t</w>
re n
u d
po l
h e
st r
&apos ;
t o
the y</w>
a y
s ec
w ere</w>
e m
a d</w>
c as
d o
ou n
e t</w>
ic h</w>
minist er</w>
a f
an t</w>
&apos ;</w>
wh ich</w>
an d
ver n
c o
g i
p u
go vern
ha d</w>
v e
pl e</w>
ur e</w>
ou ld</w>
the ir</w>
f i
t y</w>
cou n
com m
c l
en ts</w>
t ing</w>
b o
d ent</w>
g e</w>
bu t</w>
d ed</w>
it s</w>
en ce</w>
u s</w>
a u
&apos; s</w>
h ar
gh t</w>
pol ice</w>
en t
wh o</w>
f e
es t</w>
m a
es s</w>
s ha
ac c
d ing</w>
cou r
p res
th ere</w>
o ff
d e</w>
or e</w>
s er
govern ment</w>
an ce</w>
20 1
p ri
ar y</w>
i on</w>
i e
p r
t u
s o
o d</w>
for m
du c
o ther</w>
t ak
f il
e ar
st ate</w>
g u
n o</w>
a v
f ir
tion al</w>
g h</w>
pe o
d ay</w>
s c
con t
ag e</w>
af ter</w>
m ar
an y</w>
a m</w>
the m</w>
h i</w>
ab le</w>
om e</w>
peo ple</w>
ou s</w>
c e
ti es</w>
v is
w ar
r a</w>
cour t</w>
l ed</w>
on s</w>
re g
s ing
ti ve</w>
si on</w>
un der</w>
c ha
am e</w>
ti c
f ac
t w
b j
al ly</w>
f in
g r
c an</w>
p a
v el
r u
on g</w>
t a
e v
cas e</w>
us ed</w>
w n</w>
i f</w>
w ha
es s
t ra
ou r
d er
t ri
v ed</w>
i es</w>
ne w</w>
sh i
res s</w>
m ad
s ti
i d
k e
c r
d i</w>
en g
an g
c re
at es</w>
u p</w>
w ould</w>
w i
res p
h er</w>
indi an</w>
ag ain
t en
hi m</w>
again st</w>
m on
b er</w>
ti me</w>
m is
tw o</w>
ab out</w>
es e</w>
o c
wha t</w>
de l
m at
b i
s el
ver y</w>
h el
sing h</w>
wh en</w>
u t
l l</w>
as h
ec t</w>
as t</w>
per s
a tions</w>
g n
k s</w>
p ra
su ch</w>
j o
ar m
re s</w>
us e</w>
k ing</w>
d o</w>
i l</w>
g e
en ti
k e</w>
al s</w>
k no
il e</w>
ie f</w>
i c</w>
off ic
ing s</w>
in ter
o ver</w>
en d
is h
u l</w>
ur ing</w>
ou gh</w>
f a
th ese</w>
s ch
r i</w>
ch ief</w>
m ak
for e</w>
us t</w>
t or</w>
s h</w>
fir st</w>
na tional</w>
w ay</w>
ac t</w>
c an
y our</w>
v es</w>
lo w
me di
g ra
oun d</w>
tr y</w>
b r
u p
b le</w>
re e</w>
in e</w>
f o
th o
bj p</w>
p er</w>
c es</w>
pre si
ha n</w>
1 9
i al</w>
w el
mad e</w>
ac h
k ed</w>
v ing</w>
be ing</w>
su b
0 0</w>
s ed</w>
be t
al i
ar d</w>
in v
g ress</w>
b ec
ol d</w>
b an
p h
ac e</w>
st e
di rec
le g
an s</w>
m an</w>
cl ud
m s</w>
th en</w>
as ed</w>
mo di</w>
sh e</w>
ay s</w>
il l
r y</w>
or y</w>
b el
el ec
m ore</w>
or s</w>
on ly</w>
str ic
y a</w>
sti tu
del hi</w>
so ci
por t</w>
de vel
pe ti
sh ould</w>
m y</w>
presi dent</w>
g en
u c
a re
me m
sp ec
com pl
f e</w>
is su
c or
m u
sh o
p en
es ti
th an</w>
o k</w>
wh ile</w>
t ur
d uring</w>
at er</w>
di s
s en
j u
at e
ser v
at ing</w>
con gress</w>
in to</w>
at h</w>
in clud
resp on
devel op
p s</w>
il y</w>
ac k</w>
pri me</w>
le ad
st ed</w>
p an
c ol
s ome</w>
ra j
n ed</w>
coun try</w>
ar i
or der</w>
it e</w>
el y</w>
u e</w>
acc used</w>
in ci
j a
tho se</w>
th r
j e
y e
f ic
c en
b a
lo c
r s</w>
ac h</w>
de c
por t
c er
di stric
c ap
d y</w>
e t
sh ri</w>
b l
y ing</w>
an n
st ar
m ay</w>
vi d
fil m</w>
wor ld</w>
m it
h a</w>
su p
is t</w>
p ak
li ke</w>
g re
it al</w>
am p
e i
wor k</w>
is e</w>
s y
f am
com e</w>
e l</w>
as s
el l
an s
t ure</w>
ho we
m il
we en</w>
howe ver</w>
bet ween</w>
man y</w>
ot h</w>
v en</w>
pak ist
wi th
c a
w s</w>
w om
t ec
be fore</w>
& #
the re
al l
po w
par t
cen tr
f ol
i z
f ul</w>
st s</w>
par ty</w>
tak en</w>
in form
shi p</w>
de sh</w>
th ing</w>
amp ;</w>
& amp;</w>
g et</w>
pro duc
wh ere</w>
&# 9
lo g
c ur
un i
as e</w>
thr ough</w>
u m</w>
ap pl
sha ll</w>
v en
po in
s s</w>
si gn
b oth</w>
h ou
a ff
v a
ch ar
gen er
at t
un der
tak e</w>
ho w</w>
r an
ec ted</w>
ch il
k um
wel l</w>
s in
o per
vi e
str uc
g an
al la
th ree</w>
f ur
b li
te m
i g
s ur
pl o
a ir
distric t</w>
h in
p p
develop ment</w>
mo st</w>
p ur
st ud
y s</w>
m i
di ff
d ra</w>
w a
ren t</w>
m ents</w>
l and</w>
n um
c y</w>
reg ist
k et</w>
c u
pro vi
t ly</w>
minist ry</w>
or d</w>
s an
t e</w>
go d</w>
e p
re qu
k a
di d</w>
e red</w>
e f
w r
s po
pakist an</w>
c ri
pres ent</w>
ev en</w>
t re
s ou
h ere</w>
y ear
k ar
b en
an a</w>
il ity</w>
con si
g a
he al
an ts</w>
c ar
n ing</w>
re t
mak e</w>
comm it
n i
li fe</w>
f l
c la
per i
pu bli
publi c</w>
pra desh</w>
ic al</w>
j ud
s ame</w>
cou ld</w>
v ir
20 0
d re
com p
su l
s pe
ha r</w>
e ment</w>
ex am
kum ar</w>
hi gh
is ed</w>
f un
g ed</w>
po si
st ates</w>
gi ven</w>
alla h</w>
ti ce</w>
ic es</w>
r ic
g and
ho sp
is h</w>
peti tion
fur ther</w>
ren dra</w>
hi gh</w>
fam ily</w>
le ar
de f
f t</w>
it ed</w>
re ad
ap pro
k a</w>
e d
inv esti
fol low
me e
bel ie
p un
re li
la w</w>
investi g
th ers</w>
f ul
s es</w>
or d
ch an
pu r</w>
un ion</w>
year s</w>
in te
par t</w>
- 1
w ays</w>
go od</w>
r e</w>
n ess</w>
au th
na rendra</w>
st ri
ap pe
o b
c al
res t</w>
ta in</w>
b as
s it
i a</w>
n at
wh e
pl ace</w>
p t</w>
ra m</w>
k han</w>
inci dent</w>
ye ar</w>
fi ed</w>
di d
pl ay
b ro
e p</w>
n or
t ain
s al
hel d</w>
n ec
mee ting</w>
at a</w>
war d</w>
f f</w>
b ers</w>
v al
s ol
on om
2 0</w>
di sc
or gan
on g
pow er</w>
h an
num ber</w>
m ain
k o
on d</w>
con stitu
v ic
to day</w>
tec h
c ed</w>
l ast</w>
form er</w>
se t</w>
ac tion</w>
vie w</w>
l es</w>
do wn</w>
h ome</w>
v ari
c c
kno w</w>
pers on</w>
i p
b ha
includ ing</w>
l ak
sel f</w>
en d</w>
in cre
dec is
gand hi</w>
l an
cr ore</w>
bo dy</w>
di c
ti c</w>
sa y</w>
at s</w>
w ater</w>
diff e
a use</w>
appl ic
rec ei
heal th</w>
ban k</w>
l ar
comm is
ap p
ri ght</w>
m es</w>
cont in
t al
re le
bec ause</w>
in du
f er
wom en</w>
ci al</w>
sec ret
pro j
d r
se e</w>
inform ation</w>
n am
i ties</w>
auth or
tr ans
sa b
ec onom
l l
h u
in de
e duc
re por
tic al</w>
s ing</w>
po or</w>
qu es
. .
e ach</w>
s on</w>
o l</w>
lo w</w>
for m</w>
de part
se ver
c ro
a in</w>
am ong</w>
go ing</w>
po li
ver s
in stitu
mat ter</w>
du e</w>
r is
g o</w>
c ul
hosp ital</w>
t ro
ent ly</w>
e -
ou t
ne ed</w>
m a</w>
t en</w>
u tion</w>
is m</w>
g ro
p as
te am</w>
g ar
t el
c ent</w>
ex t</w>
. 1
si de</w>
ex p
m or
ra tion</w>
n er</w>
i m</w>
no w</w>
in i
centr al</w>
em plo
regist ered</w>
h ol
sec ur
st ing</w>
ren ce</w>
es h</w>
cas es</w>
im port
k ash
j ust</w>
av a
e ff
gener al</w>
soci al</w>
c am
st o
s ci
pro c
0 00</w>
p m</w>
t ers</w>
s .</w>
d on
j us
hou se</w>
re l
do es</w>
e very</w>
d ra
in d</w>
s m
dre n</w>
chil dren</w>
v ill
p e</w>
t est</w>
bu il
vis ion</w>
al ity</w>
sec tion</w>
gr ou
sch o
ar re
m al
m ust</w>
mit ted</w>
stud ents</w>
ba i</w>
k h
c le
l ord</w>
kash m
hel p</w>
su m
sp or
up on</w>
en s</w>
p ul
or ding</w>
b us
om e
vari ous</w>
man ag
b ack</w>
j am
can not</w>
secur ity</w>
s ent</w>
ec ts</w>
c lo
k ar</w>
he ar
petition er</w>
je ho
ou ght</w>
. 0
pro gra
e qu
on al</w>
ra h
t ors</w>
ac coun
th er
jeho va
medi c
de v
read y</w>
st an
f arm
secret ary</w>
mem bers</w>
m b
ve l</w>
log y</w>
re as
ou s
o m</w>
ad v
re sul
c um
in ed</w>
war ds</w>
medi a</w>
can did
in ju
pro b
ad d
pers ons</w>
f ri
inju red</w>
w ar</w>
rec o
re gi
st and
wh y</w>
1 0</w>
m um
ish ed</w>
te e</w>
in ess</w>
st ate
p i
tr a</w>
as se
an other</w>
p at
s ure</w>
f ra
i or</w>
i red</w>
we e
sever al</w>
de m
cont ro
o thers</w>
decis ion</w>
sch e
re la
s k
re port</w>
cr ic
acc ording</w>
b ased</w>
re ad</w>
in a</w>
di tion</w>
to ok</w>
sit u
issu e</w>
c el
ter r
sin ce</w>
al i</w>
f ound</w>
kashm ir</w>
oc cas
e vid
arm a</w>
b ri
gi ve</w>
inter national</w>
fo re
wr it
in s</w>
spo t</w>
compl ain
. 201
there fore</w>
m ot
e st
ti ci
d en
diffe rent</w>
sec ond</w>
f our</w>
app ell
ig n</w>
in k</w>
pro ce
ma j
sab ha</w>
depart ment</w>
ste m</w>
lead er</w>
comp any</w>
spec ial</w>
d h
mum bai</w>
d ays</w>
col l
v al</w>
at ten
a ir</w>
in ation</w>
de ath</w>
p ic
l ing</w>
pl e
th s</w>
si ble</w>
comm un
serv ice</w>
s .
i ons</w>
ava il
se e
sy stem</w>
al ong</w>
3 ;</w>
&#9 3;</w>
ag es</w>
to o</w>
si st
ini ti
1 ;</w>
&#9 1;</w>
b i</w>
tech no
pol ic
l ater</w>
an i</w>
in es</w>
arre sted</w>
la un
m ed</w>
posi tion</w>
con cer
t a</w>
r ul
al leg
ex pres
sh arma</w>
pos ed</w>
pl ac
tr u
fil ed</w>
cal led</w>
ac k
educ ation</w>
sen ior</w>
t i</w>
sup port</w>
sa ys</w>
evid ence</w>
a k</w>
ur al</w>
s ome
are a</w>
with out</w>
de red</w>
commit tee</w>
n ame</w>
i ed</w>
al a</w>
k il
mis sion</w>
ra il
con duc
state ment</w>
su pre
l ine</w>
n ot
h um
f r
p al</w>
serv ices</w>
se en</w>
occas ion</w>
g g
tri es</w>
d ate</w>
gh ts</w>
i als</w>
w o
an y
st er
no .
chan ge</w>
c ame</w>
pu t</w>
m en
b al</w>
t ot
b ar
y et</w>
m en</w>
ac ti
j ur
ach ed</w>
a ti
jus tice</w>
e ver
peri od</w>
st at
lak h</w>
st ated</w>
t ar
ear li
ma har
h y
, 000</w>
m us
import ant</w>
si ve</w>
b er
y ou
sha h</w>
follow ing</w>
t old</w>
b re
en cy</w>
ka poor</w>
l y
reg ul
5 0</w>
d ated</w>
coun tries</w>
ch ed</w>
c ent
investig ation</w>
w ant</w>
w ing</w>
u res</w>
mu ch</w>
ro ad</w>
si d
supre me</w>
farm ers</w>
d one</w>
star ted</w>
c ity</w>
bo ard</w>
o ver
t or
le t</w>
gre at</w>
vi de
si ons</w>
p ay
offic er</w>
vi l</w>
th ough</w>
su cc
b est</w>
ha pp
n ext</w>
wor k
l a</w>
progra m
fic ation</w>
.. .</w>
b il
mem ber</w>
ic i
w est</w>
lo o
disc us
hi m
rah ul</w>
ti mes</w>
l ong</w>
s es
m er
d ri
d a</w>
l ess</w>
as ked</w>
jud g
pl y</w>
n a</w>
ad ded</w>
&apos; t</w>
w at
si on
ar ound</w>
f ar</w>
id enti
issu ed</w>
ab o
earli er</w>
so on</w>
de ci
fi ve</w>
com ing</w>
j ay</w>
ri t</w>
sche me</w>
t ar</w>
fe rence</w>
cha ll
ti z
asse mb
n t</w>
po st
er ing</w>
he av
direc tor</w>
ever y
re tur
ap poin
reg ard</w>
1 0
j ar
kno wn</w>
peti tion</w>
y ed</w>
spec i
grou p</w>
b har
a way</w>
u al</w>
he ad</w>
al ready</w>
offic ial</w>
im pl
in ing</w>
en ted</w>
with in</w>
ash tra</w>
b eng
a tive</w>
ro ss</w>
situ ation</w>
ne ver</w>
ma in</w>
tr an
prob le
vers ity</w>
oper ation</w>
medic al</w>
v ot
li am
de ce
ben ef
ab ad</w>
assemb ly</w>
c ir
ab l
tak ing</w>
e ver</w>
o wn</w>
ha l
avail able</w>
lead ers</w>
ag re
w in
s am
d ly</w>
cric ket</w>
h and</w>
sec tor</w>
t ting</w>
mak ing</w>
ne e
o ff</w>
ti s
l s</w>
sc ri
fir e</w>
fa ther</w>
cur ren
pri v
sho w</w>
r un
are as</w>
bec ome</w>
g lo
ac ross</w>
m u</w>
kil led</w>
respon dent</w>
th ings</w>
th ir
vill age</w>
mahar ashtra</w>
fi el
ro le</w>
pl es</w>
ch o
g y</w>
em ents</w>
ec tion</w>
off ice</w>
ann oun
d a
il s</w>
sou th</w>
19 9
par tici
h and
as h</w>
tot al</w>
l it
wor king</w>
e y</w>
h on
commis sion</w>
pro per
pos t</w>
proc ess</w>
ja b</w>
m ul
p tion</w>
bo ok</w>
w al</w>
vi ol
am oun
ha ving</w>
be g
pl ain
elec tion</w>
cla im
n ess
j an
def ence</w>
iz ed</w>
do m</w>
u r</w>
ac tor</w>
res ear
in st
h us
ve red</w>
cor por
scho ol</w>
offic ials</w>
est abl
tic s</w>
r ate</w>
li on</w>
in ve
ar ly</w>
1 2
poli tical</w>
cl u
le vel</w>
ch ang
ab ility</w>
applic ation</w>
s ar
ha m
t y
to ge
bus iness</w>
pun jab</w>
su ff
as s</w>
gu jar
w on</w>
contin u
pro vis
com pan
techno logy</w>
air s</w>
par liam
re ly</w>
as soci
d ers</w>
en ded</w>
jam mu</w>
centr e</w>
fin an
fo od</w>
p .
st or
elec tions</w>
en ing</w>
toge ther</w>
wi fe</w>
ques tion</w>
ec tive</w>
ric ul
jehova h</w>
at ely</w>
acc ep
econom ic</w>
aff airs</w>
v ar
abo ve</w>
ist s</w>
dece ased</w>
m it</w>
h ist
il ed</w>
par ties</w>
go t</w>
g ur
di ed</w>
de n</w>
d ge</w>
wo od</w>
v o
p ha
lo k</w>
tion ed</w>
di tional</w>
on es</w>
pro f
provi de</w>
ef for
g ir
s un
vide o</w>
ad minist
fer red</w>
ver s</w>
p ed</w>
y an
terr or
p ass
at ure</w>
pa ti
n ag
proj ect</w>
for ce</w>
j i</w>
n s</w>
li ght</w>
b ur
con nec
vel y</w>
201 7</w>
pl ay</w>
ta x</w>
po pul
ali a</w>
f el
ut e</w>
end ra</w>
al low
uni versity</w>
whe ther</w>
candid ates</w>
b al
enti al</w>
st and</w>
ent al</w>
repor ted</w>
fac t</w>
ous ly</w>
recei ved</w>
e .</w>
a h
b s
gujar at</w>
i ous</w>
1 2</w>
con struc
b ed</w>
h ic
fe w</w>
t t
st ren
author ity</w>
reli gi
lo ve</w>
b ir
provi ded</w>
3 0</w>
wit ness
pr inci
me an
ag ricul
str y</w>
d ou
ag ain</w>
ci tiz
us ing</w>
1 5</w>
im pro
di es</w>
de ta
stren g
spe ak
mon th</w>
belie ve</w>
h ra</w>
u n</w>
to wards</w>
lo t</w>
inve st
ve hic
accoun t</w>
in ten
n al</w>
sh ar
de li
kno w
th us</w>
contro l</w>
arm y</w>
pos e</w>
polic y</w>
h it</w>
lear ned</w>
in t</w>
maj or</w>
a h</w>
sti ll</w>
re ached</w>
g es</w>
inform ed</w>
pr is
-1 9</w>
le t
d ar
b ility</w>
hum an</w>
our ces</w>
att ack</w>
ch ina</w>
c tion</w>
gh ter</w>
curren tly</w>
bi har</w>
ar t</w>
ra m
issu es</w>
st ation</w>
vis it</w>
mon ey</w>
cha ir
mo vi
th y</w>
b ol
bo o
ex ten
re pres
h er
partici p
en ces</w>
ha t
indu stry</w>
s on
n ath</w>
op port
d on</w>
op en</w>
inte rest</w>
soci e
d au
re f
pas sed</w>
our s</w>
in e
ne ws</w>
b or
e x</w>
a z
bas is</w>
he ad
resear ch</w>
o bj
se qu
tic ul
b at
ha p
en er
fore ign</w>
1 8
complain t</w>
pers on
l i</w>
ses sion</w>
m r
m ur
loc al</w>
di st
amoun t</w>
appell ant</w>
wom an</w>
y s
lar ge</w>
m ag
lo ok</w>
hap pen
j es
th ink</w>
gar h</w>
con tr
g ri
fac e</w>
t our
d om
h s</w>
y oun
manag ement</w>
leg al</w>
direc ted</w>
ri ed</w>
l ist</w>
nec ess
ser ies</w>
tur al</w>
al e</w>
an ted</w>
inv ol
t am
mat er
d am
ti t
bet ter</w>
pu bl
se ats</w>
ar s</w>
ex ec
d ents</w>
ex ce
finan cial</w>
el s</w>
b an</w>
m un
fin ance</w>
th re
cel e
b it
st er</w>
pr ice</w>
au str
cle ar</w>
jes us</w>
y ad
resp ect</w>
ph one</w>
ca use</w>
tre at
indu stri
ra j</w>
ear th</w>
em s</w>
a v</w>
indi as</w>
ex c
l ab
lan gu
ac hi
to p</w>
al ways</w>
le ad</w>
y ana</w>
le ft</w>
t om
the m
know le
en ds</w>
an t
do c
re main
ci l</w>
ac y</w>
ly wood</w>
si mil
gr ound</w>
is l
de ep</w>
program me</w>
on -
rec or
rul es</w>
rec ord</w>
as i
ke ts</w>
glo bal</w>
ch es</w>
mo ther</w>
b ang
mus li
n ation</w>
w ic
fin d</w>
mat ch</w>
f ree</w>
gro w
offic ers</w>
ve ment</w>
ul t</w>
v in
raj as
as sa
ha l</w>
pro sec
char ge</w>
don t</w>
d .</w>
no v
har yana</w>
j un
p w
b ra
di sp
priv ate</w>
co vid
regi on</w>
ti ll</w>
ut tar</w>
ener gy</w>
h old</w>
thir d</w>
enti re</w>
br ought</w>
sh or
ci vil</w>
a i
consi der
socie ty</w>
c ra
em ber</w>
e f</w>
ev ent</w>
in f
s at
me d
ac ci
reg ar
struc ture</w>
sa ying</w>
minist ers</w>
stand ing</w>
ke ep</w>
sign ed</w>
k er
z e</w>
writ ten</w>
pos sible</w>
1 1</w>
fr on
judg ment</w>
v ol
y e</w>
w ent</w>
o f
li mit
nor th</w>
grow th</w>
sel ves</w>
c y
impl em
includ e</w>
th an
whe re
o s</w>
n ar
ter min
or ity</w>
b and</w>
ne l</w>
par ticul
g n</w>
go o
sh e
br ing</w>
fi c</w>
movi e</w>
rajas than</w>
s w
ne i
ent ation</w>
incre ase</w>
yad av</w>
n or</w>
m es
1 5
id es</w>
er ship</w>
coun cil</w>
li k
do ing</w>
ful l</w>
b ab
res er
jud ge</w>
mar ket</w>
ke y</w>
emplo ye
fin al</w>
deci ded</w>
b s</w>
bol lywood</w>
f y</w>
ful ly</w>
ster n</w>
p ay</w>
requ ired</w>
un ited</w>
me as
treat ment</w>
wor d</w>
am s</w>
f ut
at or</w>
1 .
d u</w>
exam ination</w>
in jur
wh o
i de
covid -19</w>
compl et
cour se</w>
im medi
beng al</w>
com es</w>
lar g
ak a</w>
constitu tion</w>
laun ched</w>
2 5</w>
w an</w>
ex peri
fac il
sub mitted</w>
c ab
tra de</w>
ex er
b es
tri al</w>
cont ri
chil d</w>
su bj
alleg ed</w>
de si
sm all</w>
fut ure</w>
qu ir
pa red</w>
w in</w>
witness es</w>
contri bu
k an
fiel d</w>
produc tion</w>
resul t</w>
provis ions</w>
play ed</w>
chall eng
ad ditional</w>
effor ts</w>
m p</w>
a ward</w>
d r</w>
f oun
emplo y
all s</w>
en sure</w>
f av
de ad</w>
buil ding</w>
rel ated</w>
elec tr
commis sion
ci es</w>
exer c
1 4</w>
ak e</w>
j our
tem ple</w>
ru le</w>
c are</w>
bu d
o t</w>
me ans</w>
cre ated</w>
an ti
ch and
add res
s il
ol s</w>
on ce</w>
ain ed</w>
it ing</w>
1 00</w>
en vir
d ata</w>
tr ue</w>
proj ects</w>
c m</w>
envir on
201 9</w>
pro tec
cap tain</w>
1 4
announ ced</w>
col le
sha red</w>
comm er
pa ren
li ve</w>
inde ed</w>
vic ti
o il</w>
f re
rec ently</w>
rail way</w>
su per
contin ue</w>
pl an
poin t</w>
pro mot
necess ary</w>
parliam ent</w>
hal f</w>
um p</w>
sci ence</w>
me et</w>
st ra
e u
un ity</w>
kar nat
k h</w>
as k</w>
spor t</w>
sp ir
v ity</w>
appe al</w>
mad h
man u
ko h
ju di
knowle dge</w>
as sist
tu res</w>
proper ty</w>
al ed</w>
ter ms</w>
no thing</w>
si x</w>
am it</w>
pe ace</w>
high er</w>
a w
o w
dau ghter</w>
ac t
concer ned</w>
ser ved</w>
se ar
20 20</w>
tra ining</w>
consi dered</w>
k ind</w>
karnat aka</w>
ga ve</w>
cab in
mo ve</w>
bi g</w>
sh i</w>
pro te
cabin et</w>
g er
cri min
de cl
ne w
in come</w>
rele ased</w>
f are</w>
work ers</w>
pro mis
mil it
ic s</w>
201 8</w>
it h</w>
na v
c bi</w>
reas on</w>
tain ed</w>
r s.
for ces</w>
you th</w>
w ise</w>
l t
compl e
1 3</w>
er ic
it ation</w>
ate g
wh ol
te ach
g l
du ce</w>
c ing</w>
ri ghts</w>
cer tain</w>
en ed</w>
il i
m p
b ill</w>
di g
u k
koh li</w>
sh a</w>
de mo
wit ness</w>
gu i
ris ti
t -
co st</w>
res ol
organ is
or ig
min d</w>
ch risti
de man
pr ac
cap ital</w>
comm on</w>
g ing</w>
compan ies</w>
tu al</w>
con dition</w>
spo k
2 4</w>
bes ides</w>
1 6
govern ments</w>
se as
g a</w>
chair man</w>
n on-
al li
et c</w>
wor ds</w>
g am
acci dent</w>
1 3
am eric
ad mitted</w>
ti sh</w>
for man
n c
plain ti
c ateg
austr alia</w>
b h
agre ement</w>
sp i
fil e</w>
a -
ag ed</w>
no tice</w>
sa ge</w>
par ts</w>
go ds</w>
wh om</w>
wor ks</w>
su it</w>
s qu
t ation</w>
vi ties</w>
cir cum
le a
e ast</w>
pl an</w>
di tions</w>
tru th</w>
con ference</w>
lo od</w>
de e
pre vi
mon ths</w>
mi ght</w>
at ures</w>
19 8
ro r</w>
mr .</w>
y es</w>
a j
ni ght</w>
him self</w>
commun ity</w>
er a</w>
run s</w>
2 1</w>
ac qu
gi ving</w>
construc tion</w>
t on</w>
c op
let ter</w>
si bility</w>
allow ed</w>
claim ed</w>
r an</w>
ud e</w>
t an
pur pose</w>
h un
succ ess
tam il</w>
manu fac
cap ac
a th
c all</w>
2 .
f oc
201 6</w>
ic k</w>
d ha
i ght</w>
co operation</w>
de pu
si m
le y</w>
nee ds</w>
ex ist
res h</w>
happ y</w>
bec ame</w>
agricul ture</w>
di t</w>
no ti
ec ti
benef it</w>
v ice</w>
r ang
su st
w er</w>
w ed</w>
i .
ap pre
mar k</w>
n ers</w>
limit ed</w>
v s</w>
bi ble</w>
re ve
tri b
re j
mil lion</w>
ne ar</w>
acti vities</w>
stan ces</w>
d ro
r ing</w>
m r</w>
ge tting</w>
ar ies</w>
r ural</w>
de st
t ory</w>
institu te</w>
mul ti
en ter
def end
sa tion</w>
exec u
lik ely</w>
hus band</w>
cou ra
l in
1 6</w>
s ri</w>
2 2</w>
in fra
sh ed</w>
ar ing</w>
r us
deta ils</w>
youn g</w>
ill s</w>
mon y</w>
at ors</w>
ish ment</w>
at ory</w>
3 0
add ress</w>
vi du
cl ass</w>
sing le</w>
di sa
wee k</w>
y er</w>
st e</w>
qu ar
em er
indi vidu
ra ised</w>
eff ect</w>
form s</w>
qu ali
a di
ar ri
ben ch</w>
k r
sh are</w>
ad vis
ac tive</w>
is ra
diff ic
1 7
im um</w>
madh ya</w>
paren ts</w>
m ic
er al</w>
ru n</w>
m ad</w>
hist ory</w>
pa id</w>
qu ality</w>
corpor ation</w>
con sum
str ong</w>
tr ump</w>
rela tion
ati ves</w>
je e</w>
sup por
do cum
1 8</w>
prosec ution</w>
pe tro
hin d</w>
tic le</w>
fron t</w>
produc ed</w>
jo int</w>
quir y</w>
c ar</w>
form ed</w>
plac es</w>
p al
conduc ted</w>
regar ding</w>
distric ts</w>
identi fied</w>
w .
langu age</w>
connec tion</w>
reco gn
m ental</w>
su sp
c are
i i</w>
in fl
and hra</w>
z ed</w>
it or
speak ing</w>
a tional</w>
af ric
depu ty</w>
p ot
go v
con fi
t ou
some thing</w>
pr ices</w>
exam ple</w>
star t</w>
s s
ord ers</w>
re d
exp ected</w>
de b
st ar</w>
un to</w>
capac ity</w>
p ad
employ ment</w>
lo st</w>
infra structure</w>
li ves</w>
ker ala</w>
clo se</w>
1 9</w>
t le</w>
requ i
dou b
w al
petition ers</w>
dec la
ter m</w>
4 0</w>
v i</w>
expres sed</w>
proble ms</w>
colle ge</w>
se p
d ation</w>
ord in
j ay
y al</w>
nat ural</w>
m id
mean while</w>
commit ted</w>
ei ther</w>
fri ends</w>
repor ts</w>
employe es</w>
m ate</w>
commission er</w>
inte re
ce ment</w>
fi ght</w>
in -
sign i
se tt
7 0</w>
st om
our ce</w>
person nel</w>
w rit</w>
per forman
c li
fil ms</w>
organ iz
ne t
plac ed</w>
invest ment</w>
n ad
spor ts</w>
i ally</w>
sa fe
ur y</w>
m i</w>
g old</w>
val ue</w>
ar ticle</w>
1 7</w>
co de</w>
commun ic
crimin al</w>
institu tions</w>
author ities</w>
hin di</w>
nat ure</w>
j an</w>
st u
z e
se par
retur n</w>
cor on
ma h
pp ed</w>
recor ded</w>
de fin
stud y</w>
cer ti
rail ways</w>
sp ace</w>
sci enti
in au
cur rent</w>
bro ther</w>
uni ties</w>
f ar
op position</w>
appoin ted</w>
cla im</w>
fa ith</w>
a red</w>
ing ly</w>
wel fare</w>
heav y</w>
st re
a p</w>
re ally</w>
proble m</w>
hear t</w>
el i
pr as
cam pa
fac ts</w>
in d
star s</w>
be hind</w>
is ing</w>
ch ec
t able</w>
in al</w>
w ro
ch ing</w>
mater ial</w>
ac ted</w>
pass eng
signi fic
whol e</w>
incre ased</w>
eng land</w>
te m</w>
te red</w>
acc ord
decla red</w>
ot s</w>
m as
re comm
de sp
la w
b ad</w>
produc ts</w>
duc ed</w>
man i
men tioned</w>
i gn
con fir
ser ious</w>
fe ar</w>
p ec
o -
it self</w>
p ast</w>
gir l</w>
econom y</w>
vir at</w>
t v</w>
re main</w>
re ment</w>
cele br
administ ration</w>
atten ded</w>
d han</w>
act ress</w>
bel o
ch in
environ ment</w>
for ward</w>
them selves</w>
indi c
immedi ately</w>
ur ban</w>
me t</w>
le ast</w>
dem and</w>
re sid
lo d
us es</w>
k ha
nag ar</w>
previ ous</w>
v a</w>
l al</w>
s or
se ven</w>
mor tem</w>
se l</w>
bhar at</w>
si c</w>
eng ine
govern or</w>
per cent</w>
resul ts</w>
opport unity</w>
mo der
mur der</w>
on line</w>
l at
mo ved</w>
en cies</w>
lea ve</w>
pers onal</w>
any thing</w>
ar ti
rele ase</w>
bang la
m al</w>
ap art</w>
con ditions</w>
h or
proce ed
sub -
t ent</w>
p ing</w>
rus si
j a</w>
v ind</w>
ne t</w>
proceed ings</w>
k i
ar ds</w>
plainti ff</w>
rele v
happen ed</w>
bo w
re ferred</w>
to wn</w>
re si
w il
in tro
exce pt</w>
cour ts</w>
i tion</w>
ci ties</w>
simil ar</w>
citiz ens</w>
larg est</w>
reco vered</w>
of ten</w>
g ation</w>
en a</w>
ad a</w>
circum stances</w>
j ap
na tions</w>
de termin
un ti
s ources</w>
ban ks</w>
o gra
st age</w>
d har
loc ated</w>
man ner</w>
as p
s c</w>
sc re
ac ts</w>
jehova hs</w>
att ac
there after</w>
pay ment</w>
st af
sal man</w>
ph ys
candid ate</w>
1 ,
wro te</w>
mo b
viol ence</w>
b ul
exerc ise</w>
fun d</w>
p ap
stor age</w>
c lear
d ar</w>
g as</w>
e as
ro w</w>
ste ps</w>
dri ver</w>
cu stom
6 0</w>
subj ect</w>
tran sport</w>
de al</w>
mar ch</w>
di stri
mob ile</w>
con ven
distri bu
f esti
st ory</w>
cre ate</w>
k ing
2 5
mem or
a de
su rely</w>
incre as
dem ic</w>
u sh
ent ary</w>
he re
er jee</w>
o di
ri l</w>
mar ri
ar i</w>
c up</w>
s l
follow ed</w>
201 5</w>
ser ve</w>
am end
reli ef</w>
f ir</w>
ri ver</w>
ex per
scho ols</w>
aff ected</w>
ear ly</w>
every one</w>
g er</w>
hear ing</w>
de scri
ri gh
sen a</w>
char ac
hin du</w>
ti n</w>
g one</w>
li ving</w>
cul ture</w>
belo w</w>
b lood</w>
0 0
te ams</w>
relation ship</w>
log ical</w>
mes sage</w>
o re
por ts</w>
t wit
associ ation</w>
spok es
judi cial</w>
f er</w>
performan ce</w>
do w
p il
inte gr
d -
staf f</w>
under stand</w>
im p
val u
b loc
invol ved</w>
an im
con ver
unti l</w>
conduc t</w>
nad u</w>
qu e</w>
develop ed</w>
b ru
jo b</w>
tur n</w>
bec om
g s</w>
en jo
pras ad</w>
ph ot
ho pe</w>
fe el</w>
lo ss</w>
b ack
not e</w>
appre ci
ir e</w>
lead ing</w>
bangla desh</w>
1 st</w>
su g
hy der
t un
mo han</w>
pen dent</w>
s p</w>
man d
g res
pro vision</w>
pro gress</w>
t on
ar bit
vehic le</w>
ag ency</w>
bo dies</w>
g ame</w>
ne y</w>
h om
twit ter</w>
pres s</w>
tr ust</w>
posi tive</w>
p ate
b all</w>
sear ch</w>
ro ad
relev ant</w>
play ing</w>
sa w</w>
b order</w>
off ence</w>
str ate
c ard</w>
fam il
mar ks</w>
har d</w>
m ay
investig ating</w>
u t</w>
it a</w>
respon se</w>
sou ght</w>
mo tion</w>
li gh
t wee
play ers</w>
p end
shi ps</w>
complet e</w>
includ ed</w>
re view</w>
g i</w>
dis mis
kr ish
ad e</w>
s co
ham mad</w>
appoin t
k m</w>
d ol
f our
ru shed</w>
ch r
fun c
p age</w>
cha m
k ol
j i
es pec
au g
docum ents</w>
g ang
nam ed</w>
san jay</w>
ap ril</w>
espec ially</w>
lit tle</w>
provi ding</w>
proc ess
e a
oc cur
m la</w>
cri me</w>
reas ons</w>
f al
se at</w>
m l
wor l
experi ence</w>
di vision</w>
b ag
du ty</w>
201 4</w>
hyder abad</w>
shi v</w>
establ ished</w>
sal e</w>
popul ation</w>
f u
co -
p ho
re al</w>
ste p</w>
v an</w>
te sting</w>
direc tion</w>
ac tions</w>
3 .
safe ty</w>
s a</w>
e ve</w>
sur ve
low er</w>
er y</w>
leg isl
spi rit</w>
pan cha
ra p
ques tions</w>
poin ts</w>
s ac
pro pos
ab ly</w>
vehic les</w>
ecti vely</w>
d av
tu ally</w>
ab or
a ver
s mar
g ha
dic tion</w>
ter nal</w>
injur ies</w>
adv oc
ad op
pri yan
n om
ass ess
belie vers</w>
h ot
who se</w>
an al
fe atures</w>
respon sibility</w>
m oun
pro vid
consi der</w>
m ary</w>
t t</w>
pro p
wr ong</w>
ch en
pate l</w>
k al
appro ved</w>
pres ence</w>
we bs
con vic
webs ite</w>
jur is
victi m</w>
pl at
fre e
dr .</w>
tech n
succ ess</w>
2 3</w>
h ence</w>
con ce
y -
hu ge</w>
com pu
pos session</w>
out side</w>
mo vement</w>
op s</w>
na tion
trib un
d es</w>
meas ures</w>
rela tions</w>
direc t</w>
av o
goo ds</w>
fa iled</w>
m om
sup ply</w>
sa tis
pow er
tour ism</w>
famil ies</w>
2 4
sub sequ
religi ous</w>
d ul
ven ue</w>
appro pri
afric a</w>
priyan ka</w>
gr ant</w>
han ds</w>
fol low</w>
a wa
poli tics</w>
in ion</w>
ac hal</w>
ge ts</w>
eu ro
musli m</w>
pol ls</w>
com pen
b ad
coun sel</w>
is la
e ding</w>
oc k</w>
l ic
eng l
lod ged</w>
milit ary</w>
cu sto
comple ted</w>
doc tors</w>
com b
ep ing</w>
assa m</w>
cor ru
implem entation</w>
facil ities</w>
jo h
ex tre
tr ying</w>
d ings</w>
ru pe
a b</w>
x ed</w>
marri age</w>
ro hit</w>
l u
r ash
jun e</w>
char ges</w>
ca used</w>
pati ents</w>
de l</w>
tel e
sy st
repres ent
a j</w>
achi ev
particul ar</w>
res ources</w>
in king</w>
chang es</w>
ver se</w>
en coura
dis ci
c le</w>
pancha y
cer tain
ang ana</w>
tic es</w>
d an
beg an</w>
shor t</w>
loo king</w>
19 7
la ws</w>
tho u</w>
ic ally</w>
ce re
l ong
ak h
oc to
rec ent</w>
l and
gr at
et ings</w>
den ied</w>
us h</w>
a head</w>
c ell
d ru
t .</w>
cul tural</w>
st ers</w>
fun ction</w>
up coming</w>
wi de</w>
es .</w>
industri al</w>
con sul
at i</w>
dig ital</w>
at tem
disp ute</w>
t al</w>
ici ent</w>
oun ds</w>
ar rang
tra in</w>
tel l</w>
a i</w>
sp read</w>
esti c</w>
en ge</w>
wel l
dec ember</w>
ou gh
grou ps</w>
religi on</w>
gr anted</w>
cor rec
nei ther</w>
mak es</w>
protec tion</w>
k am
m y
p .</w>
raj ya</w>
stat us</w>
isra el</w>
proce d
campa ign</w>
kh and</w>
octo ber</w>
hou ses</w>
e m</w>
sep tem
li g
hin du
de al
pre pared</w>
mun ic
oper ations</w>
hist or
n ership</w>
a war
assist ance</w>
op inion</w>
inau gur
king dom</w>
hosp it
respon dents</w>
defend ant</w>
ke pt</w>
p rec
chen na
y .</w>
ju ly</w>
f ru
includ es</w>
al and</w>
cam era</w>
pur cha
w anted</w>
ag ar</w>
2 6</w>
ho od</w>
h ur
5 00</w>
ec h</w>
septem ber</w>
nov ember</w>
j ri
g st</w>
ip l</w>
m ing</w>
high est</w>
jan u
t ab
m ess
g b</w>
any one</w>
4 .
sh an
en ding</w>
chall enge</w>
consider ation</w>
diffic ult</w>
fo ot
engl ish</w>
sup pl
ke jri
f all</w>
man o
b it</w>
re -
hol ding</w>
ma x
car ried</w>
cent ury</w>
ben e
cre dit</w>
f ast</w>
am a</w>
ill ing</w>
r s
de ep
sign s</w>
lan ds</w>
ch op
re ach</w>
laun ch</w>
c .</w>
sch em
b om
af ore
ad it
v ac
av ir
amend ment</w>
gu e</w>
dom estic</w>
bir th</w>
inde pendent</w>
festi val</w>
ac ting</w>
air port</w>
ex ternal</w>
success ful</w>
au l</w>
speci fic</w>
he ard</w>
every thing</w>
accep ted</w>
pres ented</w>
ad dition</w>
con n
l ate</w>
in der</w>
reve aled</w>
bu s</w>
see king</w>
bud get</w>
en ter</w>
st ay</w>
wor ked</w>
es h
b ar</w>
al le
s r
prof es
th ought</w>
certi fic
gg est</w>
foc us</w>
mat ters</w>
desp ite</w>
appl y</w>
all -
ed ul
chenna i</w>
terror ism</w>
se ized</w>
grat ul
con gratul
cla use</w>
fav our</w>
o p</w>
alli ance</w>
all ing</w>
pr in
discus sed</w>
i th
twee ted</w>
benef its</w>
s ent
th ou
e e</w>
c ru
j har
0 .
de fe
y an</w>
ja il</w>
in spec
tribun al</w>
qu ite</w>
free dom</w>
l on
coron avir
pro be</w>
kejri wal</w>
at eral</w>
alleg ations</w>
i an</w>
- -</w>
d ence</w>
se a</w>
tri bu
tak es</w>
pun ishment</w>
str u
juris diction</w>
gu ar
2 8</w>
be half</w>
ist an</w>
r it
teach ers</w>
chang ed</w>
spir it
t es</w>
in sur
janu ary</w>
provid es</w>
aug ust</w>
en ced</w>
th ats</w>
m ely</w>
princi pal</w>
6 .
tra ff
2 7</w>
reas on
ti vity</w>
appoint ment</w>
5 .
s ite</w>
tis garh</w>
seas on</w>
categ ory</w>
and a</w>
as ia</w>
lt d</w>
ea stern</w>
acc ess</w>
gam es</w>
nee ded</w>
opport unities</w>
de cre
k ul
7 .
di v
coun ter</w>
execu tive</w>
an ces</w>
19 6
coronavir us</w>
contr act</w>
ob served</w>
ml as</w>
schem es</w>
proced ure</w>
mo del</w>
mess eng
ri es</w>
cl es</w>
ch e
t uring</w>
da ily</w>
ain s</w>
noti fication</w>
ra in</w>
isl am
publ ished</w>
re r</w>
h en
ro les</w>
ans wer</w>
ap ex</w>
ic ity</w>
pen ding</w>
al one</w>
h ours</w>
buil t</w>
ir s</w>
off er</w>
cra ft</w>
l uc
m its</w>
2 8
gu p
addres sing</w>
ra o</w>
appropri ate</w>
chec k</w>
sto p</w>
ta x
pho to</w>
w on
ic k
th i</w>
passeng ers</w>
h r
indi ans</w>
mu sic</w>
industri es</w>
fri end</w>
sch edul
rej ected</w>
regi onal</w>
foun dation</w>
sel ection</w>
pro posed</w>
b att
techn ical</w>
in ste
de dic
br an
ach ing</w>
nei gh
il ing</w>
u su
sc en
exist ing</w>
un it</w>
p ac
t ol
hu man
mar ried</w>
m ach
pha se</w>
ch hat
201 3</w>
ann ing</w>
kol k
san c
n al
o ther
vis i
continu ed</w>
s we
i. e.</w>
pic ture</w>
duc tion</w>
tal k</w>
we red</w>
s ource</w>
ra k
bro thers</w>
s -
f ted</w>
de plo
ther n</w>
le vel
ish ing</w>
gre ater</w>
fun ds</w>
sho ws</w>
m ir
gri ev
ti ves</w>
eff ective</w>
di se
in nov
ei ght</w>
musli ms</w>
vir al</w>
constitu ency</w>
bl ack</w>
nam es</w>
en ting</w>
wic kets</w>
jo ined</w>
la id</w>
k ap
in struc
ver si
vi jay</w>
ar rest</w>
raj nath</w>
d ha</w>
clu sion</w>
clear ly</w>
jhar khand</w>
e ts</w>
demo cr
chhat tisgarh</w>
be au
re venue</w>
port ers</w>
cro res</w>
se x
ab s
on ic</w>
com man
infl u
munic ip
u g
ar ch
ag ram</w>
pre par
impro ve</w>
th i
b ac
ma ha
ex change</w>
n ings</w>
bri tish</w>
accoun ts</w>
2 3
syst ems</w>
con sequ
r ise</w>
b b
re ti
o d
kolk ata</w>
tion ing</w>
wat ch</w>
mor ning</w>
chin ese</w>
y our
l ines</w>
al though</w>
orig inal</w>
fi f
wor ship</w>
sho wn</w>
in quiry</w>
tri ed</w>
spe ed</w>
g reg
tur ned</w>
net work</w>
a wards</w>
pol l
hand ed</w>
a im
sa ve</w>
ro om</w>
we d
l er</w>
inste ad</w>
f -
respon sible</w>
19 5
anti -
am i</w>
streng th</w>
mag ist
re ference</w>
lit er
tain ing</w>
popul ar</w>
gra du
import ance</w>
sol di
dise ase</w>
imp act</w>
re ply</w>
afore said</w>
s ons</w>
it er
dest ro
cha n</w>
wha te
schedul ed</w>
c au
as su
gi ves</w>
americ an</w>
whate ver</w>
su sh
decis ions</w>
it es</w>
n er
pro ved</w>
appro val</w>
em pha
gu il
ch em
r o</w>
appro ach</w>
tal ks</w>
individu al</w>
ir an</w>
a .
k ings</w>
regist ration</w>
y ers</w>
ran ge</w>
pro test</w>
ag ue</w>
road s</w>
fe der
dev i</w>
v ation</w>
sec tions</w>
al low</w>
w a</w>
com pared</w>
e vil</w>
pw -
shi v
ke eping</w>
on i</w>
be y
ann ual</w>
lead ership</w>
spe ak</w>
del ines</w>
bene fic
custo dy</w>
b ach
20 0</w>
sid es</w>
doub t</w>
pre ven
c r</w>
cric ke
ici de</w>
bor n</w>
part nership</w>
commer ce</w>
n ir
hol ders</w>
organis ation</w>
advoc ate</w>
v ent</w>
fri end
certain ly</w>
confir med</w>
ra pe</w>
dav id</w>
pakist ani</w>
cc i</w>
po sts</w>
sha h
p aul</w>
s la
u k</w>
insur ance</w>
sho ot
ra ther</w>
ut es</w>
j ag
com pe
terror ists</w>
gov t</w>
fo rest</w>
expres s</w>
9 .
atten tion</w>
ar gu
in c
pro per</w>
phys ical</w>
commer cial</w>
3 5</w>
lab our</w>
trans fer</w>
in side</w>
le av
201 2</w>
pot ential</w>
inst agram</w>
re al
n one</w>
gi c</w>
re member</w>
tic ally</w>
pres cri
de leg
maj ority</w>
belie ved</w>
m ec
b on
mo di
ong s</w>
cle an</w>
3 1</w>
an il</w>
gi es</w>
ou l
see k</w>
sa d
requ e
co vered</w>
a st
fe bru
promot e</w>
pres sure</w>
fel t</w>
bil ateral</w>
i ka</w>
christi an</w>
initi ative</w>
w ants</w>
ou d</w>
ad i</w>
d ay
t ell
gup ta</w>
j d</w>
pas s</w>
ex hi
ac tually</w>
gh an
pro duce</w>
traff ic</w>
p es</w>
i v</w>
de a
m c</w>
ba il</w>
w ish</w>
corru ption</w>
de mon
moder n</w>
fin e</w>
c .
tra vel
sho t</w>
ak sha
8 0</w>
gn ed</w>
pow ers</w>
equ al</w>
febru ary</w>
exc ell
n e</w>
neigh b
ex pl
increas ing</w>
aw are</w>
inde pend
under way</w>
sto od</w>
co al</w>
signific ant</w>
ra tive</w>
organ ised</w>
regul ar</w>
program mes</w>
tem per
c o</w>
ste el</w>
cere mony</w>
bey ond</w>
2 7
off ered</w>
f ans</w>
al most</w>
ple a</w>
esti m
cas t</w>
cent res</w>
or ies</w>
5 0
not ed</w>
ut tar
pl anning</w>
te dly</w>
is es</w>
se tting</w>
d in</w>
am an</w>
under standing</w>
enti t
fa ir</w>
du le</w>
2 9</w>
deman ded</w>
sec on
ur ged</w>
k ash</w>
pur su
2 ,
8 .
li ghts</w>
wh ite</w>
200 9</w>
disc lo
pic tures</w>
n u
dow n
clo sed</w>
tra vel</w>
un its</w>
we stern</w>
reco very</w>
re pe
r ates</w>
challeng es</w>
l ad
lear n</w>
g ree</w>
bach chan</w>
wor th</w>
vie ws</w>
a tic</w>
id u</w>
spe ech</w>
odi sha</w>
st y
ter ror</w>
u ti
a yo
prop he
vi de</w>
al ty</w>
avo id</w>
spokes person</w>
do es
im pu
su icide</w>
happ en</w>
pi on
as ho
ris k</w>
v id</w>
k at
b ir</w>
d p</w>
pr a</w>
h on</w>
na idu</w>
read ing</w>
mal ay
v an
2 6
o s
dh oni</w>
four th</w>
sel ected</w>
democr acy</w>
bas ic</w>
hou se
c p
compen sation</w>
or i
9 0</w>
m ent
sa fe</w>
exten ded</w>
b a</w>
at tr
ess ential</w>
gre en</w>
dismis sed</w>
al d</w>
discus sion</w>
li st
ogra ph
separ ate</w>
ec ting</w>
particul arly</w>
exam ined</w>
tel angana</w>
inter net</w>
agricul tural</w>
fac ing</w>
p ath</w>
tit ude</w>
op ening</w>
st ations</w>
is ation</w>
t op
min imum</w>
vic tory</w>
sust ain
resp ective</w>
d ang
201 1</w>
e yes</w>
a .</w>
chop ra</w>
publ ic
krish na</w>
agre ed</w>
russi a</w>
loc k
me h
particip ated</w>
uc k</w>
ag encies</w>
ad ha
re stric
hol ds</w>
cri tical</w>
boo ks</w>
with dra
go a</w>
communic ation</w>
p har
co ver</w>
petro l</w>
eas y</w>
th ous
mu kh
did nt</w>
as si
r ying</w>
b cci</w>
no. 1</w>
ach es</w>
jap an</w>
r ich</w>
recei ve</w>
appell ants</w>
lo an</w>
k i</w>
g or
tal king</w>
num bers</w>
cu t</w>
claim s</w>
go es</w>
sen d</w>
kno ws</w>
pl ant</w>
magist rate</w>
cl ass
re fl
tra ins</w>
lig ence</w>
gir ls</w>
bro ad
ve er</w>
vill ages</w>
bil lion</w>
coll abor
af ghan
te sts</w>
accep t</w>
a tion
rel ating</w>
righ te
fi gh
surve y</w>
manufac turing</w>
sel y</w>
pro motion</w>
requ est</w>
streng th
st ock</w>
air craft</w>
ish es</w>
remain ed</w>
de gree</w>
recei ving</w>
injur y</w>
re public</w>
ev ents</w>
thous and</w>
ko re
impu gned</w>
c up
f em
sen se</w>
retur ned</w>
ty pe</w>
b ho
r at
desi gn</w>
d al</w>
stud ent</w>
au tom
cr is
g y
confi dence</w>
accord ingly</w>
u ally</w>
gui delines</w>
ex plo
vis ited</w>
au di
buil d</w>
ti al</w>
st one</w>
pos es</w>
en ough</w>
su pra</w>
it or</w>
educ ational</w>
l ess
f lo
gener ation</w>
ch ou
elec ted</w>
sug ge
ju n</w>
respon ding</w>
ul ar</w>
n ic
sc ale</w>
m .</w>
do cu
di es
p ain
str ong
ur u</w>
ple ase</w>
nor mal</w>
al o
4 5</w>
f resh</w>
p -
al ter
docu ment</w>
de v</w>
gro wing</w>
tre ated</w>
sin ha</w>
princi ples</w>
chan di
lan ka</w>
sch ar
fil led</w>
tar get</w>
joh n</w>
ar ab
t ect</w>
g un
di schar
nc p</w>
pl ans</w>
assess ment</w>
mec han
sist er</w>
d ance</w>
en han
th ak
bre ak
jo in</w>
ip c</w>
op ened</w>
post -
a jay</w>
plat form</w>
ne arly</w>
max imum</w>
me an</w>
christi ans</w>
arbit r
resp ectively</w>
uttar ak
su d
play er</w>
g au
fal se</w>
bo x</w>
son ia</w>
the e</w>
engine ering</w>
aver age</w>
we ap
dies el</w>
certific ate</w>
c at
ag o</w>
aksha y</w>
ash ed</w>
spirit ual</w>
th ar
cas h</w>
pro ve</w>
en try</w>
u ra
initi ated</w>
we al
b ase</w>
him achal</w>
remain s</w>
ru kh</w>
ra di
pri mary</w>
bi ggest</w>
main tain</w>
si x
u red</w>
ze aland</w>
propos al</w>
promis e</w>
d le</w>
ha m</w>
entit led</w>
ar vind</w>
them .</w>
il legal</w>
afghan istan</w>
2 9
uttarak hand</w>
b oun
r ound</w>
te sted</w>
peti tions</w>
mat ches</w>
ad d</w>
or dered</w>
suff icient</w>
disci pl
ver ily</w>
con st
&apos; ble</w>
parliam entary</w>
bs p</w>
li es</w>
e ful</w>
yo ga</w>
run ning</w>
comm and</w>
o logical</w>
ac tors</w>
pra kash</w>
.201 7</w>
s en</w>
loc ation</w>
cli mate</w>
pl ays</w>
contribu tion</w>
thr ough
rec ru
m am
complet ely</w>
fac ility</w>
c er</w>
scri p
atten d</w>
fir m</w>
me etings</w>
st -
re rs</w>
201 0</w>
m el
facil it
war i</w>
initi atives</w>
ex plain
con tem
tit le</w>
heav ens</w>
inter nal</w>
3 2</w>
hospit als</w>
coun tr
care er</w>
vi a</w>
u d</w>
r oun
it able</w>
er ous</w>
subsequ ently</w>
ap p</w>
car ry</w>
jour nal
ic c</w>
eli gi
r ally</w>
co ver
s le
ad ver
min ent</w>
asho k</w>
b in
ne pal</w>
arri ved</w>
fac e
recomm end
devel op</w>
applic ations</w>
200 8</w>
st op
sk ill</w>
writ ing</w>
there in</w>
assist ant</w>
lon don</w>
jan ata</w>
rs .1
pp ing</w>
i pur</w>
n u</w>
v il
recor ds</w>
per mission</w>
no .1
cont est</w>
pan demic</w>
electr icity</w>
do w</w>
resol ution</w>
al -
municip al</w>
con clud
awar ded</w>
an and</w>
pre mi
pris es</w>
k y</w>
panchay at</w>
a post
th -
ol y
adv an
pri or</w>
stan ds</w>
k in
streng then</w>
s war
sche dule</w>
b ay</w>
op pos
tri c</w>
li qu
co ach</w>
suppor ted</w>
spo ke</w>
dea ths</w>
ad ed</w>
w as
n it
organiz ation</w>
s ri
c s</w>
p on
shoot ing</w>
becom es</w>
tour nam
r bi</w>
mom ent</w>
.201 6</w>
nam ely</w>
soldi ers</w>
other wise</w>
al led</w>
fe e</w>
pap er</w>
tu red</w>
deep ika</w>
mic ro
extre mely</w>
distribu tion</w>
si gn</w>
f ying</w>
bre ak</w>
some one</w>
ide a</w>
fil ing</w>
for th</w>
charac ter</w>
com petition</w>
ho ly</w>
for tun
stat ements</w>
arm ed</w>
ou red</w>
ser i
organ ized</w>
sum mit</w>
independ ence</w>
s ong</w>
sub stan
re st
f it</w>
s mo
represent atives</w>
am it
in tel
en tered</w>
ab h</w>
reli ance</w>
po sted</w>
ser ving</w>
e at</w>
fe el
n d</w>
don ald</w>
appe ars</w>
li ber
p ti</w>
associ ated</w>
k es</w>
g ap
stand ard</w>
ear th
so li
sha res</w>
gre at
simil arly</w>
ann i
g ad
complain ant</w>
sel f-
lear ning</w>
gen cy</w>
7 5</w>
in ning</w>
ver sion</w>
cre ation</w>
achi eve</w>
vot e</w>
pro tect</w>
beng al
deplo yed</w>
mean ing</w>
citiz en
prac tice</w>
s man</w>
f le
depart ments</w>
k er</w>
le ague</w>
stand ards</w>
per f
ge dly</w>
d ary</w>
concer n</w>
un less</w>
pris on
as i</w>
alle gedly</w>
sac ri
through out</w>
m s
s ach
level s</w>
as e
r ou
t ata</w>
f it
vot es</w>
g al
t in
lat est</w>
attac ks</w>
mar kets</w>
intro duced</w>
yo gi</w>
s in</w>
form ation</w>
si onal</w>
leg isla
d in
cop y</w>
an -
consider ing</w>
iz e</w>
k .</w>
fi xed</w>
sur vi
he ar</w>
lo ad</w>
gu n</w>
institu tion</w>
st ly</w>
3 3</w>
s per
administ rative</w>
er ror</w>
c alls</w>
appe ar</w>
shar ing</w>
n an
celebr ated</w>
m .
m ac
re duce</w>
me tr
hou sing</w>
d as</w>
w at</w>
sec tors</w>
mis hra</w>
1 -
th a</w>
asi an</w>
ess ed</w>
indi a-
ali zed</w>
lock down</w>
corpor ate</w>
gu ard</w>
poin ted</w>
pa k</w>
le um</w>
t .
a vi
ses sions</w>
ref used</w>
ja it
red dy</w>
sun il</w>
si t</w>
ob serv
us ers</w>
con greg
g en</w>
ple as
we a
har i</w>
victi ms</w>
sex ual</w>
im ran</w>
t ex
prescri bed</w>
res c
produc t</w>
r d</w>
ah med
pra yer</w>
sil ver</w>
mo ses</w>
hel ped</w>
o di</w>
j ana</w>
effor t</w>
an ci
direc tly</w>
in no
ar un</w>
ren ess</w>
sc c</w>
chand ra</w>
develop ing</w>
cou ple</w>
del ay</w>
z ation</w>
th ro
terror ist</w>
is tic</w>
d al
n uc
i ve</w>
k are
ev ening</w>
mu k
g t
- in-
awa reness</w>
you .</w>
j as
mu hammad</w>
equ ip
suff ered</w>
200 7</w>
ent re
f led</w>
stri ke</w>
t we
it ory</w>
b id
pat i</w>
princi ple</w>
doc tor</w>
car rying</w>
ur i</w>
j it</w>
200 6</w>
weal th</w>
m c
f ran
face book</w>
b and
resi dent</w>
su s</w>
sho p</w>
sol ar</w>
mo ving</w>
innov ation</w>
l al
progra m</w>
petro leum</w>
oc cup
coll ec
asi de</w>
ab sol
poll ution</w>
st ak
sy m
pass ing</w>
pre ne
guil ty</w>
cris is</w>
langu ages</w>
bir th
o logy</w>
p m
reason able</w>
f s</w>
d y
m ar</w>
le ts</w>
deci de</w>
en able</w>
heal thy</w>
ud din</w>
fac ed</w>
pen sion</w>
ban erjee</w>
conn ected</w>
ph il
co vid</w>
tr ac
some times</w>
ac compan
em p
kar an</w>
correc t</w>
citizen ship</w>
inde x</w>
stu dies</w>
el l</w>
i e</w>
hear ts</w>
amit abh</w>
1 .0
proper ties</w>
quar ters</w>
her it
ud i</w>
dr .
inter view</w>
di e</w>
mar ke
vers ary</w>
su per</w>
dic t</w>
z a</w>
chandi garh</w>
su gg
fa ith
2 -
par k</w>
sub mit</w>
entre prene
nuc le
mukh erjee</w>
dh u</w>
scienti fic</w>
implem ented</w>
o x
ke e
inv ited</w>
id ance</w>
equ i
ar jun</w>
per man
sugg es
2 nd</w>
m er</w>
v as
pre vent</w>
min or</w>
s i</w>
resc ue</w>
win ning</w>
sco red</w>
scre en</w>
bal ance</w>
gra m</w>
or a</w>
3 6</w>
l ink</w>
ot ted</w>
n r
in ated</w>
acti vity</w>
beau ti
p a</w>
g ol
addres sed</w>
aff id
m ist
demo cra
ar a</w>
gang a</w>
4 7</w>
5 -
affid av
ri d
vi k
tw o-
follow s</w>
ra il</w>
sim ple</w>
sustain able</w>
ga tive</w>
in nings</w>
pra dhan</w>
o se</w>
ab il
thak ur</w>
im posed</w>
tournam ent</w>
fr ance</w>
ex tent</w>
h is
bloc k</w>
temper ature</w>
accord ance</w>
mon itor
sever e</w>
chr ist</w>
3 4</w>
jait ley</w>
um ents</w>
hi r</w>
tr i</w>
vo ice</w>
cha ired</w>
p c</w>
ali ties</w>
pr an
ing ing</w>
c ut
re vol
fe ature</w>
monitor ing</w>
c k</w>
o bli
legisla tive</w>
govern ance</w>
part ner</w>
fin ally</w>
reque sted</w>
en quiry</w>
rupe es</w>
pat na</w>
lo gies</w>
bengal uru</w>
establ ish</w>
form ing</w>
o be
par ag
ha s
pl us</w>
appe ared</w>
tr uck</w>
il e
200 5</w>
uni que</w>
where as</w>
kar i</w>
continu es</w>
thre at
adit yan
particip ation</w>
clu sive</w>
anni versary</w>
cle an
constitu tional</w>
con clusion</w>
seri ously</w>
i x
pri ority</w>
. in</w>
twe et</w>
en for
fin ding</w>
sit ting</w>
ger many</w>
con f
a id</w>
sou l</w>
remain ing</w>
pe ac
jour ney</w>
mar ked</w>
ac a
ch ur
hon our</w>
mo d
ex pen
n ine</w>
4 8</w>
c ant</w>
k en</w>
se x</w>
fem ale</w>
ade qu
a ap</w>
tain s</w>
san ds</w>
li c</w>
ali an</w>
ce o</w>
descri bed</w>
fel l</w>
n i</w>
j it
tri bal</w>
h .</w>
judg es</w>
b ot
loo ked</w>
i de</w>
immedi ate</w>
jo bs</w>
cont en
cel l</w>
anci ent</w>
sub- section</w>
an ush
where in</w>
dedic ated</w>
de y</w>
p. w.
beg inning</w>
kare ena</w>
n y</w>
ow ner</w>
re pl
mo u</w>
no body</w>
par ti
sach in</w>
serv ants</w>
la h</w>
cre ating</w>
and ed</w>
post mortem</w>
con dem
discus s</w>
g le</w>
bha g
c in
susp ended</w>
happ iness</w>
be ha
reser ve</w>
esh war</w>
tra ditional</w>
anush ka</w>
l led</w>
in ations</w>
pre mis
ma hat
head ed</w>
al ised</w>
do or</w>
w ers</w>
ra i</w>
ag ar
vi jay
disa ster</w>
f low
consum er</w>
t our</w>
ess or</w>
decl ar
thou sands</w>
bha tt</w>
t elec
democra tic</w>
sub si
valu es</w>
ko vind</w>
a po
individu als</w>
sust ained</w>
smar t
3 7</w>
adityan ath</w>
na tive</w>
on going</w>
mo ham
inter ven
multi ple</w>
n on</w>
f c</w>
a x
dee ds</w>
v oc
euro pe
de sign
u .
p ts</w>
mil k</w>
sty le</w>
mid dle</w>
el se</w>
wha t
cont ext</w>
p and
im age</w>
a u</w>
&apos; re</w>
ex -
su c
gu idance</w>
3 ,
guar an
cro w
diffe ren
s is</w>
co oper
wed ding</w>
cha p
w ash
en em
applic able</w>
stru gg
f la
nav y</w>
sent ence</w>
we ight</w>
t ask</w>
di vi
sch ol
dev ot
t esti
sett led</w>
compu ter</w>
ha th</w>
ch i</w>
terr itor
fa il
as tic</w>
20 00</w>
diffe rence</w>
vir us</w>
tr ack</w>
batt le</w>
p f</w>
b hu
k g</w>
fer ring</w>
worl ds</w>
col leg
pro cu
bhar ati
coun ter
con ve
ahmed abad</w>
man mohan</w>
ex port</w>
ac her</w>
estim ated</w>
attem pt</w>
pur i</w>
mer cy</w>
mahat ma</w>
messeng er</w>
ran veer</w>
strate gic</w>
peo ples</w>
entreprene ur
speak er</w>
cont act</w>
asp ects</w>
el ess</w>
exper ts</w>
em ed</w>
f light</w>
sol ution</w>
colleg es</w>
y or
3 00</w>
constitu ted</w>
figh ting</w>
wee ks</w>
gt ;</w>
& gt;</w>
me gap
suff ering</w>
lak hs</w>
eng aged</w>
inspec tor</w>
rul ing</w>
commit ment</w>
t ext</w>
megap ix
n ab
en ab
process ing</w>
gre e
bang al
w is
tran sp
na wa
cont ain
med al</w>
i a
ex am</w>
pur a</w>
prote sts</w>
pa war</w>
u ted</w>
for t</w>
cir cul
p ack
k new</w>
am ar
im ag
n ur
k k
l ers</w>
4 2</w>
prophe t</w>
n es</w>
americ a</w>
ra ise</w>
de pos
bha van</w>
scienti sts</w>
bharati ya</w>
v acc
tele vision</w>
bat sman</w>
a ar
exp end
le ment</w>
c a</w>
g ate</w>
ann a</w>
can cer</w>
s li
pan dey</w>
there of</w>
kap il</w>
har d
al u
manag ing</w>
ro y</w>
nucle ar</w>
ra d
go d
bha i</w>
b rah
ban king</w>
deta iled</w>
abs ence</w>
inaugur ated</w>
cor responding</w>
speci fied</w>
si ze</w>
birth day</w>
pr oud</w>
cro ss
sr in
shi fted</w>
gh ty</w>
asse ts</w>
es cap
recru it
op e</w>
ra ins</w>
cl in
l am
terr itory</w>
so f
inci dents</w>
equip ment</w>
re forms</w>
expend it
w ishes</w>
intere sts</w>
con fl
mot or
jus ti
regist er</w>
wea ther</w>
intel ligence</w>
iz ation</w>
re ments</w>
dri ve</w>
e es</w>
fer ti
emer gency</w>
th inking</w>
9 9</w>
ys is</w>
obj ective</w>
se ment</w>
raj iv</w>
particip ate</w>
dam age</w>
u es</w>
direc tor
luc know</w>
ha ps</w>
wa ste</w>
mo de</w>
na m</w>
indi es</w>
pris ing</w>
re moved</w>
tr ou
de but</w>
pro of</w>
is ition</w>
j er
appl ied</w>
k har</w>
vol un
f ren
cro ss</w>
cr ude</w>
adop ted</w>
vill ag
vis h
cl ari
ren der</w>
al ong
compl ex</w>
mo hammad</w>
megapix el</w>
bo y</w>
pre -
bri dge</w>
p h</w>
re ality</w>
us er</w>
sha n</w>
form ul
. .</w>
year -
mater ials</w>
pur poses</w>
l ack</w>
ing u
metr o</w>
anal y
ra inf
r ss</w>
g ul
discus sions</w>
par am
me rely</w>
assu red</w>
fe ren
she et</w>
ti v
en s
ne ar
accompan ied</w>
beauti ful</w>
manag er</w>
vie wed</w>
go al</w>
4 4</w>
val ley</w>
arm s</w>
usu ally</w>
em a</w>
stak e
al ist</w>
en counter</w>
sen si
super inten
z ing</w>
pati ent</w>
loc k</w>
it ems</w>
ne gative</w>
stop ped</w>
fil m
cricke ter</w>
perman ent</w>
be ar</w>
b ound</w>
pi ec
moham med</w>
yo jana</w>
5 5</w>
speci fic
high ways</w>
fun dam
versi ties</w>
thre at</w>
so ever</w>
arrang ements</w>
ut ory</w>
li ons</w>
k un
thre e-
re porters</w>
re duced</w>
li fe
br inging</w>
bran ch</w>
ac tual</w>
deleg ation</w>
bu re
il a</w>
pl ants</w>
am ir</w>
ad es</w>
pun e</w>
custom ers</w>
es sion</w>
e th</w>
adv ant
ro b
recruit ment</w>
europe an</w>
k au
u tions</w>
y a
per haps</w>
ack er
dou ble</w>
smar t</w>
pol ling</w>
mis sions</w>
dau gh
ni tish</w>
cont ended</w>
al ism</w>
s old</w>
op tion</w>
situ ated</w>
rainf all</w>
becom ing</w>
it ors</w>
3 8</w>
premis es</w>
promis ed</w>
wr ite</w>
di pl
k ill</w>
hel ps</w>
sist ers</w>
prac tices</w>
ch i
techno logies</w>
li e</w>
requi rement</w>
beha vi
arti cles</w>
3 70</w>
gr ounds</w>
sp here</w>
promot ing</w>
eng ine</w>
employe e</w>
dist ance</w>
fam ous</w>
th acker
polic ies</w>
c b
transp a
f ts</w>
com pre
p p</w>
te acher</w>
k har
expendit ure</w>
dipl om
the res</w>
sec re
di alo
ay a</w>
than k</w>
ah med</w>
inter pre
f alls</w>
por tion</w>
as ser
provis i
e ye</w>
4 0
we ak
res sed</w>
res ource</w>
af ter
regul ations</w>
f loo
appell ate</w>
resid ents</w>
f ill</w>
am az
affidav it</w>
- based</w>
f as
expres sion</w>
sc ore</w>
cri tic
am bi
pad uk
part ners</w>
m ou
con dol
id am
achiev ed</w>
advis ed</w>
diffic ul
tra pati</w>
f low</w>
connec tivity</w>
ver dict</w>
over all</w>
th u
kore a</w>
i k</w>
advan ced</w>
in i</w>
ne hr
medi um</w>
sho wed</w>
200 4</w>
mal a</w>
col our</w>
bangal ore</w>
direc tions</w>
in ess
ic t</w>
dr inking</w>
su resh</w>
power ful</w>
resid ence</w>
di gn
li mit</w>
yor k</w>
dha wan</w>
deli very</w>
desi re</w>
off ers</w>
declar ation</w>
congreg ation</w>
var dhan</w>
elec tric</w>
is ol
res ur
s n
ris ing</w>
w ali</w>
cont ained</w>
disa p
re move</w>
fren ch</w>
w an
pr ise</w>
pan el</w>
e ded</w>
es see</w>
con sci
sk ip
con serv
uni versities</w>
k ab
har sh</w>
l ying</w>
ous ness</w>
is ha
oppos ite</w>
beg in</w>
ro man
6 5</w>
ev ol
scen e</w>
st ay
purcha se</w>
fu el</w>
v it
integr ated</w>
ha z
squ ad</w>
re ward</w>
lo s
identi ty</w>
skip per</w>
&apos; m</w>
l eng
sugge sted</w>
lo ans</w>
an cy</w>
islam ic</w>
ro yal</w>
ram esh</w>
ing ton</w>
di seas
ve ge
200 2</w>
3 5
fa ult</w>
c alling</w>
ni a</w>
adequ ate</w>
compl i
eligi ble</w>
t ree</w>
prof essor</w>
ph ones</w>
nor thern</w>
fe et</w>
k ot
im pres
ad ju
gad kari</w>
po wered</w>
char ged</w>
bl es</w>
ra v</w>
h es</w>
op en
i ans</w>
off ences</w>
ru p
bus iness
nehr u</w>
wic ket</w>
profes sional</w>
ex plan
b .
af for
c ore</w>
deman ds</w>
di sab
pos s
la u
du l</w>
be at</w>
y u
4 ,
cham pion
paduk one</w>
ab ra
requi rements</w>
ma ster</w>
man tri</w>
er -
.201 5</w>
ie ty</w>
e th
w adi</w>
offic es</w>
inter im</w>
ni tin</w>
d han
h our</w>
re vel
benefic i
manag ed</w>
m ali
an tly</w>
satis fac
ver i
stric t</w>
ta tions</w>
fiel ds</w>
re new
pol l</w>
consi st
trans ferred</w>
inten tion</w>
adver ti
ob tained</w>
ten dul
ho st</w>
ven ess</w>
head quarters</w>
enjo y</w>
u ts</w>
ca ste</w>
pro sper
3 9</w>
thacker ay</w>
establ ishment</w>
par a</w>
st ance</w>
near by</w>
pr int</w>
anal ysis</w>
gr and
obj ect</w>
adv ance</w>
ing .</w>
ordin ary</w>
4 9</w>
mano j</w>
n ic</w>
x i</w>
high ly</w>
mu tual</w>
herit age</w>
v .</w>
year- old</w>
quot ed</w>
sho wing</w>
pro vin
ge ment</w>
dru g</w>
cen ter</w>
z er
dis play</w>
suc ce
v als</w>
goo gle</w>
du m</w>
avi ation</w>
teach ing</w>
d ates</w>
sp ent</w>
defend ants</w>
ann ex
ab road</w>
ton nes</w>
wat i</w>
ch idam
a im</w>
tran spor
cont ent</w>
m ps</w>
ye ster
comm ents</w>
friend ly</w>
happen ing</w>
heal th
lic en
ad mission</w>
st adi
occur red</w>
id a</w>
i ah</w>
sk ills</w>
cy cle</w>
t ren
3 7
ff s</w>
pen alty</w>
attac ked</w>
diseas es</w>
mis sing</w>
wa it</w>
mas sive</w>
e mo
l ay</w>
4 3</w>
new sp
wor shi
decre e</w>
v ent
wr ong
to ward</w>
st an</w>
es day</w>
acqu isition</w>
medic ine</w>
be d
stake holders</w>
chidam bar
no w
em en</w>
mak er</w>
can cel
be l</w>
sho w
go yal</w>
ar un
4 1</w>
stat utory</w>
it ted</w>
organis ations</w>
de ed</w>
ar ily</w>
applic ant</w>
determin ed</w>
deli vered</w>
to m</w>
d ur
see ing</w>
al er
pa in</w>
tor al</w>
am ong
kno wing</w>
s ound</w>
ver ma</w>
cc tv</w>
exist ence</w>
am y</w>
cl ick</w>
exten d</w>
among st</w>
coll ection</w>
mo re
tru ly</w>
sy n
r b</w>
cro s
j u</w>
vis ed</w>
deli ber
pr ised</w>
srin agar</w>
anim al</w>
ill u
strate gy</w>
mam ata</w>
wel come</w>
vi g
hom es</w>
sub mission</w>
boo st</w>
k is
dru gs</w>
win dow</w>
the red</w>
does nt</w>
b id</w>
chang ing</w>
did n</w>
marke ting</w>
gr and</w>
e .
newsp ap
op tions</w>
dh ya</w>
jit endra</w>
suppor ting</w>
k illing</w>
citiz en</w>
asp ect</w>
ran bir</w>
sh ops</w>
se ems</w>
mar g
si r</w>
i ved</w>
su spec
z one</w>
long er</w>
mot or</w>
ve ter
c old</w>
at al</w>
4 00</w>
rupe e</w>
sal es</w>
histor ic</w>
x im
com ment</w>
sc ope</w>
avail ability</w>
at mo
el a</w>
pro hi
tendul kar</w>
om s</w>
rel ation</w>
nu tri
ha i</w>
russi an</w>
ph y</w>
invest ors</w>
8 -
comp on
ac ade
fail ure</w>
tra ding</w>
rou te</w>
mi ghty</w>
compre hen
tion ally</w>
port al</w>
b ly</w>
mano har</w>
viol ation</w>
pran ab</w>
gr ants</w>
tion ary</w>
resur rec
explain ed</w>
recommend ations</w>
hur t</w>
por ary</w>
man kind</w>
ch ance</w>
ten ance</w>
righte ous</w>
per form</w>
hindu s</w>
dre am</w>
strength ening</w>
sec ure</w>
cross -
ec tions</w>
me t
r .
au ght</w>
head s</w>
com peti
ug u</w>
c c</w>
proce eding</w>
en h
per formed</w>
j on
divi ded</w>
g g</w>
hun d
anim als</w>
in sp
s al</w>
war a</w>
tom or
shor t
fel low</w>
r on</w>
electr onic</w>
high -
construc ted</w>
re marks</w>
12 4
destro yed</w>
enh ance</w>
m t</w>
j ab
er ial</w>
aca demic</w>
ar g
un able</w>
min ation</w>
fi es</w>
vic e-
influ ence</w>
chap ter</w>
there by</w>
o ds</w>
occur rence</w>
ayo dhya</w>
preven tion</w>
challeng ed</w>
su m</w>
f ish
euro pe</w>
fir ing</w>
f an</w>
i gh
tra dition</w>
pres er
i -
hund red</w>
b hus
ra ble</w>
po ver
comple tion</w>
wa iting</w>
c ot
tel ugu</w>
sp end</w>
him .</w>
quali fication</w>
for um</w>
high ligh
yester day</w>
ri sts</w>
eng ag
dra wn</w>
apost le</w>
er ies</w>
ass essee</w>
lo ved</w>
daugh ters</w>
provisi onal</w>
1 1
phot os</w>
facilit ate</w>
high way</w>
secon dary</w>
o ce
bom bay</w>
ide as</w>
gener ally</w>
sit es</w>
co sts</w>
sa udi</w>
con c
defe at</w>
si ght</w>
pre va
under taken</w>
bi tion</w>
concer ns</w>
4 6</w>
war ning</w>
jo ining</w>
t am</w>
ti ous</w>
jo shi</w>
oper ating</w>
inst ance</w>
qu e
spok en</w>
ch and</w>
tou ch</w>
op posed</w>
ak h</w>
v ad
resol ve</w>
si vely</w>
s er</w>
cho ice</w>
superinten dent</w>
smart phone</w>
me th
cam p</w>
feder ation</w>
jo y</w>
who ever</w>
o h</w>
ch er
post- mortem</w>
tomor row</w>
identi fy</w>
r as
it .</w>
bel ong
initi al</w>
appe aring</w>
aj it</w>
plan ned</w>
health care</w>
hot el</w>
appreci ated</w>
collabor ation</w>
recomm ended</w>
ens uring</w>
trans l
sh r
ash es</w>
your self</w>
lt ;</w>
& lt;</w>
main tenance</w>
fif th</w>
congratul ated</w>
comm unities</w>
pres ently</w>
impro ving</w>
sel l</w>
t ari
eff ici
de signed</w>
chil d
vide os</w>
re ferring</w>
cre d
d c</w>
gu est</w>
stadi um</w>
d .
ri vers</w>
bhus han</w>
disc re
a c</w>
leav ing</w>
l un
nar ay
de pen
ac har
su n</w>
b at</w>
raj esh</w>
le -
challeng ing</w>
a adha
intere sted</w>
rash trapati</w>
s mit
con testing</w>
minist ries</w>
villag ers</w>
dra w</w>
si thar
3 rd</w>
over se
fundam ental</w>
f requ
chidambar am</w>
mo squ
sci ences</w>
on e-
weap ons</w>
du ties</w>
b ing</w>
chou han</w>
pil ot</w>
pro minent</w>
0 -
co ast</w>
noti fied</w>
a amir</w>
sa i</w>
pu s</w>
200 3</w>
conduc ting</w>
fac es</w>
as king</w>
gro w</w>
de tained</w>
re iter
loo ks</w>
cou l
fil es</w>
dr ink</w>
isla m</w>
con spir
off ering</w>
li sted</w>
direc tors</w>
sat ell
car ds</w>
announ cement</w>
pe ter</w>
raj put</w>
not es</w>
main tained</w>
requi res</w>
kam al</w>
shah id</w>
austr alian</w>
ga in</w>
happen s</w>
fi gu
duc ing</w>
sithar aman</w>
ra ti
abil ities</w>
sh el
pover ty</w>
mal e</w>
cy cl
passeng er</w>
abra ham</w>
ir on</w>
tar ge
class es</w>
conten tion</w>
ap ur</w>
mak ers</w>
chan nel</w>
ti s</w>
nr c</w>
concer ning</w>
to -
ex pe
ther ing</w>
re sign
well -
lab or
sof tw
sett lement</w>
arbit ration</w>
liter ature</w>
cont ra
k -
sk in</w>
he at</w>
ren dered</w>
col on
re p
sw ach
f ad
sou thern</w>
gui de</w>
encoura ge</w>
di a</w>
vot ers</w>
sa d</w>
dialo gue</w>
fra me
bel ief</w>
i ii</w>
l o</w>
ap ore</w>
contr ary</w>
ten der</w>
aadha ar</w>
sm t</w>
meas ure</w>
in ary</w>
124 ;</w>
&# 124;</w>
e ds</w>
coll ected</w>
4 -
isra el
dev ice</w>
retur ns</w>
priv ile
mer ci
er o
success fully</w>
pay ments</w>
lin ked</w>
instruc tions</w>
wash ington</w>
tic ed</w>
sh oul
produc er</w>
sush ant</w>
ger man</w>
ev ent
ad mit</w>
y ah
wis dom</w>
stre et</w>
sel ect</w>
bl ue</w>
exec ution</w>
w ala</w>
pen al</w>
mani pur</w>
more over</w>
convic tion</w>
ca uses</w>
im s</w>
deal ing</w>
sug ar</w>
s ans
rela tives</w>
b un
heav en</w>
cha ud
rul ed</w>
.201 4</w>
impro ved</w>
sa r</w>
cor rid
bro ke</w>
pan ts</w>
leng th</w>
r .</w>
em power
sh et
s or</w>
ca a</w>
adv ice</w>
decl ined</w>
r jd</w>
procu rement</w>
qu anti
execu ted</w>
let ters</w>
writ er</w>
na val</w>
meth od</w>
un known</w>
, 9
sha k
st ati
star ting</w>
cro ps</w>
on ed</w>
initi ally</w>
be gun</w>
ha bad</w>
ul ti
reser vo
k id
bo ss</w>
sk y</w>
swar aj</w>
n da</w>
e ase</w>
compe tent</w>
larg er</w>
gra tion</w>
softw are</w>
vers y</w>
ques tioned</w>
legisl ature</w>
re ar</w>
r ac
contro versy</w>
e v</w>
de sh
te h
th a
fac tors</w>
shar if</w>
empower ment</w>
mus e
sim ply</w>
k u
r out
cau ght</w>
audi ence</w>
chand ra
s log
fa thers</w>
a ur
no. 2</w>
atmo sphere</w>
te es</w>
enter prises</w>
ob vi
pu ts</w>
deb ate</w>
f i</w>
j ac
ban i</w>
perf ect</w>
ab his
regi ons</w>
poli tici
ve re
g an</w>
r um
inv o
r as</w>
im prison
requ ire</w>
min ority</w>
organiz ations</w>
aff ect</w>
vot ing</w>
sat an</w>
tol er
complain ts</w>
it i</w>
explan ation</w>
am bas
re min
stor ies</w>
he k</w>
d nt</w>
for ced</w>
s wit
per mitted</w>
recei pt</w>
k .
i ra
com par
prof it</w>
bus y</w>
sanc tioned</w>
d ens</w>
ambas sad
shan kar</w>
s ongs</w>
de ser
qu ick
sel ling</w>
premi er</w>
h u</w>
vis iting</w>
ty pes</w>
mar i
mo on</w>
5 2</w>
list en</w>
jam es</w>
memor an
ro ll
fin dings</w>
hol der</w>
en su
so il</w>
ter y</w>
hun dre
bure au</w>
-1 7</w>
lad akh</w>
c -
pic s</w>
pra yers</w>
cho ose</w>
el led</w>
ex ports</w>
ow ned</w>
yah we
o .
exam ine</w>
sa if</w>
sw ami</w>
specific ally</w>
b y
th ur
subsequ ent</w>
multi -
ki ds</w>
fur n
ra h</w>
li ved</w>
de st</w>
cancel led</w>
go ti
oun ded</w>
countr ys</w>
wat er
constitu encies</w>
ti vely</w>
r ace</w>
pa rent</w>
chur ch</w>
feel ing</w>
f lood</w>
dam aged</w>
ang er</w>
smit h</w>
pil gri
p it
belong ing</w>
argu ment</w>
-1 8</w>
tol l</w>
cent ur
sing apore</w>
ec ture</w>
bel ongs</w>
te en</w>
bho pal</w>
mar ath
ha b
bat ting</w>
faith ful</w>
sur face</w>
bur den</w>
mes sa
demon str
e gy
p hi
merci ful</w>
5 1</w>
comp as
up to</w>
i .</w>
comprehen sive</w>
201 7
deb t</w>
t ag
inf ection</w>
val id</w>
li z
gr an
v ital</w>
op h
frame work</w>
ref u
indi ra</w>
e dition</w>
co gn
abhis hek</w>
6 -
mil lions</w>
men tion</w>
ra id</w>
enfor cement</w>
collec tor</w>
d g
arch it
ad ding</w>
p in
exten sion</w>
ne goti
the ast</w>
fl ag
categ ories</w>
th or
ti wari</w>
ra vi</w>
sub mits</w>
m ere</w>
j nu</w>
pr on
regul ation</w>
com prising</w>
memoran dum</w>
jo in
sar a</w>
go pal</w>
dra ft</w>
clu b</w>
li able</w>
bab u</w>
mo del
eas ily</w>
law yer</w>
kul deep</w>
pra ise</w>
nav is</w>
cr pf</w>
t aught</w>
kau r</w>
cro p</w>
ch equ
st ating</w>
resign ation</w>
conce pt</w>
200 1</w>
enter tain
conven i
fad navis</w>
pre gn
stati s
sur roun
na ik</w>
var an
satis fied</w>
conclud ed</w>
my self</w>
tre es</w>
cont ains</w>
phil os
en der</w>
n d
a z</w>
appro ached</w>
or ing</w>
i ds</w>
del hi
s bi</w>
sol utions</w>
strong ly</w>
gra de</w>
far m</w>
du tt</w>
au ction</w>
s y</w>
k ers</w>
acade my</w>
pos sibility</w>
advant age</w>
hel l</w>
har ass
b ap
milit ants</w>
defin ed</w>
ha ll</w>
ja ipur</w>
to w
hundre ds</w>
trans actions</w>
pr ic
func tions</w>
repor tedly</w>
ex em
conserv ation</w>
bra tions</w>
8 5</w>
t c</w>
auth or</w>
memor ial</w>
custom s</w>
invest ments</w>
se ts</w>
mem ory</w>
uti li
tro ops</w>
or al</w>
w ind</w>
con ferred</w>
as sum
conven tion</w>
m ass</w>
or ities</w>
un fortun
com e
serv ant</w>
here in</w>
ga thered</w>
pra y</w>
our selves</w>
reser vation</w>
me tho
spec ies</w>
r ina</w>
j in
appro xim
lo se</w>
re ta
bri ef
1 50</w>
partici pants</w>
as ks</w>
yahwe h</w>
se ven
se mi
territor ies</w>
foot ball</w>
inter -
in ner</w>
bil ities</w>
mand atory</w>
disc ri
de posi
can ada</w>
cru cial</w>
compli ance</w>
z i
der ing</w>
dri ving</w>
p an</w>
witness ed</w>
cha in</w>
ari a</w>
ma p</w>
contribu te</w>
n as
min ing</w>
reli ed</w>
ra ising</w>
defe ated</w>
car s</w>
confi dent</w>
f ice</w>
insp ired</w>
out standing</w>
as es</w>
radi o</w>
cele brations</w>
shar ad</w>
p are</w>
ve -
9 -
cho sen</w>
o da</w>
bl ast</w>
gui ded</w>
g ure</w>
in sul
cam er
sing s</w>
ja in</w>
ha bit
ir i</w>
ca sting</w>
ang els</w>
sub scri
in ti
the me</w>
re mem
flo or</w>
under going</w>
3 -
alla habad</w>
st able</w>
leav es</w>
wal k</w>
o .</w>
dro p</w>
we b</w>
varan asi</w>
ab dul
wi de
spokes man</w>
au to</w>
f lights</w>
bu y</w>
spec tive</w>
nir mala</w>
ag ree</w>
environ mental</w>
go als</w>
mah endra</w>
o ath</w>
y am
ut ely</w>
s ang
repres entation</w>
r ice</w>
orig in
you ths</w>
oper ational</w>
fra ud</w>
9 5</w>
co ast
provin ce</w>
kat rina</w>
cour ses</w>
w w
quali fied</w>
prote sters</w>
k ur
bb l</w>
- e-
st am
m ation</w>
5 6</w>
pro gres
pre pare</w>
investig ations</w>
inst alled</w>
resear ch
k y
along side</w>
human s</w>
coron a</w>
5 4</w>
w ill
b es</w>
alter native</w>
el ements</w>
pat ter
im port</w>
p sy
it ely</w>
fra med</w>
ar m</w>
chem ical</w>
main ly</w>
k on
impro vement</w>
f ab
dev endra</w>
mali k</w>
great est</w>
aim s</w>
bj ps</w>
l ar</w>
ca using</w>
l ac
func tioning</w>
.201 3</w>
w all</w>
dom in
us a</w>
ev alu
wh en
strugg le</w>
ex pan
de posed</w>
sh oc
s om
il esh</w>
pap ers</w>
mar ty
repres ented</w>
re vised</w>
k ish
coun t</w>
bo ys</w>
so vere
br ings</w>
visi ble</w>
fru its</w>
reser ved</w>
fic ations</w>
en de
br and</w>
si bilities</w>
bra z
ra y</w>
tex ti
foun der</w>
ro g
pl i
sh ri
5 7</w>
stor m</w>
gri ef</w>
bl ing</w>
av a</w>
gradu ate</w>
confl ict</w>
wom ens</w>
3 6
ar ity</w>
&apos; ve</w>
sing er</w>
tic ket</w>
se g
ir ri
de kar</w>
it al
re mo
ak es</w>
appe als</w>
am ed</w>
tre as
reti red</w>
ga thering</w>
shet ty</w>
se ed</w>
b alls</w>
regul arly</w>
fe at
rap h</w>
effici ency</w>
deposi t</w>
cap able</w>
neighb our
ali zation</w>
no s.
sc am</w>
parag raph</w>
pa ir</w>
benefici aries</w>
inst ant</w>
ch ann
acqu ired</w>
sam aj
k as
cin ema</w>
renew able</w>
tour ist</w>
ja wa
do ers</w>
exp ec
deman ding</w>
at en</w>
when ever</w>
bl es
7 2</w>
farm er</w>
i um</w>
val id
w ay
cl assi
5 ,
y am</w>
re vision</w>
gre es</w>
sm en</w>
elec toral</w>
reservo irs</w>
entertain ment</w>
de tec
sar dar</w>
ho c
ten sion</w>
cont ain</w>
re n</w>
pre li
alla h.</w>
prosper ity</w>
ans wered</w>
va tive</w>
g ar</w>
uti l
testi mony</w>
mp ic</w>
bab y</w>
il er</w>
deli ver</w>
sacri fice</w>
fla g</w>
tab les</w>
assa ult</w>
crow d</w>
hel ping</w>
re duction</w>
.. ..
ro ot</w>
pol y
arun achal</w>
telec om</w>
ja ish
gre etings</w>
f ake</w>
thou ghts</w>
min ary</w>
me ant</w>
ma hin
en ty</w>
mis s
cho w
back ground</w>
b la
var un</w>
re mot
particip ating</w>
th ly</w>
con gres
acti v
fin als</w>
sy ri
ke t
over s</w>
down load</w>
de emed</w>
suff er</w>
t ary</w>
ra wat</w>
p ip
resul ted</w>
dec ades</w>
st ress</w>
no ticed</w>
manufac tu
conn ect</w>
boo ked</w>
go d.</w>
x ing</w>
convic ted</w>
mach ine</w>
mor al</w>
san itation</w>
than ks</w>
im men
f ish</w>
wel com
co ordin
is lands</w>
e ous</w>
ab dul</w>
abs con
be aring</w>
in do
exam ples</w>
director ate</w>
l t</w>
an g</w>
r on
5 8</w>
tri ya</w>
j al</w>
emplo yed</w>
centur ies</w>
la x
lead s</w>
i man
shiv raj</w>
fe els</w>
distribu ted</w>
recogn ized</w>
hoc key</w>
h d
imprison ment</w>
em a
st ressed</w>
d able</w>
achar ya</w>
mer it</w>
v ili
p g</w>
samaj wadi</w>
peac eful</w>
l ap
de ten
ambassad or</w>
investig ated</w>
gur u</w>
ro se</w>
ro c
ra tions</w>
sa v
welcom ed</w>
sa in</w>
st y</w>
belie ves</w>
aler t</w>
institu tes</w>
co m</w>
mechan ism</w>
absol utely</w>
w illing</w>
nor ms</w>
knowle d
dee pak</w>
us al
de grees</w>
k rit</w>
is land</w>
re aching</w>
ra f
den y</w>
or am</w>
electr on
fac tory</w>
tre m
sc ru
jun ction</w>
g ent</w>
inten ded</w>
i as</w>
p ace</w>
val ent</w>
ran a</w>
curren cy</w>
h it
clo sely</w>
campa ign
conspir acy</w>
har mony</w>
d ent
loc ations</w>
et c.</w>
ma il</w>
am id</w>
gar dens</w>
ed ge</w>
prob ably</w>
pul w
e sts</w>
dist ur
tou rists</w>
b is
p sal
mod is</w>
appe aled</w>
s pl
intere sting</w>
indi gen
journal ist</w>
az ad</w>
di wali</w>
u ram</w>
la d</w>
c b</w>
sugges tions</w>
sam ples</w>
j al
jer usal
for get</w>
tax es</w>
ferti liz
sin gh
b en</w>
guaran tee</w>
di an</w>
us al</w>
si a</w>
tu be</w>
im mun
pay ee</w>
b le
min utes</w>
legisl ation</w>
bu tt
buil dings</w>
nawa z</w>
sp on
equ ity</w>
oc cu
st .</w>
z es</w>
ut i</w>
secre t</w>
cal cul
consum ers</w>
an ese</w>
e k
par adi
re pu
tri pura</w>
stre am</w>
exper t</w>
tot ally</w>
h ec
won t</w>
pulw ama</w>
sym bo
oly mpic</w>
dist ingu
disp utes</w>
bi gg</w>
muse um</w>
8 0
co o
exp ect</w>
pr at
ad ing</w>
identi fication</w>
.1 0
disclo sed</w>
ka if</w>
ci vili
don es
ag end
ti ger</w>
in qu
consul tation</w>
ca st
tr in
in dones
clo th
ali ze</w>
m iz
in str
m m</w>
house hold</w>
ad am</w>
sa ved</w>
4 th</w>
tribu te</w>
col um
pac i
fi gure</w>
youn ger</w>
movi es</w>
oce an</w>
stan tly</w>
polic emen</w>
lo k
f ing
am ended</w>
invol ving</w>
tem ples</w>
i el
wor thy</w>
gar den</w>
ex tra
-in- law</w>
devot ees</w>
per ce
reti rement</w>
beg ins</w>
ra vin
histor ical</w>
trans action</w>
ran k</w>
ia f</w>
sans krit</w>
substan tial</w>
j uni
pack age</w>
tra ined</w>
cell s</w>
s low
dol lar</w>
av ed</w>
st ore</w>
ran jan</w>
rash triya</w>
competi tive</w>
preli minary</w>
dischar ged</w>
eff icient</w>
vi c</w>
war m</w>
su b</w>
dis pos
sa hi
199 9</w>
w age</w>
lab ou
a ud
l ord
eff ects</w>
obj ection</w>
th in
gau tam</w>
res or
pre ferred</w>
num erous</w>
am bed
what sa
sm all
an k</w>
li ti
oly m
pat ri
-1 6</w>
highligh ted</w>
her self</w>
gh o
coast al</w>
excell ent</w>
5 th</w>
stra ight</w>
ord ination</w>
ful filled</w>
de fic
y as</w>
att ached</w>
does n</w>
follow ers</w>
cover ing</w>
at titude</w>
engine er</w>
proper ly</w>
li ability</w>
prepar ations</w>
ab hi
199 6</w>
uni vers
quick ly</w>
gr y</w>
recogn ised</w>
corrid or</w>
man ish</w>
see ks</w>
pi y
min e</w>
plan e</w>
hand le</w>
phot ograph
an ti</w>
6 4</w>
mo v
gi ft</w>
worl d
w ins</w>
tw ice</w>
d ry</w>
win ners</w>
sle ep</w>
sor t</w>
satisfac tion</w>
adit ya</w>
state -
resol ved</w>
n and
to ss</w>
rak esh</w>
pu tting</w>
irri gation</w>
disp uted</w>
5 3</w>
veter an</w>
m w</w>
war ner</w>
ak shi</w>
mp tom
ful fil
2017 -18</w>
ten ant</w>
car ri
tion .</w>
raj a</w>
pris on</w>
m d</w>
man n</w>
n on
for giving</w>
whatsa pp</w>
ate ful</w>
indic ated</w>
agend a</w>
sep h</w>
long -
t mc</w>
sec ured</w>
up per</w>
consum ption</w>
argu ed</w>
event ually</w>
dang erous</w>
jo seph</w>
plainti ffs</w>
expl ain</w>
con sent</w>
achi e
join tly</w>
n .</w>
impl ement</w>
ba j
pl astic</w>
approxim ately</w>
ha ir</w>
div ine</w>
is on</w>
respon d</w>
pre ci
e state</w>
bles sings</w>
cam pus</w>
di ag
enhan ced</w>
overse as</w>
lal u</w>
se min
vi ve
pre dic
chair person</w>
ac compl
k ha</w>
pri ze</w>
harass ment</w>
ali ve</w>
bel ong</w>
tro phy</w>
al ing</w>
ai ah</w>
s tic
ex tr
i ya</w>
sensi tive</w>
coura ge</w>
ic it
d ential</w>
de la
gol den</w>
5 9</w>
for d</w>
ende av
achie vement</w>
lit re</w>
bh ut
ex ist</w>
vir tu
ind ore</w>
the at
appe ar
threat ened</w>
c i</w>
ch ri
dra ma</w>
quar ter</w>
emer ged</w>
m o</w>
car b
dev ices</w>
d n</w>
in spi
am ing</w>
f ought</w>
form at</w>
is c
medic ines</w>
sal ary</w>
gan gu
fas hi
tech ni
qu ake</w>
por ted</w>
muk esh</w>
ic als</w>
k ann
mag az
secret aries</w>
ava il</w>
ro ll</w>
bow ling</w>
empha si
app a</w>
is nt</w>
c ad
ar ise</w>
messeng ers</w>
li br
as pi
sun g</w>
continu ing</w>
judi ci
pay ing</w>
i p</w>
ar ora</w>
acc ur
t ant</w>
sush ma</w>
to il
mon day</w>
determin ation</w>
no ida</w>
si kk
pa th
jerusal em</w>
is i</w>
mah esh</w>
4 8
ro id</w>
0 1</w>
ga on</w>
on ged</w>
hon ble</w>
regul atory</w>
m ol
f at
dee ply</w>
bro ken</w>
miss ile</w>
ir a</w>
integr ity</w>
re vi
din esh</w>
posi tions</w>
ris hi</w>
ri c</w>
griev ances</w>
law ful</w>
lak e</w>
mahin dra</w>
fi red</w>
3 8
tre at</w>
philos oph
rap id</w>
squ are</w>
promis es</w>
resurrec tion</w>
associ ate</w>
impl ic
the w</w>
pro to
re viewed</w>
mis sible</w>
li p
sa f
jud gement</w>
ce .</w>
abdul lah</w>
ban ned</w>
20 22</w>
read s</w>
.201 2</w>
ie l</w>
messa ges</w>
et ers</w>
e vi
alli es</w>
son am</w>
sh im
kin ds</w>
under stood</w>
defin itely</w>
pres sion</w>
arab ia</w>
6 7</w>
ay ush</w>
ad s</w>
fri day</w>
si mul
akh ilesh</w>
raf ale</w>
div or
comm it</w>
ab use</w>
la sting</w>
vent ure</w>
celebr ate</w>
piy ush</w>
j et</w>
in ter</w>
t ough</w>
pri de</w>
trou ble</w>
si l</w>
retur ning</w>
re stra
assa ul
mu z
6 2</w>
lo ving</w>
war ned</w>
see ds</w>
7 7</w>
restric tions</w>
a bet
va j
ju ven
v ul
figu res</w>
trans mission</w>
represent ative</w>
pres sed</w>
bhar ti</w>
advis ory</w>
m k</w>
jo har</w>
sat ur
pic ked</w>
pron oun
6 8</w>
ne g
6 3</w>
pre et</w>
vik as</w>
satell ite</w>
sh uk
jap anese</w>
ec o
equ ality</w>
de le
friend ship</w>
tru th
ran i</w>
d ness</w>
akh tar</w>
to wer</w>
per forming</w>
fe es</w>
inno vative</w>
juni or</w>
escap e</w>
travel ling</w>
electron ics</w>
as signed</w>
we ar</w>
is ro</w>
ag ing</w>
por tra
.1 2
li mits</w>
de struc
har m</w>
hon oured</w>
ar am</w>
slog ans</w>
ad ap
so ft</w>
communic ations</w>
ge or
gr ateful</w>
charac ter
te l</w>
rec ording</w>
cr y
cloth es</w>
chr is</w>
p v
main taining</w>
en ess</w>
cir cu
z o
de fault</w>
sacri fic
te ach</w>
benefic ial</w>
gangu ly</w>
experi enced</w>
aim ed</w>
de sc
20 -
ven ka
mar k
const able</w>
orig in</w>
j ava
en tr
br on
than ked</w>
su itable</w>
d at
emer ging</w>
h ang
gr ace</w>
&apos; ll</w>
re ha
ir ani</w>
shi pping</w>
ambed kar</w>
we igh
sikk im</w>
presi dents</w>
a e</w>
see m</w>
g han</w>
cl ash</w>
b ills</w>
allow ing</w>
sy mptom
ra r</w>
fi re
an cies</w>
youn g
um s</w>
venka iah</w>
transpor tation</w>
tit led</w>
gl ory</w>
ex tra</w>
je ws</w>
evi dent</w>
champion ship</w>
dang er</w>
6 0
har y</w>
al am</w>
com for
tribu tes</w>
stat ute</w>
fin ished</w>
ari an</w>
reiter ated</w>
ho t</w>
hy dro
tec h</w>
for gi
us eful</w>
stat ue</w>
mari time</w>
sha pe</w>
appreci ation</w>
9 1</w>
recogn ition</w>
fi ghter</w>
differen ces</w>
chann els</w>
me .</w>
hel ic
sh op
po o
form al</w>
god de
tem porary</w>
te a</w>
alleg ation</w>
med als</w>
wide ly</w>
ed .</w>
br it
univers al</w>
kee per</w>
dr f</w>
2 2
research ers</w>
minist erial</w>
un a</w>
pakist ans</w>
enem y</w>
do ws</w>
min es</w>
9 4</w>
6 ,
helic op
ex clud
produc ing</w>
exc ise</w>
dischar ge</w>
vacc ine</w>
previ ously</w>
gg er</w>
ra gh
no vel</w>
contro lled</w>
ter med</w>
ear ned</w>
var iety</w>
dis posed</w>
st ability</w>
ess ing</w>
we aring</w>
am bani</w>
g dp</w>
discipl inary</w>
const ant</w>
tis m</w>
chaud hary</w>
pra yed</w>
t 20
remot e</w>
p at</w>
under taking</w>
ud dha
pleas ure</w>
in tell
rati o</w>
al location</w>
j p</w>
expan sion</w>
conver sation</w>
st ones</w>
p ted</w>
implem enting</w>
repl ied</w>
consequ ences</w>
tra iler</w>
plo t</w>
fru it</w>
con vin
ari at</w>
accep table</w>
be hold</w>
aff ir
re signed</w>
paradi se</w>
se iz
mo s</w>
in clusive</w>
i b
exhi bition</w>
chem icals</w>
defin ition</w>
remo val</w>
arrang ement</w>
be aten</w>
pi vot
model s</w>
ha ti</w>
ref er</w>
te en
categ or
cla iman
fac tor</w>
co ven
.1 1
to sh</w>
excell ence</w>
af raid</w>
claim ing</w>
allow s</w>
al co
mon soon</w>
au t
sun day</w>
cooper ative</w>
san ction</w>
ne u
java dekar</w>
expen ses</w>
f alling</w>
sub ha
six th</w>
la ya</w>
199 8</w>
afric an</w>
si dhu</w>
pati l</w>
vol u
miz oram</w>
ass es</w>
pivot al</w>
op ens</w>
ad ul
s an</w>
k ir
ja i</w>
chan cell
6 6</w>
we ak</w>
wee k
fl u
diag no
tal ent</w>
sac red</w>
shuk la</w>
nor th-
mani fe
a us
piec e</w>
s d
fa st
el abor
vel i
dest ination</w>
stra y</w>
s and
me gha
ro h
7 8</w>
y iel
mou th</w>
gen u
ai ims</w>
mat thew</w>
hy po
glo b
wha ts</w>
7 1</w>
sp otted</w>
jus tices</w>
inter action</w>
m s.</w>
h c</w>
con feren
201 6
whe at</w>
ger y</w>
de ter
continu ous</w>
ti a</w>
engag ement</w>
vege tables</w>
sto red</w>
ab and
dev o
san deep</w>
qu it</w>
h lot</w>
bro ad</w>
thi k</w>
eli min
9 7</w>
mo stly</w>
st ret
bor ro
uddha v</w>
re ducing</w>
ph ili
p o</w>
bh u</w>
m yan
consci ous</w>
nom ination</w>
ple ased</w>
tu m</w>
isha ble</w>
co ordination</w>
up gra
l or
e ph
c s
cr iter
was nt</w>
ac com
jawa har
im ports</w>
ec h
a sts</w>
m ous</w>
comb ined</w>
kan pur</w>
transpa ren
gan j</w>
scrip tures</w>
and roid</w>
reha bil
world wide</w>
mon thly</w>
sear ching</w>
stay ed</w>
2 50</w>
inv est</w>
symptom s</w>
profes sion
newspap er</w>
mach in
nag aland</w>
meh ta</w>
si kh</w>
li veli
vig il
wi ves</w>
h ill</w>
gr ac
201 8
regi me</w>
g al</w>
fir m
arg uments</w>
go i</w>
d am</w>
an o
k angana</w>
dis believe</w>
bl essed</w>
9 8</w>
visi onal</w>
prepar ation</w>
f ting</w>
exce p
deta il</w>
co l</w>
st oc
plat forms</w>
lic ence</w>
bj p-
w ake</w>
foc used</w>
t ty</w>
et ary</w>
con stantly</w>
up a</w>
s ity</w>
trib es</w>
be red</w>
bus es</w>
co ali
7 3</w>
secret ariat</w>
s enti
g es
mee ts</w>
abscon ding</w>
coll ap
mis e</w>
w ani</w>
dist inc
ro gation</w>
cover age</w>
arbitr ator</w>
ref ers</w>
indo -
lear nt</w>
fa ir
g .
bu m
megha laya</w>
b ond</w>
film maker</w>
h d</w>
st ration</w>
nom inated</w>
k ind
vis its</w>
pr o</w>
nor m
mar ily</w>
6 1</w>
jawahar lal</w>
bow ler</w>
agre ements</w>
mo tiv
qu i
on y</w>
c l</w>
work shop</w>
moun tains</w>
is tics</w>
every body</w>
be y</w>
metho ds</w>
eff ectively</w>
agar wal</w>
7 4</w>
mar uti</w>
condem ned</w>
qu ran</w>
zer o</w>
t ance</w>
olym pics</w>
feder al</w>
cha u
ver ing</w>
bab a</w>
er n
naray an</w>
for give</w>
sh ei
ww w.
sho ot</w>
won der
disci ples</w>
achiev ements</w>
observ ations</w>
fun ding</w>
care ful</w>
g ot
199 5</w>
sti pul
broad casting</w>
per cent
pe t</w>
tra ders</w>
5 ,000</w>
jour nal</w>
6 00</w>
win ter</w>
sh u
v and
vis a</w>
de ad
prosec u
add a</w>
sin dhu</w>
mani f
carb on</w>
affor dable</w>
ar ising</w>
beng ali</w>
transparen cy</w>
deten tion</w>
nit i</w>
m n
leg ally</w>
n is</w>
star ts</w>
mat ely</w>
hus sain</w>
dhar m
y at
tell s</w>
reta il</w>
phar a
condol ences</w>
ma the
7 6</w>
di sh</w>
struc k</w>
loc als</w>
regist rar</w>
ag gres
el er
beau ty</w>
st ake</w>
f all
g ains</w>
for th
public ation</w>
po e
oper ate</w>
dra g
amar inder</w>
deal t</w>
signific ance</w>
your selves</w>
fore ver</w>
ge hlot</w>
ow ners</w>
la h
coali tion</w>
k es
d as
pion e
sen ding</w>
indic ate</w>
behavi our</w>
el ders</w>
discipl ine</w>
att le</w>
7 ,
ir an
camer as</w>
tal ked</w>
ra w</w>
scru tin
liqu or</w>
ko t</w>
b lo
air ports</w>
weap on</w>
process es</w>
gov .in</w>
k en
t ful</w>
mosqu e</w>
fi ve-
col or</w>
dispos al</w>
hear t
determin e</w>
un ve
pun jab
cha k
ber t</w>
difficul ties</w>
consist ent</w>
per taining</w>
new ly</w>
me te
vac ancies</w>
sin s</w>
cross- examination</w>
phar mac
di ble</w>
ad verse</w>
paci fic</w>
fra me</w>
ay ush
lad y</w>
floo ds</w>
n an</w>
los ses</w>
tur ns</w>
e u</w>
w ages</w>
subj ects</w>
il led</w>
du ly</w>
an kar</w>
adju dic
ur ance</w>
comb at</w>
amoun ts</w>
tor ment</w>
re form</w>
appear ance</w>
integr al</w>
gro wn</w>
z z
indones ia</w>
8 1</w>
ul ation</w>
tu p</w>
p. c.</w>
acci dents</w>
fol k</w>
cas u
bh up
com prises</w>
kh ur
experi ences</w>
lat ter</w>
invol vement</w>
ag ra</w>
comman der</w>
labou rers</w>
ch ha
tic kets</w>
sum mer</w>
exp anded</w>
j adha
en vis
2016 -17</w>
n ig
9 6</w>
break ing</w>
tren d</w>
myan mar</w>
bud dh
infl ation</w>
godde ss</w>
gand hi
un believers</w>
ab les</w>
ar ts</w>
an ge</w>
dri ven</w>
bra in</w>
judg ments</w>
ital y</w>
destro y</w>
cogn iz
braz il</w>
asser ted</w>
is ion</w>
wat ching</w>
increas es</w>
il -
con sec
v ast</w>
targe ted</w>
pri marily</w>
di so
su me</w>
sh ut</w>
pass es</w>
in spir
ul ty</w>
k he
y l
susp en
farm ing</w>
199 7</w>
kil om
es is</w>
contro versi
g ear
bas ket</w>
tru sted</w>
po et</w>
li p</w>
commit tees</w>
ans wers</w>
vid y
signific antly</w>
muz aff
de mise</w>
h c-
9 2</w>
volu me</w>
pre sum
ing ent</w>
feel ings</w>
aff ili
t an</w>
tom ar</w>
fit ness</w>
0 8</w>
contain ing</w>
aut onom
3 1st</w>
person ality</w>
contribu ted</w>
ten ure</w>
mem ber
war ded</w>
t ac
sion ate</w>
adv ani</w>
quanti ty</w>
nag pur</w>
propos als</w>
de p
suspec ted</w>
egy pt</w>
bir ds</w>
i it</w>
thu si
ma ur
ma tic</w>
ass ist</w>
manufac ture</w>
p ages</w>
hc- nic</w>
po c
enter ing</w>
shak ti</w>
7 -
en thusi
mic ro</w>
mist ake</w>
p ure</w>
el ev
an an
ter ri
ta ste</w>
ir ing</w>
a ad
ra b
human ity</w>
d den</w>
parti tion</w>
interpre tation</w>
hi malay
sign ature</w>
encoura ged</w>
fo ot</w>
atten ding</w>
ic i</w>
8 3</w>
no on</w>
ver ses</w>
raj endra</w>
di tionally</w>
ro y
addres ses</w>
in si
dar k</w>
je well
delhi -
statis tics</w>
p n
comm en
le ase</w>
appro ves</w>
isol ated</w>
rak sha</w>
bre ach</w>
au t</w>
sub stance</w>
um ar</w>
equ ally</w>
qu ick</w>
di ary</w>
p in</w>
occu r</w>
l iness</w>
am o
presi dential</w>
y ment</w>
ah mad</w>
dev gn</w>
am in</w>
resid ential</w>
ques tioning</w>
investig ate</w>
pre aching</w>
strong er</w>
sh ir
k an</w>
j id</w>
t ali
su ggest</w>
person ally</w>
it ary</w>
bi ke</w>
ch a</w>
gra ins</w>
cp i</w>
ish a</w>
dy nam
war ri
observ ation</w>
am e
vac ant</w>
sc al
que en</w>
p ant</w>
ay am</w>
tow ns</w>
ti sation</w>
shor tly</w>
bron ze</w>
any where</w>
journal ists</w>
el der</w>
sahi b</w>
ha p</w>
fin ed</w>
dro pped</w>
machin ery</w>
0 5</w>
viol ent</w>
ste ve</w>
emo tional</w>
um a</w>
acc eler
percent age</w>
alco ho
mete or
d h</w>
fac ie</w>
soli d</w>
tri x</w>
relation ships</w>
he b</w>
suppl ies</w>
b in</w>
repres enting</w>
exerc ised</w>
wic ked</w>
im ages</w>
sp ac
bow lers</w>
obe y</w>
a wati</w>
swach h</w>
pay able</w>
gu wa
wa ve</w>
a ayo
purcha sed</w>
i or
6 9</w>
coven ant</w>
all ot
st ages</w>
motor cycle</w>
g .</w>
in corpor
2018 -19</w>
s wi
revel ation</w>
n adda</w>
be sto
ob serve</w>
f ed</w>
bur ning</w>
situ ations</w>
r ant</w>
contro ll
fel icit
an k
achiev ing</w>
re jo
har di
gu ration</w>
ud ed</w>
obj ecti
k hat
un g</w>
ou rable</w>
gener ations</w>
entrepreneur s</w>
res cu
co aches</w>
b orders</w>
se es</w>
n p
subha sh</w>
appreci ate</w>
work er</w>
mar ry</w>
u ka</w>
fin ds</w>
custom er</w>
wonder ful</w>
sp reading</w>
chri st
scen ari
gree k</w>
righ tly</w>
na b</w>
ic ici</w>
gen der</w>
de par
uk i</w>
circu it</w>
indigen ous</w>
re bel
ap ple</w>
p w</w>
patter n</w>
star red</w>
z a
protec ted</w>
resul ting</w>
h il
cri mes</w>
8 4</w>
kee ps</w>
t ack
su z
prepar ing</w>
equi valent</w>
ema il</w>
business es</w>
ci vil
vaj payee</w>
laun ches</w>
w rest
chancell or</w>
attem pts</w>
employ er</w>
man ual</w>
rehabil itation</w>
im pe
- up</w>
moder n
constitu te</w>
we b
ser ver</w>
mi xed</w>
comp ul
-1 2</w>
prat ap</w>
p s
under ing</w>
here after</w>
immen se</w>
fashi on</w>
v endra</w>
s day</w>
prin ce</w>
shei kh</w>
lord .</w>
den ly</w>
bro ther
us d</w>
mic ha
vin od</w>
muzaff ar
ha ll
m all
im a</w>
de als</w>
am m
b ited</w>
enti ally</w>
an gry</w>
ind ul
op ti
intell ec
norm ally</w>
her o</w>
re placed</w>
malay sia</w>
o es</w>
shi l</w>
10 .
v y</w>
ac knowled
c ali
pand ya</w>
pain ful</w>
n h
mis hap</w>
forgi veness</w>
bi o
sup porters</w>
kum ari</w>
sol ve</w>
phara oh</w>
ay ur
the ory</w>
ol i</w>
od is</w>
ei gh
c attle</w>
lin ks</w>
def en
it an</w>
di l
any body</w>
kh anna</w>
back ward</w>
wat ch
p ill
conve yed</w>
ms me</w>
empha sis</w>
foun ded</w>
consi sts</w>
sign ing</w>
revol ution</w>
fir st-
libr ary</w>
cal end
tur ning</w>
design ated</w>
aar on</w>
8 2</w>
dis believers</w>
contribu tions</w>
7 th</w>
mad ras</w>
ex ac
ne p
ob ama</w>
nor theast</w>
may awati</w>
199 4</w>
phi c</w>
n ick</w>
bri ef</w>
app ed</w>
organ ic</w>
govern ing</w>
ira q</w>
r ated</w>
9 ,
ell ing</w>
enhan cing</w>
wor st</w>
entrepreneur ship</w>
e ag
bat smen</w>
t ap
sub stitu
re present</w>
ra ma</w>
sen sor</w>
super star</w>
en e</w>
you tube</w>
sugges tion</w>
regar ds</w>
ob tain</w>
-1 5</w>
r in
jadha v</w>
lak sh
at om
h .
consequ ently</w>
cher ry</w>
moun tain</w>
e ating</w>
charac ters</w>
ch it
ulti mately</w>
re in
fiel ded</w>
el ine</w>
small er</w>
p. w
house holds</w>
cum ul
respon ded</w>
accom mo
ch ie
liber ty</w>
r rb</w>
b ha</w>
va st
ro oms</w>
guwa hati</w>
ravin dra</w>
em bar
neighb ours</w>
gener ated</w>
c w
absol ute</w>
hd fc</w>
pa thi</w>
app ing</w>
um ps</w>
su shil</w>
conveni ence</w>
ol der</w>
al ties</w>
o red</w>
vir tual</w>
here in
f un</w>
emphasi zed</w>
advis or</w>
ap uram</w>
per mit</w>
high lights</w>
suspen sion</w>
la undering</w>
wed n
n drf</w>
gro ss</w>
clo ser</w>
dar k
min orities</w>
author ised</w>
min ds</w>
d ab
continu ously</w>
li ke
sam ple</w>
gener ate</w>
o k
aayo g</w>
s d</w>
earth quake</w>
fe ed</w>
cha mp
bi a</w>
is o
w ash</w>
proce ed</w>
8 6</w>
nc r</w>
li a</w>
certific ates</w>
b .</w>
as w
y ot
ra ped</w>
fo rec
com posed</w>
tu esday</w>
scre ening</w>
mis s</w>
cer tained</w>
as certained</w>
je et</w>
au dit</w>
am rit
n .
prosecu trix</w>
progra ms</w>
hardi k</w>
com mand
decl ine</w>
mit ch
lo sing</w>
8 8</w>
re ci
bo y
thur sday</w>
w are</w>
satur day</w>
destruc tion</w>
part ys</w>
out come</w>
four -
intro duction</w>
enti rely</w>
refl ect</w>
mo thers</w>
simul tan
quir e</w>
psy cho
kan th</w>
as set</w>
ga p</w>
dre ams</w>
ric h
ha t</w>
nutri tion</w>
philosoph y</w>
ve di</w>
ex ists</w>
ish ments</w>
inst all
usu al</w>
50 ,000</w>
an x
reve al</w>
labor atory</w>
bhut an</w>
mitch ell</w>
mit ting</w>
bs f</w>
sha re
du res</w>
15 th</w>
par is</w>
att or
applic ants</w>
an tici
subsi dy</w>
mathe ma
pra ised</w>
circul ar</w>
cap tured</w>
mach ines</w>
an ura
9 3</w>
succe ed</w>
g lad</w>
pas wan</w>
indic ates</w>
where ver</w>
ash win</w>
pres ti
contem pt</w>
pres entation</w>
phot ogra
bo ards</w>
it em</w>
dom ain</w>
discri mination</w>
arri val</w>
- 1</w>
micha el</w>
prac tical</w>
man date</w>
gur u
u. s.</w>
en ly</w>
de ar</w>
coun c
ex it</w>
inspi ration</w>
ac id</w>
recommend ation</w>
psal m</w>
socie ties</w>
di sh
foot age</w>
s m</w>
air lines</w>
ag ues</w>
ho li
enjo yed</w>
ve en</w>
m ut
sud denly</w>
pow der</w>
ple aded</w>
judici ary</w>
griev ed</w>
criter ia</w>
du t
cha ir</w>
pos ing</w>
coun ting</w>
om i</w>
8 00</w>
obvi ously</w>
bur nt</w>
all otted</w>
wat ers</w>
fir ms</w>
sent enced</w>
enem ies</w>
v es
acqu itted</w>
ul am</w>
hr d</w>
ayur ve
a stray</w>
vis itors</w>
wil liam
u re
h tt
v end
objecti ves</w>
0 6</w>
k im</w>
th om
he ed</w>
pa wan</w>
jon as</w>
vi r</w>
mal hot
exp and</w>
speak s</w>
199 2</w>
wor se</w>
su kh
he bre
7 9</w>
texti les</w>
fore sts</w>
ang el
8 9</w>
cam ps</w>
sun ny</w>
earli est</w>
f t
a am</w>
rap id
f a</w>
c ited</w>
e ously</w>
no tices</w>
trans formation</w>
semi -
p i</w>
bum rah</w>
10 ,000</w>
justi fied</w>
ro ck</w>
br ics</w>
dign it
tri als</w>
clari fied</w>
withdra wal</w>
tali ban</w>
cre w</w>
ab un
ap r
sal t</w>
ro shan</w>
ex clusive</w>
w ans</w>
ac u
stu died</w>
0 9</w>
tele phone</w>
po on
bon ds</w>
decl are</w>
bi op
au g</w>
amend ments</w>
belie ving</w>
u tive</w>
in stru
child hood</w>
ach ment</w>
o o
ho sted</w>
instru ment</w>
pun ishable</w>
sp ou
kann ada</w>
adop t</w>
obli gation</w>
me tal</w>
up s</w>
me tro
di versity</w>
d na</w>
prec ed
fa il</w>
com memor
law yers</w>
indi rec
ha te</w>
exac tly</w>
as ing</w>
sha mi</w>
vi et
g ained</w>
h ri
pi ons</w>
per si
inter f
exc ited</w>
w ished</w>
pr acti
interf ere</w>
pu sh
care fully</w>
si r
compon ents</w>
cha sti
suz uki</w>
pri ma</w>
sol e</w>
malhot ra</w>
rej ect</w>
fac ulty</w>
b ration</w>
sh rad
stud ying</w>
ra ipur</w>
n l</w>
man i</w>
ig no
h ra
consec utive</w>
vic tor
sen sex</w>
righte ousness</w>
b acc
shi va</w>
f .</w>
ste ad
gran ting</w>
cal cut
dignit aries</w>
wedn esday</w>
to ols</w>
ran kings</w>
autom atic</w>
s par
premi um</w>
du bai</w>
comman ded</w>
iz ing</w>
du r</w>
ba ha
sp ring</w>
p ist
magaz ine</w>
.0 9
im per
inter ference</w>
der ly</w>
s ms</w>
k it
fertiliz ers</w>
ti mely</w>
proce dures</w>
p el
bat tery</w>
te j
brit ain</w>
cot ton</w>
sa ving</w>
calend ar</w>
tur key</w>
sil ent</w>
n is
earth .</w>
bha wan</w>
sh ock</w>
trem end
p y
issu ing</w>
apo log
manif est</w>
ka us
obli g
er .</w>
b are
activ ists</w>
dis played</w>
mo od</w>
ba g</w>
m on</w>
.. ..</w>
ur du</w>
occas ions</w>
mi x</w>
ve .</w>
rapid ly</w>
f isc
ac res</w>
may be</w>
feat ured</w>
di r</w>
occup ied</w>
transpa rent</w>
gi l</w>
acc es
suppl ied</w>
seiz ure</w>
con soli
bi hari</w>
ain ing</w>
p. s.</w>
nation als</w>
. the</w>
expres sing</w>
calcut ta</w>
wor ried</w>
pha ses</w>
limit ation</w>
islam abad</w>
hi dden</w>
bloc ks</w>
oper ative</w>
member ship</w>
f ly</w>
cl er
ev acu
em entary</w>
di et</w>
cb se</w>
exten sive</w>
bal an
im possible</w>
cham pions</w>
hel p
difficul ty</w>
dre w</w>
le gi
in form</w>
sp ending</w>
20 th</w>
mon itor</w>
l -
bow l</w>
over come</w>
h its</w>
cr ash</w>
m ex
depen ds</w>
1 ,000</w>
substan ti
st ors</w>
kum ar
or able</w>
ce l</w>
l ec
em b
poss ess</w>
th west</w>
shrad dha</w>
pregn ant</w>
imag ine</w>
institu tional</w>
gl ass</w>
car go</w>
accoun t
8 7</w>
tw enty</w>
mas ks</w>
fisc al</w>
author ized</w>
equi pped</w>
co vers</w>
respon sibilities</w>
phili pp
pan ch
pilgri ms</w>
ph en
chequ e</w>
b ak
volun tary</w>
mi grant</w>
g all
se aled</w>
ja de
d ges</w>
to ol</w>
b as</w>
.201 1</w>
bag h</w>
vul ner
son akshi</w>
su peri
qu es</w>
marath i</w>
contem pl
b all
di visional</w>
ten nis</w>
po ol</w>
pro ph
glob ally</w>
reli able</w>
valu able</w>
vad ra</w>
engine ers</w>
vice- president</w>
bo se</w>
syri a</w>
k l</w>
com fort</w>
prote sting</w>
virtu e</w>
ch ro
ali as</w>
quar ant
ing -
fran ch
du al</w>
ot ed</w>
il and</w>
12 th</w>
wor ry</w>
ga z
g ade</w>
ash ing</w>
liqu id
scenari o</w>
r are</w>
fav our
mex ic
adverti sement</w>
coul dnt</w>
bl ind</w>
obj ections</w>
go goi</w>
repres ents</w>
hand ling</w>
estim ates</w>
ran aut</w>
are r</w>
fic ial</w>
regul ari
in forman
cont ents</w>
- led</w>
di ent</w>
ograph y</w>
mr .
empha s
cast es</w>
e asi
regar ded</w>
ex .
shi ft</w>
pra bhu</w>
shel ter</w>
ordin ate</w>
s at</w>
8 ,
.0 6
tra ditions</w>
ex act</w>
voc ation</w>
inno cent</w>
comm on
bor ne</w>
go w
fa ul
es sive</w>
d ental</w>
eng age</w>
in cur
dharm endra</w>
surve ill
man age</w>
is a</w>
e minent</w>
ag ent</w>
ji o</w>
n s
bo x
in clusion</w>
compon ent</w>
stre ets</w>
ox y
clean liness</w>
c p</w>
withdra w</w>
bom b</w>
meteor ological</w>
what soever</w>
pri t</w>
pad ma</w>
moun t</w>
hu b</w>
wal king</w>
suppor ts</w>
no s</w>
bl ack
mo tive</w>
d air
attor ney</w>
fl ying</w>
h ans
encoura ging</w>
d ying</w>
archit ecture</w>
6 th</w>
sh ro
ran chi</w>
comb ination</w>
sp ain</w>
end ers</w>
duc ted</w>
licen se</w>
12 5</w>
surveill ance</w>
shar p</w>
electr ical</w>
countr y
sti c</w>
provis o</w>
produc tivity</w>
mar ine</w>
har i
g on
punjab i</w>
sol ved</w>
z ar</w>
ho sti
pu du
profession als</w>
met res</w>
hi de</w>
exam inations</w>
lah ore</w>
jade ja</w>
0 2</w>
st al
re action</w>
me al</w>
arri ve</w>
it ate</w>
di verse</w>
develop ments</w>
di men
secur ities</w>
em powered</w>
appoin t</w>
cap it
inf ected</w>
tri p</w>
tou ched</w>
great ly</w>
gho sh</w>
l ined</w>
prosec ut
pl ain</w>
h vi</w>
bo b
re sist
u plo
sh in
requ is
alcoho l</w>
desi res</w>
cad re</w>
two- day</w>
bi gger</w>
in com
ti k</w>
j ack
exam s</w>
199 3</w>
mo bil
ate dly</w>
tell ing</w>
per spective</w>
sav ings</w>
origin ally</w>
ici ous</w>
geor ge</w>
0 ,000</w>
tar gets</w>
exp and
ten sions</w>
lab s</w>
genu ine</w>
pal ace</w>
mu f
depos ited</w>
dign ity</w>
m b</w>
he ight</w>
in junction</w>
di abet
sud den</w>
w id
administ r
9 th</w>
ra th
ten ed</w>
na u
el ement</w>
ve sted</w>
quar ter
per usal</w>
informan t</w>
y el
amrit sar</w>
to bacc
tobacc o</w>
regist ering</w>
privile ge</w>
in cl
gra ve</w>
ri val</w>
v .
post er</w>
interven tion</w>
inte gration</w>
in- charge</w>
cir cle</w>
pp a</w>
in puts</w>
i ti
z ar
ensu red</w>
bri gade</w>
em is
ba i
under take</w>
mu kh</w>
cricke ters</w>
dis covered</w>
re shi</w>
distingu ished</w>
cr y</w>
valid ity</w>
gre w</w>
ash a</w>
short age</w>
201 9-
ho oda</w>
wor n</w>
sa m</w>
diabet es</w>
z ones</w>
an th
t ally</w>
inaugur ate</w>
bag ged</w>
appl ying</w>
a than</w>
pan ic</w>
ka th
y ag
reve als</w>
per sec
nec k</w>
al located</w>
obj ects</w>
promot ed</w>
e ing</w>
seg ment</w>
attr act</w>
may or</w>
commun al</w>
ple ad
mi grants</w>
is sa</w>
cho se</w>
ha v</w>
l .</w>
for ma
e ye
m as</w>
g ates</w>
2 1st</w>
ic a</w>
cy lin
win ner</w>
out put</w>
le g</w>
finan cing</w>
.0 3
wil d
wa i
photograph s</w>
inten si
0 7</w>
up date</w>
pre judi
rela tive</w>
sh ou
symbo l</w>
politici an</w>
liveli hood</w>
anura g</w>
than k
religi ons</w>
sc ot
assaul ted</w>
strength ened</w>
acti vely</w>
st un
piec es</w>
de -
s ick</w>
b its</w>
de pri
p d
0 th</w>
seven th</w>
plain t</w>
mom ent
c d</w>
s low</w>
panchay ats</w>
establ ishing</w>
ra tional</w>
entr ance</w>
com modi
1 000</w>
schol ar
v is</w>
st on</w>
hon or</w>
o or</w>
re me
e k</w>
re place</w>
k ni
sur prised</w>
str anded</w>
sol om
ag grieved</w>
mot ors</w>
rescu ed</w>
diplom atic</w>
ak bar</w>
pursu ant</w>
de fam
l in</w>
d hi</w>
dec ade</w>
cumul ative</w>
bran ches</w>
at ories</w>
d an</w>
in sec
cros sed</w>
congres s-
tha iland</w>
divor ce</w>
cop ies</w>
s ors</w>
joh n
dist in
volun te
distin ction</w>
con tested</w>
atom ic</w>
k ant</w>
di ver
w i</w>
di c</w>
ap s</w>
stri kes</w>
dur ga</w>
c k
an e</w>
main tain
un identified</w>
tiz ed</w>
pul ses</w>
inv itation</w>
deter ior
enab led</w>
pro file</w>
inspec tion</w>
fa ster</w>
i b</w>
manufactu rers</w>
hindu stan</w>
g ural</w>
commit ting</w>
mil es</w>
fall en</w>
dedic ation</w>
assess ing</w>
termin al</w>
lik es</w>
dri vers</w>
sovere ign
oper ated</w>
j .</w>
issu ance</w>
compas sionate</w>
x i
reme dy</w>
di m
commodi ties</w>
ans ari</w>
.201 0</w>
preci ous</w>
dh pur</w>
am ar</w>
re aches</w>
ke en</w>
fu sion</w>
ish war
1 20</w>
thre ats</w>
ur ge</w>
susp ect</w>
dra wing</w>
198 8</w>
appoint ments</w>
inau gural</w>
techno logical</w>
connec tions</w>
al ists</w>
10 th</w>
prec au
pharmac eu
expres s
cele bration</w>
1 .1
s ist</w>
bad al</w>
unfortun ate</w>
spe e
as sign
critic ism</w>
withdra wn</w>
cy ber</w>
amaz ing</w>
inter ior</w>
n t
ap parent</w>
invol ves</w>
ja wans</w>
gor akh
sub missions</w>
ep iso
k ill
i bra
cul tiv
em br
an ant
eligi bility</w>
ang a</w>
ack ers</w>
extre me</w>
par ade</w>
hi ke</w>
di ves</w>
shro ff</w>
7 00</w>
scri pt</w>
ob a</w>
rec ep
discre tion</w>
congratul ate</w>
tri ple</w>
neighbour ing</w>
subj ected</w>
ano in
theat re</w>
rit i</w>
b one</w>
ation .</w>
re plac
liti gation</w>
cent ers</w>
oper ators</w>
hel pl
adop tion</w>
mis sion
min us</w>
f di</w>
cre ative</w>
cele bri
celebri ties</w>
st ro
ti se</w>
necess arily</w>
v o</w>
m ates</w>
festi vals</w>
ver ies</w>
proto col</w>
li fted</w>
rout es</w>
er als</w>
pe ak</w>
pw- 1</w>
par ri
stay ing</w>
he l</w>
fish er
can cell
gu ards</w>
w ag
er ly</w>
chau han</w>
pre tty</w>
coll ective</w>
ab sor
b bed</w>
st ol
poe try</w>
l rb</w>
u ae</w>
kore an</w>
ang le</w>
th row</w>
dela yed</w>
ide al</w>
has an</w>
c is
rum ours</w>
per pe
jo e</w>
cap abilities</w>
biop ic</w>
pan ka
qu reshi</w>
av es</w>
us .</w>
mal dives</w>
easi er</w>
.0 7
de pending</w>
ran king</w>
bl ame</w>
refu ge
h es
tri pathi</w>
fo ren
air tel</w>
es cal
tremend ous</w>
r at</w>
.0 8
s ory</w>
ho pe
sa ke</w>
depart mental</w>
ser ves</w>
restric ted</w>
g ence</w>
un just</w>
sec ular</w>
l pg</w>
com pos
199 1</w>
ke y
d ust</w>
no. 3</w>
jo t</w>
-1 4</w>
wic ke
ther ap
sm t.</w>
0 3</w>
mur dered</w>
arre l</w>
d ad
accep tance</w>
198 9</w>
mem o</w>
cl ashes</w>
arti ficial</w>
cor ner</w>
open er</w>
instr uments</w>
ass y</w>
end or
aad mi</w>
pe d
201 5
rash id</w>
l .
t s
ta i
expec tations</w>
lar s</w>
si us</w>
exce ption</w>
so m</w>
dr do</w>
v p</w>
kab ir</w>
repe atedly</w>
ch -
bad min
la m</w>
de pendent</w>
ra f</w>
fl at</w>
pursu e</w>
gradu ally</w>
struc tures</w>
an j
associ ations</w>
.0 5
- year-old</w>
k han
cor ro
manufac tured</w>
disclo se</w>
in ser
a ishwar
stric tly</w>
kashm iri</w>
exc ess</w>
bac ked</w>
sovereign ty</w>
ak ed</w>
proce eded</w>
sh re
schol ars</w>
colle agues</w>
in tent</w>
d v
cl ou
who soever</w>
revel ations</w>
badmin ton</w>
pre pa
h ills</w>
veri fication</w>
like wise</w>
ath le
gra titude</w>
fur ther
at tribu
2 ,000</w>
pal est
un cle</w>
a on</w>
pudu cherry</w>
min d
cha t
ban ds</w>
jan hvi</w>
enab ling</w>
com promise</w>
al isation</w>
win dows</w>
jo dhpur</w>
arti sts</w>
wil d</w>
pas sport</w>
chand r
m ill
controversi al</w>
195 6</w>
dep th</w>
no dal</w>
muf ti</w>
rec all</w>
k ms</w>
.0 2
t20 i</w>
sm riti</w>
ca p</w>
bin ding</w>
ho pes</w>
civili an</w>
har a</w>
s is
loc ked</w>
1 1.
champ ion</w>
direc ting</w>
co ff
repe ated</w>
har v
tal uka</w>
arab ic</w>
kis an</w>
quali ties</w>
jewell ery</w>
ban k
sc ra
of -
s l</w>
gan esh</w>
gen e
emp ty</w>
dan iel</w>
sur at</w>
ri d</w>
firm ly</w>
bi ot
t us
sur gery</w>
min im
rele ases</w>
mo ves</w>
smo oth</w>
avo i
ex al
sp an
i re
poo ja</w>
p ical</w>
den cy</w>
apost les</w>
8 th</w>
sl am
mer its</w>
cel sius</w>
m -
cul pr
all i</w>
can e</w>
ab bas</w>
pl ed</w>
ax is</w>
jaish ankar</w>
intellec tual</w>
co w</w>
aishwar ya</w>
enti ties</w>
x ation</w>
ro lled</w>
acc or
performan ces</w>
gra in</w>
pv t</w>
legi ti
di am
ra dha</w>
g -
culpr its</w>
ne er
ed -
na vi
col ours</w>
preva iling</w>
tra ge
it y.</w>
ac le</w>
a g</w>
-1 1</w>
sp inner</w>
vot ed</w>
m ity</w>
anoin ted</w>
-1 0</w>
pati ence</w>
am bul
parri kar</w>
instruc ted</w>
separ ately</w>
pro ver
b h</w>
ni rav</w>
exam ining</w>
shim la</w>
s ali
f ty</w>
out break</w>
la ying</w>
di vid
li eu
accep ting</w>
re stor
conve y</w>
viet nam</w>
lo s</w>
she ep</w>
af ghan</w>
v ati</w>
clin ical</w>
boun dary</w>
12 .
sha l</w>
or issa</w>
m ons</w>
ber g</w>
trans gres
ign or
evalu ation</w>
den ed</w>
larg ely</w>
fab ric
y ar</w>
t age</w>
rec alled</w>
bu t
ur a</w>
re alize</w>
let es</w>
bag s</w>
bat ch</w>
yat ra</w>
prop ag
dist ress</w>
car di
vi z</w>
extra ordinary</w>
clear ance</w>
cre ator</w>
n m</w>
mp h</w>
j .
fo li
dat ab
amaz on</w>
low est</w>
doc tr
re fin
bar ri
l est</w>
m l</w>
h ong</w>
ac hi</w>
o wa
do g</w>
thro wn</w>
tan k</w>
is s</w>
ta k</w>
w ad</w>
repor ting</w>
re mark
do z
depos its</w>
de duction</w>
cen sus</w>
0 1.0
ho sts</w>
bur n</w>
.0 4
v ag
stri ve</w>
conver ted</w>
me ga</w>
consider able</w>
k ak
du es</w>
expl ore</w>
asw amy</w>
vast ava</w>
surroun ding</w>
ici ans</w>
de pic
si bly</w>
incorpor ated</w>
ar ab</w>
pre m</w>
raj e
fre ight</w>
dow ry</w>
char ge
th um
mand al</w>
do ors</w>
in su
ul a</w>
remem bered</w>
no ble</w>
p ink</w>
descri ption</w>
chan ces</w>
tar pur</w>
ran ked</w>
legisl ators</w>
gg ing</w>
ass urance</w>
no ah</w>
m ud
f .
connec ting</w>
0 s</w>
t dp</w>
sha w</w>
pan dit</w>
star rer</w>
jas on</w>
pu ja</w>
produc es</w>
transl ation</w>
whe el
the y
simultan eously</w>
param eters</w>
in put</w>
sn ap
11 th</w>
soldi er</w>
en cing</w>
profes sion</w>
ordin ance</w>
contr acts</w>
k in</w>
acti vis
tr il
on ion</w>
griev ance</w>
bl amed</w>
.0 1
shi khar</w>
kind ness</w>
s now
pun ished</w>
w ings</w>
igno red</w>
es war</w>
conferen cing</w>
con sen
rec over</w>
produc ers</w>
ph s</w>
diso be
0 4</w>
me at</w>
protec ting</w>
n in
ici an</w>
mat ure</w>
kh ans</w>
k ong</w>
gaz et
frequ ently</w>
ibra him</w>
pic k</w>
pm o</w>
hri thik</w>
char ging</w>
di sha</w>
dark ness</w>
administ ered</w>
du o</w>
r ating</w>
mon etary</w>
i er</w>
li am</w>
ath letes</w>
pa thy</w>
sy ed</w>
foren sic</w>
vigil ance</w>
aff lic
re juven
man ship</w>
break s</w>
guil t</w>
30 th</w>
ough ly</w>
in justice</w>
apr il-
mad an</w>
shr ine</w>
ligh tly</w>
ges he
dis rup
atten dance</w>
sur prise</w>
bac ter
al ok</w>
stoc ks</w>
qu al
f o</w>
war rant</w>
odi a</w>
tw el
on .</w>
199 0</w>
laun ching</w>
confir mation</w>
come dy</w>
sen i
nom ine
man dir</w>
recogn ize</w>
depen d</w>
cor in
refl ected</w>
me ters</w>
ti vation</w>
ra ut</w>
char geshe
i k
ed itor</w>
ra wal</w>
comm enced</w>
comp are</w>
shoc ked</w>
se ve
oxy gen</w>
man s</w>
lo aded</w>
min eral</w>
j j
f at</w>
ka il
incom e-
alli ed</w>
alleg ing</w>
j ha</w>
w ounded</w>
teh sil</w>
re ver
inv ite</w>
ran ks</w>
gu ests</w>
um an</w>
rest aur
r ounds</w>
cut ting</w>
2019- 20</w>
cha tur
ad mir
u sage</w>
sugge sts</w>
repu tation</w>
pas sage</w>
gorakh pur</w>
bhag at</w>
0 5
n g</w>
econom ics</w>
i ps</w>
cogniz ance</w>
pass word</w>
ss p</w>
b ent</w>
adv ent
o g
i ghts</w>
an der</w>
photogra ph</w>
iran ian</w>
glo be</w>
demon e
ment .</w>
i o</w>
cre ates</w>
ill ness</w>
every where</w>
vis ions</w>
exhi bit</w>
scho ol
0 8
for warded</w>
worshi pped</w>
pra g
ar cha
str ate</w>
less on</w>
critic ised</w>
vit amin</w>
solom on</w>
devo tion</w>
man j
g ay
mi gration</w>
isol ation</w>
ful fill</w>
2015 -16</w>
wild life</w>
star t-
d ant</w>
func tional</w>
ever lasting</w>
figh ters</w>
fi l</w>
emb assy</w>
cycl one</w>
cap ability</w>
ti er</w>
lo y
compl ic
scrutin y</w>
politici ans</w>
el derly</w>
prof its</w>
201 1
se h
di stan
uni verse</w>
sou rav</w>
net works</w>
ha pat
scienti st</w>
ro ots</w>
fl esh</w>
enti ty</w>
le ela</w>
gi ous</w>
allot ment</w>
sk illed</w>
pri est</w>
under go</w>
certi fied</w>
00 ,000</w>
owa isi</w>
defen se</w>
accur ate</w>
stu di
pro mp
lt d.</w>
hi l</w>
amo ol</w>
on y
mo b</w>
b har</w>
pen sion
lig ent</w>
fisher men</w>
sa gar</w>
ic on</w>
allow ance</w>
str a</w>
vulner able</w>
sup posed</w>
kar tik</w>
income- tax</w>
sa tish</w>
audi o</w>
long- term</w>
expen sive</w>
vari ant</w>
toil ets</w>
r is</w>
bre a
ar ises</w>
sh ut
senti ments</w>
20 21</w>
speci ally</w>
dam ages</w>
ap ar
trin amool</w>
spec tr
he res</w>
autonom ous</w>
ad mit
a o</w>
sha shi</w>
aspi rations</w>
ret ali
pric ed</w>
ob taining</w>
m sp</w>
raj u</w>
arri ves</w>
quot a</w>
ro man</w>
acqu it
exem ption</w>
bel onged</w>
where by</w>
sum mon
prote in</w>
bo w</w>
t ons</w>
for bid
de pend
aff air</w>
stam p</w>
and aman</w>
prosecut or</w>
gri d</w>
coll ision</w>
vie wing</w>
l ment</w>
emp ire</w>
ag itation</w>
after noon</w>
up set</w>
thom as</w>
b o</w>
newspap ers</w>
rel ates</w>
phen om
le vi
inc enti
sam aj</w>
com petitions</w>
boun dar
malay alam</w>
gan g</w>
corro bor
az am</w>
ad joining</w>
techni ques</w>
as kar</w>
meh bo
h ana</w>
n b
je ev
distinc t</w>
ti m</w>
superi or</w>
et a</w>
sla ve</w>
survi ved</w>
ne ver
arbitr ary</w>
ap paren
r he
min erals</w>
hat red</w>
desi red</w>
de ol</w>
red ness</w>
real ise</w>
b ala</w>
dair y</w>
comm only</w>
mag ne
apparen tly</w>
s now</w>
ur gent</w>
dhar y</w>
offic ially</w>
hon da</w>
d g</w>
di lip</w>
gow da</w>
ful fil</w>
so le
ol a</w>
dol lars</w>
coll ect</w>
ba hu
il li
vish nu</w>
re m
comfor table</w>
claiman t</w>
b y-
t ment</w>
de pression</w>
b low</w>
mexic o</w>
et i</w>
eco system</w>
e -</w>
rest ore</w>
b right</w>
tri be</w>
ear n</w>
b am
khat tar</w>
ill a</w>
g am</w>
classi fication</w>
baha dur</w>
- megapixel</w>
spou se</w>
spee dy</w>
it -
boundar ies</w>
arrang ed</w>
en acted</w>
al bu
- to-
li ft</w>
war ran
tr ic
ms mes</w>
counter part</w>
st a
ow nership</w>
nee dy</w>
accor ded</w>
vot er</w>
ga ther</w>
w ada</w>
nav jot</w>
suspec ts</w>
parag ra
na x
exten ding</w>
admit tedly</w>
enthusi as
di vide</w>
at ar</w>
he w</w>
dal it</w>
intro duce</w>
an ce
acces sible</w>
marg in</w>
t g
crimin als</w>
ro bert</w>
un preced
mehbo oba</w>
establ ishments</w>
star ring</w>
docum entary</w>
se emed</w>
j yo
um esh</w>
qu an
common wealth</w>
sen ds</w>
heav enly</w>
re views</w>
consequ ence</w>
mi ti
influ enced</w>
fast est</w>
desh mukh</w>
v n
in sol
lo ves</w>
im par
par is
forth coming</w>
unpreced ented</w>
l en
kan e</w>
tu ary</w>
je wish</w>
da i</w>
congratul ations</w>
yo g
requis ite</w>
metro pol
on to</w>
poin ting</w>
in her
4 gb</w>
ti me
de sai</w>
asse m
g ill</w>
201 4
sto kes</w>
sha m
resi ding</w>
in k
treat y</w>
op pon
r ita</w>
lieu tenant</w>
kid n
disab ility</w>
a to</w>
gha zi
bir d</w>
ly -
head ing</w>
whol ly</w>
hon est</w>
cp c</w>
cle ared</w>
v ess
unfortun ately</w>
resi gn</w>
amm uni
mon o
exerc ising</w>
al y
ru b
k ills</w>
hot els</w>
favour ite</w>
to x
mar tin</w>
k ut
jas prit</w>
up am</w>
ic king</w>
exper im
consi sting</w>
be ds</w>
as a
vive k</w>
vik ram</w>
u re-
k or
in ch</w>
flow ers</w>
cha hal</w>
ch est</w>
tal ity</w>
p v</w>
d ating</w>
o b</w>
d t</w>
x it</w>
wh el
re stored</w>
gree ted</w>
e ed</w>
d ress</w>
commen cement</w>
seve rely</w>
im pose</w>
gh ted</w>
complain ed</w>
ton gue</w>
la b</w>
bl u
nab i</w>
di g</w>
neg ligence</w>
d or
activis t</w>
fi x</w>
ha c
cancell ation</w>
l ots</w>
in ts</w>
un like</w>
ro of</w>
phys ically</w>
dic al</w>
twee ts</w>
sc ared</w>
bloc ked</w>
sanc tions</w>
remark able</w>
advis er</w>
quarant ine</w>
port foli
t u</w>
b ought</w>
ag ents</w>
19 th</w>
wi desp
assa il
1 30</w>
ra ids</w>
p ush</w>
leg s</w>
drag on</w>
pw d</w>
panka j</w>
dis co
all- roun
modi fied</w>
def end</w>
govern ors</w>
fit ting</w>
susp ic
got ten</w>
ai ds</w>
the ft</w>
inv al
fel low
de cor
har m
far oo
aur ang
pro mo
ic it</w>
balan ced</w>
14 th</w>
pat ent</w>
champion ships</w>
widesp read</w>
flow ing</w>
span ish</w>
disclo sure</w>
announ ce</w>
mall ya</w>
g w
b p</w>
ex posed</w>
ec e</w>
e c</w>
ti ed</w>
qu i</w>
shoul der</w>
im ported</w>
ing re
sa ina</w>
om ar</w>
fol der</w>
w ak
ap ps</w>
i o
c iting</w>
a tically</w>
vess els</w>
roy als</w>
k mph</w>
toler ance</w>
slam med</w>
prejudi ce</w>
ne gl
helicop ter</w>
en tic
ayurve da</w>
pa ired</w>
p dp</w>
qu in
sid har
raje ev</w>
explo sion</w>
moment um</w>
cat ch</w>
sid di
air line</w>
fe t
d wel
ang an
mir za</w>
kaus hal</w>
aj a</w>
over whel
corru pt</w>
s op
prob ing</w>
econom ies</w>
unve iled</w>
stipul ated</w>
sa tions</w>
ren a</w>
min s</w>
col our
ar tis
w alls</w>
compar ison</w>
tun e</w>
rat ri</w>
r ti</w>
go s</w>
stol en</w>
clu sively</w>
di ence</w>
c amp
t -</w>
enter prise</w>
as certain</w>
th eless</w>
sub ordinate</w>
ka z
a ji</w>
sil ence</w>
re now
ent ries</w>
terri ble</w>
por a</w>
john son</w>
.1 2.
produc tive</w>
presti gious</w>
negoti ations</w>
coff ee</w>
renow ned</w>
ho w
cal m</w>
pn b</w>
never theless</w>
mo ther
labor atories</w>
g il
war s</w>
mar shal</w>
ho ped</w>
conver sion</w>
l ity</w>
is n</w>
clo sing</w>
t ings</w>
ra man
fore ign
bu ying</w>
awa ited</w>
announ ces</w>
b led</w>
ma sters</w>
celebr ating</w>
writ es</w>
mat ri
k ho
ul i</w>
j um
certi fication</w>
thar oor</w>
b read</w>
y ar
tor que</w>
14 4</w>
sp ite</w>
oun d
milit ant</w>
admir al</w>
spl it</w>
ret ained</w>
qu ashed</w>
i j
ghazi abad</w>
sri devi</w>
rah man</w>
mas jid</w>
bl essing</w>
par king</w>
g ab
eng ines</w>
bi ds</w>
bha jan</w>
sou ls</w>
territor ial</w>
fa ils</w>
duc es</w>
bul let</w>
termin ation</w>
bot tom</w>
t ay
bar red</w>
prison ers</w>
se al</w>
pur i
pri zes</w>
ad hy
yel low</w>
me ter</w>
here by</w>
er son</w>
t um
gam b
disab il
con centr
0 7
shi va
corpor ations</w>
prover bs</w>
or ation</w>
sh il
kap ur</w>
chie fs</w>
deleg ates</w>
tran si
re y</w>
luc ky</w>
dismis sal</w>
be ings</w>
spectr um</w>
datab ase</w>
advoc ates</w>
quali fy</w>
ris ks</w>
re compen
is aiah</w>
has nt</w>
ment ally</w>
behavi or</w>
ran deep</w>
pad ma
up dates</w>
p ag
leg end</w>
associ ates</w>
d mk</w>
sto res</w>
kar tarpur</w>
ire land</w>
m ated</w>
as th
gamb hir</w>
ass ess</w>
vijay a</w>
san gh</w>
incur red</w>
kish ore</w>
ex t.
ad mon
disco very</w>
plan et</w>
cre te</w>
aus pic
co ol
tack le</w>
p l</w>
p ers</w>
-1 3</w>
thr one</w>
roll ing</w>
mid -
h ome
disap pe
t b</w>
pl ate</w>
israel ites</w>
bad ly</w>
sett le</w>
commission ers</w>
sid dhar
inten se</w>
coun ty</w>
at -
ha ss
tag ore</w>
por tu
ol dest</w>
scrip ture</w>
rob ust</w>
are rs</w>
mb a</w>
el eph
disabil ities</w>
sidhar th</w>
moder ate</w>
proph ec
kni fe</w>
ir c
em an</w>
cri tics</w>
contr actor</w>
tari ff</w>
dg p</w>
16 th</w>
tur k
p av
tu r</w>
pu tin</w>
distan cing</w>
c us</w>
respon dent
innov ations</w>
hosti le</w>
fish eries</w>
di al</w>
defic it</w>
d war
auspic ious</w>
y as
oppos ing</w>
bot t
.1 1.
un i</w>
sa k
en trusted</w>
nation alist</w>
kail ash</w>
sab ar
educ ated</w>
ha vent</w>
fam ili
deser ves</w>
arre sts</w>
appl ies</w>
der ived</w>
auth entic
chr on
process or</w>
he rent</w>
chasti sement</w>
super vis
israel i</w>
ex emp
endeav our</w>
bas ically</w>
ba ja
rep ent
cas h
2011 -12</w>
0 9
win ds</w>
six es</w>
n ay</w>
lu x
gandhi ji</w>
americ ans</w>
tre ating</w>
revol u
feren ces</w>
w oul
ri ots</w>
mal ai
deci ding</w>
u ality</w>
pri ya</w>
don ed</w>
prophe ts</w>
indi an-
rout ine</w>
kilom et
rat na</w>
doctr ine</w>
z ak
ti mo
con fron
sc ar
public ations</w>
wal ked</w>
s lo
gha t</w>
ch et
raj an</w>
pro -
p. m.</w>
trac ks</w>
institu ted</w>
inspir e</w>
abhi yan</w>
struc tural</w>
fin ite</w>
vo id</w>
excell ency</w>
annex ure</w>
fi e</w>
gh ulam</w>
refu ge</w>
presi ded</w>
colum n</w>
bh ans
jud ged</w>
formul a</w>
b our
resor t</w>
preser ve</w>
prepa redness</w>
dou bles</w>
nic .in</w>
j n
contem porary</w>
ba h
heav ily</w>
convic ts</w>
trage dy</w>
su v</w>
less ons</w>
guar dian</w>
po or
escap ed</w>
c ements</w>
ide ology</w>
exper tise</w>
198 6</w>
gand his</w>
ti e</w>
stic k</w>
sa dar</w>
hol lywood</w>
franch ise</w>
f ate
fun ded</w>
br e</w>
un employment</w>
t m</w>
sh er
pos sibly</w>
ammuni tion</w>
sar as
g av
prin ted</w>
ori ented</w>
mul ayam</w>
ly ric
inter rogation</w>
0 4
succe eded</w>
writ ers</w>
sc a</w>
resp ected</w>
kr iti</w>
k ne
ex ha
teach ings</w>
pic ally</w>
mov able</w>
coun sel
.1 0.
thi ans</w>
kilomet res</w>
autom atically</w>
n ice</w>
inau guration</w>
fav or</w>
du ration</w>
on ing</w>
dar a</w>
life style</w>
neu tr
i z</w>
ram pur</w>
obvi ous</w>
pro por
ph er
mer ch
inaugur ates</w>
br illi
oblig ations</w>
jyo ti
emer ge</w>
197 3</w>
sovere ign</w>
bo at</w>
pri ests</w>
elabor ate</w>
syst em
mist akes</w>
ili ation</w>
e o
ty pically</w>
succ um
so red</w>
ri ji
nat ur
c itation</w>
show cas
pl as
m in</w>
k end
jac ob</w>
gre en
contra dic
san tosh</w>
invol ve</w>
i f
hor ticul
forbid den</w>
out fit</w>
jo ins</w>
compul sory</w>
re fund</w>
pun ish</w>
mag ic</w>
instruc tion</w>
du n</w>
mat h</w>
j aved</w>
baja j</w>
flag ship</w>
pist ol</w>
clean ing</w>
b loo
sim pli
re tain</w>
je ev</w>
in habit
vari ants</w>
t s.</w>
cali for
ad h
yiel d</w>
pen sions</w>
p att
mo d</w>
go dly</w>
ke l</w>
clo sure</w>
temper atures</w>
rejuven ation</w>
na y
na q
n ate</w>
deb it</w>
thir u
paris had</w>
p ti
semin ar</w>
l is
si kh
resist ance</w>
con fusion</w>
attem pted</w>
won der</w>
res ses</w>
re verse</w>
de vil</w>
dis bur
chak ra
evol ution</w>
de en</w>
casu alties</w>
20 20-
mil est
ell s</w>
ag it
198 7</w>
ul s</w>
jay a</w>
har dly</w>
every day</w>
ase an</w>
arbitr al</w>
na z
i q
appre h
bi o-
ma ul
jo y
la yer</w>
defic i
assum ed</w>
le f
comple ting</w>
ag greg
sign al</w>
reg re
or ious</w>
tru ste
con crete</w>
3 2
cla ve</w>
20 ,000</w>
yu v
land ing</w>
fl ash</w>
es ha</w>
ann um</w>
acquit tal</w>
198 4</w>
o wing</w>
liqu id</w>
micro sd</w>
provid ers</w>
cham ber</w>
bro w
autom ob
vis ual</w>
elec tri
twel ve</w>
suspic ion</w>
pr ud
fe ed
episo de</w>
corin thians</w>
be ach</w>
log istics</w>
far han</w>
develop mental</w>
di p</w>
attr acted</w>
t ness</w>
serv ic
chandra babu</w>
cru el
al lo
pr of</w>
re vo
day .</w>
196 1</w>
- 2</w>
swe et</w>
ing er</w>
sis odia</w>
impres sed</w>
tal uk</w>
sla u
san ia</w>
expand ing</w>
chou dhary</w>
chargeshe et</w>
riji ju</w>
po kh
doub ts</w>
se tup</w>
pl edge</w>
ograph ical</w>
kar a</w>
ex changes</w>
v as</w>
pronoun ced</w>
convin ced</w>
resp ects</w>
whol es
str ang
san i
consci ousness</w>
tax pay
ta p</w>
trans form</w>
ra tion
faroo q</w>
annex ure-
aff ects</w>
thank ful</w>
survi ve</w>
raj ini
p ar</w>
na than</w>
mo h
mid d
b cm</w>
ad ds</w>
ra man</w>
survi v
rej ection</w>
contr ast</w>
bow led</w>
13 .
sha str
ves sel</w>
acc u
sa eed</w>
d b
b hum
warri ors</w>
ou ter</w>
mechan ical</w>
ke ys</w>
bac ks</w>
per missible</w>
ha st
ess entially</w>
ali garh</w>
uni form</w>
mean ing
malai ka</w>
war n</w>
ne a
level led</w>
in j
dynam ic</w>
y av
l ou
fal se
nic ob
metropol itan</w>
ex hor
bhu vn
adi ly</w>
3 ,000</w>
thir ty</w>
prin ting</w>
initi ate</w>
0 6
ura ppa</w>
10 5</w>
up dated</w>
sel fie</w>
leg end
challeng ers</w>
aband oned</w>
spon sored</w>
sar o
land sli
k iran</w>
artis ans</w>
and i</w>
s k</w>
kal yan</w>
ambi tious</w>
ne ed
in cen
ga uri</w>
fe ver</w>
st o</w>
and re
ulti mate</w>
laksh mi</w>
deplo yment</w>
emphas ised</w>
ac quire</w>
hum ble</w>
18 th</w>
ug c</w>
sr ini
inter acted</w>
viol ated</w>
han i</w>
be ating</w>
prohi bited</w>
er r
bra ve</w>
mor tg
jud ah</w>
w ound</w>
mad hu
htt p</w>
ent ers</w>
gu es</w>
yuv raj</w>
prote stors</w>
up held</w>
ther mal</w>
liter ary</w>
compas sion</w>
bu ff
progres sive</w>
pro spec
fif ty</w>
besto wed</w>
the tic</w>
fo ods</w>
demone tisation</w>
tis su
re sum
ne ther
m ens</w>
list ening</w>
al aya</w>
pad dy</w>
a hu
m ills</w>
spe ec
bhag wat</w>
nicob ar</w>
fair ly</w>
valu ed</w>
quan tum</w>
kumar aswamy</w>
gal ax
buddh ist</w>
re ven
exec ute</w>
with standing</w>
transl ated</w>
sc india</w>
excep tional</w>
bs nl</w>
bhu ban
az har</w>
a str
rul er</w>
res sing</w>
n ish
k al</w>
deli vering</w>
am al
ma i
cor ps</w>
con fined</w>
ly n
g ical</w>
fa iling</w>
along with</w>
tor -
the -
stret ch</w>
cro wn</w>
co ok</w>
can adi
wic ket
sh y
nation wide</w>
nar rated</w>
in cum
co ol</w>
tion -
soci o-
san jeev</w>
hy gi
hal i</w>
fin ish</w>
en ary</w>
sing ing</w>
ob c</w>
ri de</w>
k her</w>
timo thy</w>
butt on</w>
bud dha</w>
t us</w>
t at
ly .</w>
w ine</w>
th ur</w>
b hi
ad ult</w>
weak er</w>
qu r</w>
con cent
sp r
gul f</w>
discus sing</w>
preven tive</w>
ir r
inv iting</w>
te ar</w>
mid st</w>
marty rs</w>
legend ary</w>
ir respective</w>
c ere</w>
un lawful</w>
mo bility</w>
ta res</w>
recei ves</w>
categor ically</w>
account ability</w>
remin der</w>
hom o
bhuvn eshwar</w>
legiti mate</w>
hon ey</w>
e en</w>
all-roun der</w>
pac er</w>
hus band
bro wn</w>
ang el</w>
acknowled ged</w>
sin cere</w>
persi an</w>
we st
shiva ji</w>
ex t
post pon
cry st
z u
vin ay</w>
govern ed</w>
con stra
bo ar
some body</w>
he m
par ks</w>
naq vi</w>
al ise</w>
rem and</w>
ph y
gu ides</w>
re mark</w>
explain s</w>
chair manship</w>
c it
hec tares</w>
aff ection</w>
ad ditionally</w>
ren dering</w>
l ot
rela tively</w>
mahar aj</w>
fac tual</w>
conver t</w>
el se
brief ing</w>
au to
assign ment</w>
sh u</w>
ma ster
lat eral</w>
c. e.</w>
tax ation</w>
not withstanding</w>
in y</w>
himalay an</w>
municip ality</w>
mov ements</w>
ad jour
a er
lu ke</w>
log ist</w>
indirec t</w>
in stances</w>
ash ish</w>
young sters</w>
flow s</w>
tri um
li ked</w>
p ays</w>
cha l
h rs</w>
enthusias m</w>
a q</w>
v all
s wa
inter rog
gener ating</w>
a ero
conven tional</w>
per su
ma hal</w>
jaish -e-
envis aged</w>
certain ty</w>
bloc k
as ha
sc oring</w>
ko chi</w>
m our
lin k
ann u
accommo dation</w>
w. e.
man di</w>
class ical</w>
l or</w>
an ia</w>
ri ders</w>
liter acy</w>
ha st</w>
califor nia</w>
li tion</w>
bap tized</w>
av en
ass ure</w>
my ster
f ant
ex pos
b c</w>
0 3
sou theast</w>
w. p.</w>
recep tion</w>
gi um</w>
further more</w>
ab ide</w>
pal m</w>
maintain able</w>
furn ished</w>
nur sing</w>
k av
tr ace</w>
con science</w>
targe ting</w>
re alized</w>
pakist an-
depri ved</w>
re ne
f old</w>
pres ents</w>
b ones</w>
child ren
d st</w>
albu m</w>
v c</w>
ut ers</w>
truth ful</w>
refuge es</w>
install ation</w>
uni ons</w>
ter ing</w>
nep hew</w>
lan kan</w>
h o</w>
d well</w>
wa q
lo g</w>
un t</w>
slow ly</w>
gand hin
conclud e</w>
3 1.0
impres sive</w>
arti st</w>
sh ing</w>
sel v
reser ves</w>
pl un
2014 -15</w>
fa ti
ac he</w>
17 th</w>
leg ality</w>
de serve</w>
re pair</w>
at ro
t ul
sacrific es</w>
ex clusively</w>
enjo ying</w>
en act
le .</w>
h p</w>
fil ling</w>
bh p</w>
v enti
sum mons</w>
.1 0</w>
thin ks</w>
si k
occur s</w>
ma x</w>
fe aring</w>
commun ist</w>
am en
ac les</w>
help ful</w>
boo k
attr active</w>
aff ecting</w>
sc ap
ja i
detec ted</w>
threat ening</w>
restor ation</w>
mon it
cooper ate</w>
fle e</w>
do l</w>
de vi
nea rest</w>
mor tality</w>
guru gram</w>
as if</w>
v at</w>
no ise</w>
nether lands</w>
commission ed</w>
s and</w>
inter act</w>
ear s</w>
custo m</w>
ar ose</w>
forec ast</w>
0 2
f ame</w>
ali zing</w>
cl oud</w>
ar c</w>
no. 4</w>
hu a</w>
gro ver</w>
priv acy</w>
no bel</w>
gra phic</w>
ra y
gl ori
week ly</w>
k sh
j ha
de hra
pil ots</w>
o od</w>
gandhin agar</w>
ra ina</w>
l ecture</w>
d w
car ries</w>
scre en
descri be</w>
dehra dun</w>
interven tions</w>
colour ful</w>
william son</w>
vic ky</w>
ja is
cho o
quali fications</w>
i on
ai b</w>
snow fall</w>
plead ings</w>
pa irs</w>
mer ged</w>
lau ghter</w>
strate gies</w>
phenom en
coun ted</w>
ca tho
har bhajan</w>
th ie
s word</w>
it ting</w>
shastr i</w>
se c</w>
cy cles</w>
vive kan
str ange</w>
cau tious</w>
cal am
prohi bition</w>
op ted</w>
man gal
circum stance</w>
pregn ancy</w>
it arian</w>
po sting</w>
monit ored</w>
gi fts</w>
disap pointed</w>
de signs</w>
bu yers</w>
nan ak</w>
mis t</w>
hard ship</w>
fru it
defam ation</w>
seni ority</w>
kha li
i ers</w>
el ing</w>
attribu ted</w>
na h</w>
motiv ated</w>
go el</w>
gi ant</w>
coul dn</w>
meas uring</w>
ar ay
3 50</w>
tr s</w>
show case</w>
valu ation</w>
un k</w>
sh o</w>
sequ ence</w>
rang ing</w>
ret ro
mit ra</w>
j ord
inter face</w>
cruel ty</w>
sur render</w>
summon ed</w>
pat naik</w>
k o</w>
er ia</w>
boo king</w>
ti ru
smo ke</w>
siddi qui</w>
ran som</w>
na o</w>
bri dges</w>
real ised</w>
e ternal</w>
ca ve</w>
a be
4 ,000</w>
pos sibilities</w>
p ad</w>
ti har</w>
subsi diary</w>
sor ry</w>
kit ch
in c</w>
sp ots</w>
ear ning</w>
dis per
- -
f on
d ad</w>
se y</w>
consen sus</w>
preven ted</w>
min i</w>
me er
to days</w>
surroun ded</w>
nar row</w>
ent .</w>
pro sp
de va
tiz ation</w>
lo yal</w>
i ff
sco ot
fac tor
cla uses</w>
ref use</w>
man t</w>
impres sion</w>
pul led</w>
panchay ati</w>
re acting</w>
d hi
muzaffar pur</w>
g is</w>
de o</w>
te st
r allies</w>
hom age</w>
w ra
op pose</w>
ec tor</w>
ak umar</w>
speec hes</w>
sam sung</w>
mol ec
ber y</w>
advent ure</w>
re medi
low -
it alian</w>
he ights</w>
ef ul
discri min
descri bing</w>
c able</w>
hy un
16 .
volunte ers</w>
sh ots</w>
la uded</w>
civili ans</w>
there to</w>
qu eries</w>
pend ency</w>
mathema tics</w>
du bey</w>
disp en
mon ial</w>
snap dragon</w>
14 .
che ating</w>
rajini kanth</w>
manufactu rer</w>
li ve
vil as</w>
is ms</w>
hun ger</w>
pit ch</w>
colon y</w>
be ij
lo ading</w>
coo king</w>
ti dings</w>
hy dr
ri o</w>
bo o</w>
8 gb</w>
tri g
t asks</w>
in herent</w>
en or
im d</w>
exal ted</w>
mi gr
le ver
con stru
. com</w>
cont acted</w>
separ ated</w>
ob serving</w>
a e
vir tually</w>
increas ingly</w>
conten tions</w>
irc tc</w>
v ar</w>
lam p</w>
kha di</w>
dis believed</w>
amoun ting</w>
ame thi</w>
cur ricul
ann ually</w>
sol ic
fing er</w>
fi xing</w>
di ents</w>
confl ic
affili ated</w>
occup ation</w>
con qu
ste l</w>
mi ke</w>
da wn</w>
att ackers</w>
was n</w>
hand led</w>
top ic</w>
jay anti</w>
ri ding</w>
dro w
b ish
some where</w>
id ols</w>
ha il</w>
ci vic</w>
re .</w>
min ute</w>
lor ds</w>
enab les</w>
witness ing</w>
s mu
refl ects</w>
po ems</w>
hon est
di r
198 0</w>
13 th</w>
kar gil</w>
aggres sive</w>
2. 0</w>
ta j</w>
she khar</w>
pra bha
198 5</w>
ox ide</w>
predic ted</w>
pp p</w>
pas sion</w>
m t
an upam</w>
sti mul
re moving</w>
publ ishing</w>
necess ity</w>
multi pl
l ending</w>
d well
part ner
krish nan</w>
mo c
fle xi
di xit</w>
sc o</w>
distric t-</w>
yam una</w>
pokh ri
func tion
compl y</w>
philipp ines</w>
ge ous</w>
lo c</w>
expos ure</w>
magne tic</w>
leg acy</w>
exp o</w>
venti l
sri vastava</w>
hen ry</w>
b ath</w>
rel ate</w>
pain ting</w>
in cu
fe ar
dh ury</w>
al ex
th under
she pher
sc at
l ing
gg s</w>
ul -
hang ing</w>
bas eless</w>
te ars</w>
ke dar
du m
saf ely</w>
life time</w>
dish on
den ies</w>
canadi an</w>
attac king</w>
un nao</w>
techni que</w>
in fr
fra y</w>
broad cast</w>
vis ak
k ush
hyun dai</w>
h wal</w>
u z
m asses</w>
fin ch</w>
m ys
inhabit ants</w>
deser t</w>
n gos</w>
n ex
m pe
kh and
gir l
g ent
proj ected</w>
p.w. 1</w>
mal li
m acy</w>
g ers</w>
an try</w>
an gu
pill ars</w>
ini an</w>
s lightly</w>
ra i
p ms</w>
exerc ises</w>
s worn</w>
pri orities</w>
inter medi
em power</w>
char ity</w>
of s</w>
mi a</w>
anj ali</w>
s eng
in correct</w>
res ili
phys ics</w>
person alities</w>
jin ping</w>
je wala</w>
instr um
appre hen
ad mi
r ish
ligh ting</w>
far id
asa heb</w>
patri o
pat ory</w>
har ve
han e</w>
sing les</w>
sa ini</w>
r and
else where</w>
ca de
confir m</w>
natur ally</w>
inve sted</w>
ingre dients</w>
ech no
compe te</w>
as an</w>
than e</w>
swit zer
str ated</w>
ap prised</w>
19 47</w>
su gar
off en
yl on</w>
upgra dation</w>
id hi</w>
uk ra
str ingent</w>
satis fy</w>
il legally</w>
pres enting</w>
telec om
shir t</w>
lan e</w>
chin as</w>
exc iting</w>
antici p
kash y
foc using</w>
al pur</w>
vi br
top ics</w>
pione er</w>
goo d
pursu ing</w>
le vy</w>
hi v</w>
di visions</w>
de ity</w>
us -
pw- 2</w>
p her</w>
don er</w>
madh uri</w>
ear nings</w>
ra ve
pw .
fa ther
we bin
pra deep</w>
be t</w>
reque sts</w>
pan ch</w>
ge red</w>
demonstr ate</w>
d wara</w>
bhans ali</w>
to oth</w>
cap t</w>
ass ass
wicke t-
sil k</w>
log ging</w>
feed back</w>
2020- 21</w>
st uck</w>
nc c</w>
high light</w>
for gotten</w>
cylin der</w>
ul ated</w>
recompen se</w>
or nam
catho lic</w>
yu z
par alle
paralle l</w>
harv est</w>
as ad
elimin ate</w>
sur jewala</w>
maul ana</w>
hol i</w>
cou ples</w>
pri th
p. o.</w>
organiz ing</w>
kis han</w>
ag u
w er
sa int</w>
pa ise</w>
ho stel</w>
affir med</w>
w ills</w>
repe at</w>
n y
ish ant</w>
popul arity</w>
neighbour hood</w>
ayush mann</w>
g m</w>
dut ta</w>
197 1</w>
ten d</w>
a thy</w>
vend ors</w>
e y
contain ment</w>
al es</w>
18 .
nomine e</w>
inval id</w>
chec king</w>
1 10</w>
pokhri yal</w>
pilgri m
fo od
expl oration</w>
bha v
r ud
op t</w>
mom ents</w>
cr .
clu ster</w>
rath ore</w>
mus ical</w>
roman s</w>
presum ption</w>
devot ed</w>
ch e</w>
determin ing</w>
u. p.</w>
supre mo</w>
scholar ship</w>
mis conduct</w>
m ask</w>
counter -
cre atures</w>
com position</w>
c ess</w>
sub ra
l ud
har b
kedar nath</w>
thie ves</w>
l u</w>
demonstr ated</w>
deli ghted</w>
thre w</w>
safe guard</w>
ak s</w>
den ial</w>
yuz vendra</w>
they re</w>
paragra phs</w>
han uman</w>
gazet te</w>
op ined</w>
j av
tw ent
fi bre</w>
bar s</w>
air ways</w>
25 th</w>
j yot
am in
vid han</w>
telecom munic
peri ods</w>
mag ni
hor se</w>
vid ya</w>
rul ers</w>
horticul ture</w>
1. 5</w>
super vision</w>
bhar at
high- level</w>
har ish</w>
cum -
visak hapat
oper ator</w>
nav ratri</w>
mi th
hy per
hor iz
ess es</w>
en cro
tren ds</w>
tal ented</w>
arab ian</w>
am es</w>
ac re</w>
se -
pu jar
galax y</w>
f ate</w>
subscri bers</w>
ple .</w>
ven cy</w>
hus bands</w>
gw ali
gra ph
fe ars</w>
bu l</w>
roman tic</w>
viol ations</w>
sh es</w>
capit als</w>
con clave</w>
iq bal</w>
sy mb
seg ments</w>
ok ay</w>
day -
part ly</w>
ce ase
amen ities</w>
sp in
inf ections</w>
dal its</w>
se ments</w>
less er</w>
l es
b hand
pleas ant</w>
man ded</w>
sp ic
pr ash
le e</w>
inqu est</w>
fl es</w>
de faul
be ars</w>
ris hab
nom inations</w>
ist ry</w>
arg ent
un anim
er ings</w>
chandra ya
beij ing</w>
as ion</w>
enhan cement</w>
divid end</w>
be h
-in- chief</w>
shoc king</w>
reco veries</w>
pro position</w>
mi x
kashy ap</w>
kar achi</w>
gen esis</w>
che ap
aca dem
u pro
in sti
gujar ati</w>
shan e</w>
ign ore</w>
disab led</w>
anx iety</w>
ste pped</w>
pro pri
na g</w>
ll a</w>
inter nation
de light</w>
tra in
exclud ed</w>
din ner</w>
ci ally</w>
bahu jan</w>
adjudic ation</w>
sla in</w>
gra ms</w>
ch er</w>
w .</w>
ut most</w>
swi ft</w>
sp an</w>
cont ingent</w>
tr uc
toil et</w>
l ine
hal f-
therap y</w>
dra vid</w>
p sus</w>
is her</w>
cau tion</w>
switzer land</w>
travel led</w>
e- commerce</w>
, 7
sam u
ge o
qui et</w>
li sts</w>
l ag
gra ph</w>
diam ond</w>
au r</w>
adul ts</w>
te as
pra ying</w>
post al</w>
lin king</w>
jun c
incum bent</w>
bal ak
201 3
sun ris
fr ac
15 .
su its</w>
lax man</w>
husband ry</w>
17 .
gi ri
chow k</w>
n iz
b ic
rishab h</w>
ir y</w>
i. e</w>
dou bling</w>
archa e
apolog ise</w>
smu gg
north- east</w>
bid ding</w>
ul lah</w>
perpe tr
expe d
emo tions</w>
cros sing</w>
she ets</w>
ep fo</w>
demon stration</w>
contribu ting</w>
cease fire</w>
sikh s</w>
s wing</w>
marty red</w>
g are
elec tro
cop s</w>
ti ght</w>
hit ting</w>
ha bit</w>
govern mental</w>
sa x
k night</w>
co- operative</w>
accoun ting</w>
ven kat
la im
red res
pl enty</w>
belie fs</w>
watch tower</w>
hol istic</w>
ful ness</w>
bo oth</w>
ra ig
ni fty</w>
compu ted</w>
sur gical</w>
ra ge</w>
j acqu
hon ourable</w>
be re
sou thwest</w>
rele asing</w>
bhup inder</w>
un fair</w>
pan i</w>
la ys</w>
texti le</w>
hebre w</w>
ev ed</w>
rela xation</w>
out look</w>
ni k
esti mate</w>
chem istry</w>
af ar</w>
substanti ally</w>
ja wan</w>
en .</w>
eigh th</w>
d sp</w>
8- megapixel</w>
ri fles</w>
vi z
ver sus</w>
susp icious</w>
mer ger</w>
hindu ism</w>
weak ness</w>
ic ate</w>
conf essed</w>
bhuban eswar</w>
wo o
maur iti
in herit
assess ed</w>
ha iled</w>
b ali</w>
pl ant
pa c</w>
f ishing</w>
chec ked</w>
wa g</w>
vo y</w>
ti fied</w>
smo king</w>
classi fied</w>
adop ting</w>
open ly</w>
mani an</w>
je ts</w>
spor ting</w>
n anda</w>
meer ut</w>
ha ven</w>
enter tain</w>
and erson</w>
ni gh
it ya</w>
ayush man</w>
sing le-
sco res</w>
incenti ves</w>
conc es
sunris ers</w>
li ar</w>
bre ast</w>
apo logy</w>
sm t.
incl ined</w>
eth nic</w>
der i
compl ex
ar k</w>
wo e</w>
brief ed</w>
ser ial</w>
visakhapat nam</w>
tem por
redres sal</w>
comm ence</w>
com mod
bi c</w>
affor d</w>
s r</w>
du s</w>
cri tically</w>
gl en
b old</w>
ob struc
ham id</w>
ev ms</w>
mis m</w>
helicop ters</w>
aurang abad</w>
si bal</w>
sear ches</w>
nos. 1</w>
detec tion</w>
a qu
pro vo
harm ful</w>
con vocation</w>
acc ord</w>
disper se</w>
dee m</w>
echno logy</w>
sear ched</w>
off -
ev ic
bo xing</w>
ad v</w>
sle eping</w>
shop ping</w>
re public
gwali or</w>
er a
consist ently</w>
c lock</w>
18 0</w>
z y</w>
share holders</w>
pilgrim age</w>
no ver</w>
ie ties</w>
n es
be arers</w>
shi el
g arm
consul tations</w>
tion able</w>
p tions</w>
k ris
fra ming</w>
shi p
mat i</w>
form ally</w>
de c</w>
ab h
den ying</w>
concent ration</w>
. gov.in</w>
bi pin</w>
wa j</w>
u tosh</w>
gear box</w>
s nat
reci pi
no vel
vi ti
sett ings</w>
pension ers</w>
cul tivation</w>
collap se</w>
assu me</w>
trac king</w>
han dic
gl orious</w>
et c.
maha jan</w>
is al</w>
con di
da vi
commis sions</w>
ai ded</w>
sh ore</w>
seh wag</w>
benef ited</w>
am rita</w>
mis leading</w>
milest one</w>
insol vency</w>
f lower</w>
cum mins</w>
cr pc</w>
swe den</w>
pat ani</w>
holi day</w>
her o
process ed</w>
portfoli o</w>
desc end
up adhy
ud a</w>
cu red</w>
k its</w>
ec lip
deliber ate</w>
gar g</w>
foreign ers</w>
bac hel
re bel</w>
loc ality</w>
cra fts</w>
country men</w>
ambul ance</w>
ven u
ris es</w>
2. 5</w>
sc ul
promis ing</w>
constru ed</w>
as a</w>
jyot i</w>
hun t</w>
er up
ed a</w>
th am</w>
sh yam</w>
ky o</w>
infl ic
d d
col om
y usu
mes si
famili ar</w>
cred ited</w>
bhum i</w>
administr ator</w>
198 1</w>
utili zed</w>
u j
provi dent</w>
low s</w>
kum mar</w>
convic t</w>
construc t</w>
bam boo</w>
acc um
19 .
wi der</w>
compl im
om an</w>
ge ographical</w>
dest inations</w>
out comes</w>
contin ent</w>
than ol</w>
shil pa</w>
poss essed</w>
p r</w>
i y
fra ud
exist ed</w>
in ity</w>
e ggs</w>
avoi ded</w>
sul tan</w>
irr fan</w>
gor ous</w>
col in</w>
bur ied</w>
quir ing</w>
mo ti
celebr ates</w>
appro aches</w>
jo s</w>
handic ra
condem n</w>
a il
work men</w>
kas hi</w>
deci des</w>
, 5
th esis</w>
pro v
particul ars</w>
ar y-
ad missible</w>
is is</w>
c um</w>
ash ram</w>
teen th</w>
o th
land ed</w>
ar rog
1 1,
sh ang
expe di
mai den</w>
d har</w>
cont acts</w>
sid dar
nar mad
dele ted</w>
cul tures</w>
dar i</w>
viol ating</w>
neer aj</w>
ep i
decre ase</w>
can al</w>
assail ants</w>
t 20</w>
st a</w>
inter ce
carri er</w>
web sites</w>
fulfil ling</w>
co con
cha se</w>
sa ff
cop per</w>
well- being</w>
ud es</w>
seng ar</w>
jord an</w>
fir s</w>
express way</w>
t as</w>
pu ram</w>
fe eding</w>
thur a</w>
mo m</w>
k esh</w>
trig gered</w>
secon d-
manife sto</w>
deliber ations</w>
sign atures</w>
re sume</w>
domin ant</w>
s re
mas ood</w>
ma h</w>
gr ound
swe ar</w>
spor ts
qu ery</w>
public ly</w>
nab bed</w>
al together</w>
la tin</w>
fe ared</w>
san a</w>
utili zation</w>
proce eds</w>
ma je
arm ies</w>
z onal</w>
ab rogation</w>
er i</w>
recogn ise</w>
n ul
j en
util ity</w>
econom ically</w>
brilli ant</w>
aim im</w>
satisfac tory</w>
raj kummar</w>
feat uring</w>
facilit ating</w>
bul k</w>
bir la</w>
vibr ant</w>
na resh</w>
flu id</w>
christ mas</w>
succum bed</w>
identi fying</w>
d d</w>
bes ide</w>
ran g</w>
wr ath</w>
p. s.
hospit ality</w>
cw c</w>
scen es</w>
ar jun
acqu ain
sal vation</w>
ge st
dis ru
sa var
li ver</w>
cli ent</w>
an u
- day</w>
stom ach</w>
rejo ice</w>
i x</w>
clari fication</w>
assi sted</w>
know er</w>
arri ving</w>
a an</w>
pati ala</w>
on ions</w>
for ged</w>
com m</w>
to kyo</w>
ra v
pre ference</w>
b han
s -</w>
thiru van
re tri
ra vic
ob st
hygi ene</w>
al ex</w>
ic mr</w>
bha tt
vis hal</w>
ta g</w>
ser vers</w>
com prised</w>
e- up</w>
jam ia</w>
fav ourable</w>
stra tions</w>
procu red</w>
mit tal</w>
formul ated</w>
eful ly</w>
nawa z
business man</w>
aw ake</w>
asad uddin</w>
wh ic
be tra
helpl ine</w>
fing er
exp iry</w>
shin de</w>
sal ute</w>
mis sil
girl friend</w>
statis tical</w>
s ick
s &apos;</w>
prov inci
exp elled</w>
immun ity</w>
heart felt</w>
th at
sh ell</w>
b im
wai ver</w>
tur n
sa ble</w>
pu shed</w>
har mon
top -
on a</w>
im movable</w>
herein after</w>
compan ions</w>
k it</w>
ab ha
tic als</w>
resp ec
con test
campaign ing</w>
di um</w>
controll ing</w>
comm ented</w>
incre dible</w>
our ing</w>
mar king</w>
um es</w>
tun nel</w>
sim pl
n il
, 8
ma thura</w>
ini ons</w>
hy bri
ment -
inve sting</w>
tra gic</w>
siddhar th</w>
replac ement</w>
k u</w>
in fil
hand lo
va k</w>
prophec y</w>
im position</w>
gene tic</w>
g har</w>
20 .
sust ain</w>
restric tion</w>
pol lu
f lip
un doub
the irs</w>
te j</w>
na veen</w>
me gh
era dic
war m
ten se</w>
st aged</w>
sha lt</w>
le h</w>
jo l</w>
jam a
au c
abo de</w>
2 1
sad dened</w>
raj kumar</w>
l ining</w>
ati vely</w>
son u</w>
der a</w>
cop e</w>
vi et</w>
man u</w>
exc essive</w>
mar g</w>
false hood</w>
d af
comm its</w>
.0 9.
ter -
spirit ually</w>
oun ding</w>
on e
man ip
d der</w>
con sor
acc using</w>
ish ers</w>
invo ke</w>
don ation</w>
vo ices</w>
reason ing</w>
v ary</w>
u als</w>
por ter</w>
cu ts</w>
brea thing</w>
acc us
st ag
on wards</w>
ce iling</w>
depar ture</w>
butt ler</w>
, 6
sy d
er red</w>
dic tionary</w>
deliber ately</w>
cha t</w>
att ained</w>
mu g
inten sive</w>
descri bes</w>
cur b</w>
tur nover</w>
bel t</w>
se va</w>
ra ises</w>
prash ant</w>
marg in
.201 8</w>
, 0
decl aring</w>
clou ds</w>
wrest ling</w>
wr onged</w>
tr actor</w>
missil es</w>
hab its</w>
fe asi
2013 -14</w>
re fra
ff le</w>
transi tion</w>
pip eline</w>
kno ck</w>
k istan</w>
d m</w>
mu tually</w>
kal am</w>
ju bil
insi sted</w>
ur ges</w>
ravic hand
fortun e</w>
em per
is a
doz en</w>
ak ash</w>
tion ers</w>
sa dh
he irs</w>
fo ol
f ers</w>
ast ro
sl ams</w>
na ir</w>
highligh ting</w>
compu ters</w>
clo thing</w>
ch est
wil liam</w>
stead y</w>
schol ar</w>
satell ites</w>
or g
ex porters</w>
evid ences</w>
en mity</w>
tw in</w>
th al
re duces</w>
q i</w>
im ur</w>
diplom a</w>
pursu ance</w>
is ma</w>
saras wati</w>
id en
har deep</w>
2 2nd</w>
va in</w>
for t
ed ged</w>
distur bed</w>
cont end</w>
u .</w>
ste ph
po mpe
furn ish</w>
198 2</w>
yusu f</w>
waq f</w>
mis ra</w>
198 3</w>
vac ancy</w>
tay lor</w>
num er
fal sely</w>
ris en</w>
as sed</w>
re conc
poc so</w>
ma o
griev ous</w>
a. m.</w>
ss c</w>
lau gh
under tak
speak ers</w>
ravichand ran</w>
.1 5</w>
young est</w>
partner ships</w>
mis sed</w>
invest or</w>
respondent -
exem pl
e er</w>
dom inated</w>
pow ering</w>
nir bha
mor tal</w>
venu gopal</w>
mo dule</w>
micro soft</w>
meas u
4 9
w aves</w>
prosper ous</w>
main stream</w>
khar if</w>
consi ders</w>
cl oth</w>
5 6
our i</w>
i yer</w>
factor ies</w>
counc ils</w>
veri fied</w>
ordin arily</w>
cor doned</w>
thr ust</w>
rub ber</w>
revi val</w>
ep ers</w>
delhi- ncr</w>
o ch
turk ish</w>
t are</w>
&apos; d</w>
w k</w>
ic onic</w>
socio- economic</w>
shan kar
quali fying</w>
ne ta
ut ter</w>
levi ed</w>
char tered</w>
c ation</w>
assum ing</w>
ab s</w>
a a</w>
vari able</w>
ra hane</w>
ess ence</w>
ci gare
sou th-
mat a</w>
compu ting</w>
al .</w>
rej ects</w>
in fo
awar de
th es
ta tive</w>
om is
meaning ful</w>
mauriti us</w>
m g</w>
desi rable</w>
collec tions</w>
bri be</w>
alu min
mu shar
lun ar</w>
differen tly</w>
d un
alter nate</w>
ti k
sel fies</w>
exhi bit
an agar</w>
t es
regre t</w>
navi gation</w>
f its</w>
can cel</w>
sugar cane</w>
pa than
ja h</w>
exten ds</w>
chop ped</w>
tra de
restra int</w>
mum ba
je re
dis count</w>
sa il</w>
log ists</w>
gu sting</w>
id st</w>
er s.</w>
termin ated</w>
contempl ated</w>
197 6</w>
pr e</w>
mor gan</w>
in convenience</w>
correc tly</w>
pro portion</w>
ha fi
de rer</w>
m ha</w>
ki ara</w>
equ itable</w>
char t</w>
196 2</w>
ta h
stre aming</w>
vi render</w>
tril lion</w>
taxpay ers</w>
sha me</w>
sa y
post ers</w>
nt pc</w>
ka jol</w>
cou pled</w>
co aching</w>
sanc tuary</w>
i dol</w>
fre ely</w>
rej ecting</w>
plac ing</w>
ou ts</w>
ou tra
krish n
facil itation</w>
bi ological</w>
mus a</w>
le one</w>
inst all</w>
hans i</w>
fi er
no -
n est</w>
he mant</w>
20 30</w>
ti um</w>
rel ying</w>
ne ha</w>
hass an</w>
201 2
201 0
shor t-
rhe a</w>
mo hit</w>
consul t</w>
we ep</w>
lax mi</w>
undoub tedly</w>
tr act</w>
sho aib</w>
j am</w>
after wards</w>
re make</w>
po em</w>
flip kar
dwel ling</w>
d less</w>
cha w
prec eding</w>
obj ected</w>
felicit ated</w>
dar shan</w>
v ous</w>
syd ney</w>
n -
ut ter
ra him</w>
per mits</w>
cri ed</w>
thiruvan anth
loc ate</w>
f li
communic ated</w>
calcul ated</w>
pre fer</w>
land mark</w>
cycl onic</w>
uplo aded</w>
swit ch</w>
postpon ed</w>
m s.
ing a</w>
hindu t
at tain</w>
th ri
comm end
tra tion</w>
ra dha
dr ought</w>
collap sed</w>
u sion</w>
de gra
biot echnology</w>
y ash
re manded</w>
mo hd</w>
gra m
no. 5</w>
sw amy</w>
organis ing</w>
san j
lod ging</w>
ko ch
gay le</w>
so viet</w>
adverti sements</w>
vari ed</w>
ten ders</w>
pro ving</w>
farid abad</w>
cr ying</w>
ch ic
.1 1</w>
v la
af ri
ab u</w>
6 gb</w>
san ju</w>
kot a</w>
cli mb
, 4
ne et</w>
ja han</w>
enact ment</w>
ta b</w>
gur gaon</w>
be di</w>
b ye
speci fy</w>
pres sing</w>
enor mous</w>
continu ation</w>
clu sters</w>
singh s</w>
mo le
gra phy</w>
cha ut
9 00</w>
lyric s</w>
do val</w>
cocon ut</w>
blu e
rene wal</w>
bhar ati</w>
remin ded</w>
comp ound</w>
bab ylon</w>
b ble</w>
jay ant</w>
fo dder</w>
w are
under -
sha ped</w>
nawaz uddin</w>
back drop</w>
b -
ag i</w>
k hu
pompe o</w>
travel ing</w>
ten ing</w>
s had</w>
par i
bob de</w>
b are</w>
indic ating</w>
f atal</w>
be an</w>
197 2</w>
tal aq</w>
oper ates</w>
26 th</w>
smart phones</w>
gav askar</w>
g t</w>
c sir</w>
w ire</w>
se bi</w>
lea ther</w>
am idst</w>
y ard</w>
bho j
b age</w>
revolu tionary</w>
invo ked</w>
we ve</w>
q a
hum ili
ern ity</w>
y o</w>
sa ul</w>
mater nal</w>
sal aries</w>
persec ution</w>
circul ation</w>
ap a</w>
s wee
vel i</w>
sa h
perce ption</w>
mi ah</w>
gov ind</w>
frequ ent</w>
p our</w>
oc t</w>
mis use</w>
.... ....
preven ting</w>
or i</w>
op inions</w>
hi a</w>
er st
boun ty</w>
25 ,000</w>
15 0th</w>
vi i</w>
p cb</w>
men ace</w>
lef t-
par able</w>
mo dul
is .</w>
fle et</w>
benefici ary</w>
stun ning</w>
har id
ha asan</w>
less ly</w>
ing s.</w>
in .</w>
um p
ram ay
life .</w>
g li
par tial</w>
fertiliz er</w>
e ar</w>
and on</w>
30 2</w>
sw im
ne red</w>
ip at</w>
direc tory</w>
dan cing</w>
exce ed</w>
att achment</w>
3 9
soli dar
se am
lec tu
fr at
controll er</w>
bus h</w>
- time</w>
ol e</w>
g p</w>
br ance</w>
10 4</w>
p ting</w>
contr actual</w>
campaign s</w>
ad he
16 0</w>
l as
hafi z</w>
p it</w>
or ange</w>
mul ti</w>
mo sco
kes hav</w>
bene ath</w>
ap pen
man power</w>
star tup</w>
se t
kitch en</w>
k ia</w>
pp ers</w>
no se</w>
ant -
work shops</w>
erst while</w>
bjp- led</w>
an pur</w>
24 th</w>
ti le</w>
str ing</w>
peo ple.</w>
mil d</w>
automob ile</w>
,9 99</w>
un es
un ci
m ass
khar ge</w>
cap ture</w>
awa iting</w>
r cb</w>
ha j</w>
adver sely</w>
raj e</w>
glen n</w>
defin e</w>
work man</w>
thiruvananth apuram</w>
sex ually</w>
sax ena</w>
o sc
guaran te
repe al</w>
prac tic
pharmaceu tical</w>
prospec ts</w>
par ine
b is</w>
thor oughly</w>
tej ash
mind set</w>
28 th</w>
ty -
poly the
dhar a</w>
comm enting</w>
au top
sha dow</w>
writ ings</w>
sh ra
s our
me als</w>
jag an</w>
10 8</w>
un necessary</w>
consum ing</w>
at ul</w>
y ours</w>
ver sions</w>
ti ps</w>
ro ws</w>
pujar a</w>
per tin
fra g
dele te</w>
de position</w>
hindut va</w>
hi ka</w>
g ated</w>
fin alised</w>
er ation</w>
claiman ts</w>
c ence</w>
tra pped</w>
roh tak</w>
lud hi
19 50</w>
t ops</w>
sat y
neu ro
me tric</w>
me ena</w>
j ak
i v
e able</w>
chakra bor
se wage</w>
ir ates</w>
webin ar</w>
solidar ity</w>
vir g
tit les</w>
ti gh
ou tre
iden tical</w>
win i</w>
ca res</w>
n ak
los ers</w>
inaugur ating</w>
cur few</w>
pa uls</w>
mon ies</w>
ho sting</w>
gi a</w>
b ay
as much</w>
ot ing</w>
e rec
co in</w>
your e</w>
wor e</w>
tor ture</w>
intro ducing</w>
gr ass</w>
er ated</w>
del his</w>
com prise</w>
substan tive</w>
st es</w>
lo dge</w>
inci dence</w>
ic ation</w>
ga j
fulfil lment</w>
evol ved</w>
consor tium</w>
ol ished</w>
clu bs</w>
vo daf
ragh u
qual comm</w>
nish ank</w>
mys ore</w>
legisl ator</w>
ess ors</w>
chandraya an-
raj kot</w>
ho o
enti als</w>
condol ed</w>
secon dly</w>
s q</w>
man tra</w>
bure au
land scap
kum ble</w>
kris han</w>
he ver</w>
do gs</w>
dab ang
curricul um</w>
ad -
poon am</w>
hypo cr
flipkar t</w>
enjo yment</w>
scul p
pra mod</w>
her oes</w>
d us
.0 8.
.0 5.
whic hever</w>
separ ati
provinci al</w>
ev in</w>
e up
chequ es</w>
am bit</w>
tan cy</w>
sec uring</w>
nation alism</w>
i i
re ign</w>
o par
g aya</w>
as cri
appro aching</w>
afri di</w>
sud hir</w>
sh ells</w>
plant ation</w>
parine eti</w>
ki ren</w>
ignor ance</w>
conce ived</w>
pric ing</w>
outre ach</w>
k ala</w>
fraud ul
su res</w>
ran ath</w>
r k</w>
nur ses</w>
hol e</w>
cs k</w>
re mun
privile ged</w>
o a</w>
mat ur
indic ation</w>
im posing</w>
reli ant</w>
fo g</w>
eclip se</w>
50 -
ye d
o tive</w>
live stock</w>
en comp
andre w</w>
12 8</w>
si delines</w>
id ol
e man
atro cities</w>
some what</w>
pl ing</w>
neta ji</w>
i phone</w>
hi p</w>
hebre ws</w>
di gi
charge -
engag ing</w>
dead ly</w>
co p</w>
character istics</w>
29 th</w>
man ir
kan ha
gu ys</w>
film fare</w>
depar ted</w>
dabang g</w>
c ms</w>
ban ner</w>
truth .</w>
c ure</w>
re viewing</w>
pursu ed</w>
f ours</w>
5 000</w>
.0 3.
plan es</w>
narmad a</w>
te eth</w>
nau ght</w>
k and
dev ils</w>
deal ers</w>
ac ute</w>
co ws</w>
g ag
def ending</w>
vacc ines</w>
tal a</w>
la k</w>
fi de</w>
congreg ations</w>
ure a</w>
specific ations</w>
secon ds</w>
ha b</w>
cre di
adju st
sla ves</w>
pre ach</w>
p en</w>
multi lateral</w>
mechan isms</w>
j ack</w>
b arrel</w>
un constitutional</w>
su rendra</w>
j hansi</w>
coll ecting</w>
al mighty</w>
acc red
np r</w>
ne kar</w>
indi go</w>
er ron
consum ed</w>
pu rely</w>
ph r
li fting</w>
preva il</w>
accompl ished</w>
nas a</w>
ic ked</w>
decre ased</w>
belo ved</w>
un ic
ti mel
marri ages</w>
brother hood</w>
. nic.in</w>
sh we
ar aj
appreh ended</w>
wat ched</w>
tejash wi</w>
s ounds</w>
regulari ties</w>
ma id
jeev an</w>
bour ne</w>
bar oda</w>
sust en
subsi di
si m</w>
poli tically</w>
oper ation
jay al
rat an</w>
phot o
mosco w</w>
kilom eters</w>
succ ession</w>
li on
var ieties</w>
ju ice</w>
hor ri
es tive</w>
disrup ted</w>
bye -
teen ag
reque sting</w>
ex changed</w>
cop y
5 7
un seen</w>
infl am
ge .</w>
acc ru
00 0
dra ws</w>
cur se</w>
th am
sa arc</w>
sc or
h ill
cat ering</w>
saff ron</w>
max well</w>
ar gue</w>
ab hin
ve th</w>
sit a</w>
mor ality</w>
ir regularities</w>
ali ke</w>
vivekan anda</w>
egy pti
bha t
tou ching</w>
sc u
iff i</w>
dr. harsh</w>
ul ate</w>
tra ine
m ap
chaut ala</w>
por ting</w>
may ank</w>
la y
ek ta</w>
argent ina</w>
am end</w>
23 rd</w>
u a</w>
k el
ad ol
t vs</w>
po is
inspir ing</w>
up sc</w>
form ats</w>
fif teen</w>
f sl</w>
end ure</w>
co- accused</w>
hec tare</w>
ful l-
savar kar</w>
publ icity</w>
casu alty</w>
vad o
li fel
le w
impro v
st ained</w>
prote sted</w>
maur ya</w>
mat t</w>
loy alty</w>
in ev
immun e</w>
disp at
wor sen
un usual</w>
stre ams</w>
sp in</w>
mo han
j ump</w>
char itable</w>
at manir
presi ding</w>
imper ative</w>
hel per</w>
ha d
extr acted</w>
th .</w>
no. 4
el ite</w>
di versi
bid ders</w>
ang les</w>
neigh bor
ide als</w>
ab vp</w>
ref uses</w>
hospit alised</w>
emis sions</w>
cent ric</w>
bud ge
ash utosh</w>
cou sin</w>
sur ge</w>
manag ers</w>
inti mid
de sper
wel ls</w>
mu ja
liter ally</w>
sc and
provin ces</w>
n f
human itarian</w>
hope ful</w>
l ens</w>
g ged</w>
bo ats</w>
tra p</w>
exemp ted</w>
sol ely</w>
nar as
li b
in ducted</w>
ho ods</w>
son i</w>
ent ment</w>
emper or</w>
credi bility</w>
advant ages</w>
3 4
y at</w>
sor row</w>
ric k
ber ing</w>
bb ing</w>
wi dow</w>
ma han
jayal ali
fun eral</w>
sa heb</w>
other .</w>
ong c</w>
capac ities</w>
b ind</w>
ar ch</w>
moun tain
lo vers</w>
it ated</w>
chest er</w>
no v</w>
mer itor
chakrabor ty</w>
wh it
swe ar
se m
nin th</w>
ness es</w>
liber ation</w>
insec ts</w>
inform al</w>
ho ping</w>
ho c</w>
encoura gement</w>
dha ka</w>
bre ath</w>
ty pical</w>
tissu e</w>
mushar raf</w>
comb ine</w>
shwe ta</w>
sh arm
pl anted</w>
l ashed</w>
il ers</w>
sur prising</w>
recomm end</w>
khur rana</w>
traff icking</w>
meritor ious</w>
to k</w>
ke epers</w>
man preet</w>
exp ecting</w>
el ect</w>
az iz</w>
autop sy</w>
m ill</w>
vac ation</w>
mu sh
jur y</w>
fem ales</w>
con sume</w>
ta imur</w>
ta il</w>
p cl</w>
extr act</w>
exce eding</w>
bo d
anant apur</w>
wal ks</w>
quot ing</w>
mo des</w>
li sting</w>
e id</w>
ak ali</w>
30 ,000</w>
wor th
suppl ementary</w>
stand ar
spin ners</w>
ra gha
man e
c ji</w>
vodaf one</w>
tru st
requ iring</w>
p hosp
man g
lal it</w>
jubil ee</w>
in asmuch</w>
resor ted</w>
lo gic</w>
comp elled</w>
ban sal</w>
wicket keeper</w>
tra -
rec ur
pe red</w>
p es
p cr</w>
liber al</w>
incen tive</w>
cru ise</w>
communic ate</w>
bur ns</w>
un ite</w>
time -
three- match</w>
su hana</w>
sa har
po s</w>
na sty</w>
luc k</w>
decis ive</w>
bel l</w>
aar yan</w>
worl dly</w>
the mes</w>
pa re
fif a</w>
el and</w>
yed dy
ura i</w>
not able</w>
ness .</w>
k ad
ir is</w>
i g</w>
chandr ach
ba il
tele ph
pres ent
l mt</w>
exten sively</w>
solic itor</w>
sh er</w>
read ers</w>
h ans</w>
there on</w>
par as</w>
x x
q atar</w>
inser ted</w>
indi a.</w>
im migration</w>
cheap er</w>
under lying</w>
dic t
consider ations</w>
bur g</w>
provi der</w>
den om
bha dra</w>
.0 4.
remem brance</w>
kar ni</w>
jab alpur</w>
aver ments</w>
appreci ating</w>
avail ed</w>
2 1.0
ti ya</w>
samu el</w>
en um
ne el
la c</w>
improv ements</w>
dee pen
bot tle</w>
war nings</w>
st abil
e thanol</w>
dev a</w>
conf ession</w>
an ony
ad missions</w>
ludhi ana</w>
jacqu eline</w>
inten sity</w>
am aiah</w>
al tar</w>
lo ses</w>
gha z
t one</w>
ri vals</w>
merch ant</w>
m ers</w>
gradu ation</w>
expec tation</w>
cha van</w>
preser ved</w>
dan cer</w>
antici patory</w>
pain tings</w>
ot a</w>
inherit ance</w>
chat ter
whe el</w>
hybri d</w>
gear ing</w>
fi x
coll ectively</w>
adv ances</w>
un beaten</w>
nom inal</w>
conc ession</w>
a ic
1 1.0
th ick</w>
gi ble</w>
contain er</w>
w. p.
sud an</w>
revi ve</w>
ne hwal</w>
belie ver</w>
nic hol
m id</w>
go vin
constitu ent</w>
cis co</w>
arjun a</w>
g ita</w>
sy ner
resp ir
rec k
pul l</w>
ou l</w>
mis cre
ing- in</w>
deal er</w>
car tri
z im
c ers</w>
amal gam
tar a</w>
propor tion
meas ured</w>
influ ential</w>
te d.</w>
or ph
g aining</w>
cs r</w>
compos ite</w>
ce ase</w>
po t</w>
long est</w>
fe b</w>
ev a</w>
re act</w>
expres sions</w>
coordin ated</w>
- fi</w>
no .</w>
ec tors</w>
conclud ing</w>
regul ate</w>
ped nekar</w>
la dies</w>
star c</w>
relev ance</w>
de bu
stri king</w>
preser vation</w>
param e
par a
ill icit</w>
hum ility</w>
e a</w>
truc ks</w>
p ump</w>
intensi fied</w>
week end</w>
t less</w>
m pt</w>
hon or
bl ess</w>
bacter ia</w>
unes co</w>
men on</w>
he in
ar h</w>
wel coming</w>
sa i
good will</w>
err ors</w>
coun ts</w>
repl ying</w>
come back</w>
co- operation</w>
ar sh</w>
alla hs</w>
three- day</w>
juven ile</w>
gar lic</w>
diff er</w>
chandrach ud</w>
ben ch
guarante ed</w>
.0 7.
.0 6.
qu ashing</w>
lo vely</w>
exempl ary</w>
employ ers</w>
assem bli
sur plus</w>
medic inal</w>
kanha iya</w>
un il
tran sit</w>
off spring</w>
dr in
195 1</w>
war ming</w>
n ine
cri tici
bel gium</w>
undertak ings</w>
pd f</w>
es i</w>
dhar am
c at</w>
sil dar</w>
atmanir bhar</w>
w ary</w>
ti fication</w>
re signs</w>
is en</w>
selv es.</w>
ru pani</w>
memor ies</w>
ah s</w>
jack ie</w>
form erly</w>
comman ds</w>
chaw la</w>
p ic</w>
form ity</w>
sy s</w>
mo z
dist ant</w>
ti l
param il
embr ac
cha ins</w>
ty .</w>
ci i</w>
ton ne</w>
recei pts</w>
re actions</w>
malli kar
is o</w>
ed itor
collec tors</w>
assembli es</w>
w re
is ance</w>
we th</w>
renew ed</w>
preva iled</w>
p il</w>
execu ting</w>
ef s</w>
e worthy</w>
2012 -13</w>
susten ance</w>
pen e
p esti
l ingu
confir ming</w>
mo o
li ers</w>
u id
sa hu</w>
le v
j ute</w>
2010 -11</w>
swear ing-in</w>
is s
prob ability</w>
loc ks</w>
interpre ted</w>
thor ough</w>
o wal</w>
nirbha ya</w>
children s</w>
14 0</w>
vado dara</w>
precau tions</w>
jun g</w>
im ala</w>
i is
bit ter</w>
an o</w>
.0 1.
sum mary</w>
un limited</w>
prob ed</w>
polic eman</w>
z afar</w>
on au
mahar aja</w>
lun ch</w>
decre ed</w>
ci ve</w>
3 1
sp -
on ia</w>
exam in
construc tive</w>
rec kon
p.s. -</w>
circul ated</w>
dhar ma</w>
volun tar
per sist
pe ar
oppon ents</w>
das pur</w>
yeddy urappa</w>
repent ance</w>
paramil itary</w>
m n</w>
evacu ated</w>
dig vijaya</w>
bon d
rep ent</w>
not ing</w>
gu t
nar co
frat ernity</w>
foun ding</w>
e b</w>
defin ite</w>
angel es</w>
star tu
speci alist</w>
nor thwest</w>
k ri
f le</w>
design er</w>
baj wa</w>
ab i
4 50</w>
scrip tural</w>
regul ated</w>
peri o
motor cycles</w>
frequ ency</w>
do or
confi guration</w>
announ cing</w>
adverti sing</w>
3 1.
mon uments</w>
accus ed-
th u</w>
in sight</w>
complic ated</w>
bla sts</w>
w ashed</w>
sc s</w>
protec tive</w>
p gi</w>
or tho
imag ination</w>
day a</w>
bi odi
was im</w>
sat ans</w>
re ferences</w>
matur ity</w>
inter active</w>
in land</w>
emis sion</w>
b has</w>
sent ences</w>
sen ate</w>
no where</w>
mean time</w>
gur daspur</w>
.0 2.
ven tion</w>
jag dish</w>
cho ices</w>
ch ari
a rena</w>
sustain ability</w>
ic ed</w>
den sity</w>
assemb led</w>
am ic
pi ous</w>
l ash
de shi</w>
wal es</w>
stat utes</w>
m m
contro ls</w>
b ore</w>
y ak
stro ke</w>
re v
po k</w>
cor respon
30 -
respir atory</w>
resol utions</w>
pharmaceu ticals</w>
sha i
ri gorous</w>
pro mpt</w>
perf ec
ma ha</w>
log in</w>
kk r</w>
jan m
char an</w>
be fitting</w>
p ack</w>
la bel</w>
alle vi
ad di</w>
sho es</w>
immen sely</w>
do c</w>
archae ological</w>
success or</w>
spec tac
scre ened</w>
li f
g ren
di ksh
cho k
o vern
inter rup
gui ding</w>
at m</w>
pill ar</w>
inter acting</w>
im itate</w>
cul ar</w>
27 th</w>
pro ven</w>
intel ligent</w>
ec o-
chair s</w>
a rent</w>
rad hika</w>
mor cha</w>
fe e
eag erly</w>
ci um</w>
ti ously</w>
siddar amaiah</w>
ns g</w>
modi fication</w>
y ash</w>
u pri
roll s</w>
fo ret
en ligh
s q
psycho logical</w>
commod ity</w>
inter actions</w>
implic ations</w>
har ry</w>
voc al</w>
propos es</w>
in t
vi har</w>
kar thik</w>
as sic</w>
wa ja</w>
w p</w>
th y
kar isma</w>
col li
ba ir
scal es</w>
cl ay</w>
ch in</w>
accep ts</w>
ti ble</w>
the a
pa than</w>
limit ations</w>
p per</w>
mu st
adi l</w>
x -
vi able</w>
r f
parliam ent
il legality</w>
gun s</w>
exclud ing</w>
dis c</w>
z y
trium ph</w>
read er</w>
pertin ent</w>
util ised</w>
stu art</w>
road map</w>
r al</w>
pur ity</w>
par a-
i tive</w>
formul ation</w>
197 4</w>
sp are</w>
phar ma</w>
id able</w>
for ty</w>
defe ating</w>
19 70</w>
warri or</w>
ro t
in x</w>
voluntar ily</w>
sd m</w>
qu o</w>
interven e</w>
ing ness</w>
fant astic</w>
an as</w>
pro ofs</w>
mus cle</w>
fi res</w>
explo itation</w>
direc tives</w>
vil liers</w>
suff ers</w>
mu ker
ligh t
grac ed</w>
ber lin</w>
t andon</w>
pw 1</w>
par as
gu m</w>
compan ion</w>
cin em
ze al</w>
vege table</w>
sub mitting</w>
re struc
on ist</w>
colle ague</w>
re kar</w>
under gone</w>
patter ns</w>
conveni ent</w>
sha d
scoot er</w>
survi val</w>
substitu te</w>
ri g
qu arrel</w>
proto col
bar ack</w>
19 48</w>
succ essive</w>
mon e
te stat
sha he
indic ators</w>
g inger</w>
audi ences</w>
anan ya</w>
prag ya</w>
of- the-
descend ants</w>
at or
accoun table</w>
rus h</w>
or gan</w>
moun ted</w>
harid war</w>
g ate
bob by</w>
ash wini</w>
- off</w>
rel ess</w>
rec re
gau rav</w>
con sist</w>
veri fy</w>
sabar imala</w>
off erings</w>
197 5</w>
re acted</w>
obe dience</w>
earth ly</w>
deb ts</w>
vig yan</w>
subra manian</w>
san g</w>
f m</w>
chatur vedi</w>
abun dance</w>
t cs</w>
insul t</w>
hard ware</w>
ple as</w>
lap se</w>
kno c
k l
dim ir</w>
bi ology</w>
1, 0
wh ome
whome ver</w>
v s.</w>
under lined</w>
restaur ant</w>
rec ite</w>
qu est</w>
vacc ination</w>
ar y
t all</w>
sa want</w>
p ent
metr e</w>
kin dly</w>
water ways</w>
n hai</w>
jayalali tha
wi -fi</w>
studi o</w>
decis i
a erial</w>
separ ation</w>
bac king</w>
197 9</w>
v v
sk ir
republic an</w>
parti ally</w>
do t</w>
abun dant</w>
win ding</w>
up grade</w>
pe l</w>
inflic ted</w>
don ated</w>
bb c</w>
3 d</w>
qu eu
on e.</w>
go pal
fran k
enter tained</w>
con clu
ca b</w>
so far</w>
k ang
harve sting</w>
christi an
vla dimir</w>
ro l</w>
for ci
thea stern</w>
mel a</w>
in ce
cal cium</w>
war fare</w>
un d</w>
st ab
perf ection</w>
e e
tra ditionally</w>
one- day</w>
mix ture</w>
experi ment</w>
eth ical</w>
de sk
chandrayaan- 2</w>
y n</w>
tan ks</w>
plain s</w>
impro ves</w>
de z</w>
co im
bere aved</w>
overn ight</w>
x ia
start- ups</w>
koch har</w>
has n</w>
g at</w>
ad h</w>
w ol
startu ps</w>
carri age</w>
at oes</w>
sa ith</w>
privile ges</w>
pra bhas</w>
miscre ants</w>
mag nit
explain ing</w>
slow down</w>
rs. 6
pre dec
ic u</w>
rec ited</w>
hin i</w>
dee per</w>
con ditional</w>
cade ts</w>
al arm</w>
ze al
whe els</w>
kun al</w>
ap er
trib als</w>
tempor arily</w>
t ence</w>
syri an</w>
kab ul</w>
d ak
pro found</w>
l as</w>
si mr
mal es</w>
bo dh</w>
analy st</w>
ack er</w>
n ps</w>
li abilities</w>
cap tains</w>
b oul
stra in</w>
scat tered</w>
re kha</w>
nay ak</w>
b se</w>
arre ars</w>
vidy alaya</w>
kab addi</w>
fac to</w>
diver ted</w>
clari fy</w>
isa ac</w>
hypocr ites</w>
fir stly</w>
felicit ations</w>
chatter jee</w>
an eous</w>
sto w</w>
or bit</w>
kar s</w>
chand ras
appre n
ul la</w>
sat ya</w>
m ir</w>
di stor
ai ad
v able</w>
kar ti</w>
hi ding</w>
de an</w>
d ag
197 8</w>
wrong ly</w>
vijay an</w>
l one</w>
ep ic</w>
ble eding</w>
un toward</w>
196 3</w>
lan der</w>
gi an</w>
coim bat
go dav
dis k</w>
ch rists</w>
sub has</w>
administr ators</w>
sh ine</w>
rec y
gu y</w>
et u</w>
covid 19</w>
men tioning</w>
batt al
p oul
matri x</w>
gr ass
consoli dated</w>
compl ied</w>
ba zar</w>
ar -
y pe</w>
mel bourne</w>
mater i
marg inal</w>
ha ils</w>
prof .
la den</w>
de t
ab used</w>
suff ici
strugg ling</w>
min g
in crimin
ge m</w>
sa ura
info sys</w>
develop ers</w>
cell ular</w>
195 2</w>
sa p
po p</w>
mar cus</w>
gov t.</w>
e den</w>
counc ill
shou ted</w>
se .</w>
par an</w>
kid ney</w>
gar bage</w>
don ate</w>
battal ion</w>
t rent</w>
ans w
am bala</w>
wrong doers</w>
shiel d</w>
radi ation</w>
outra ge</w>
wicket- keeper</w>
tab u</w>
t m
st ation
regar dless</w>
in complete</w>
gur dwara</w>
en force</w>
en do
direc tive</w>
ro bo
guar ding</w>
and -
sur ya</w>
ro me</w>
ot e</w>
cr l</w>
ti r
protocol s</w>
pur view</w>
fe at</w>
eth ics</w>
em powering</w>
br is</w>
ahu ja</w>
well ness</w>
un due</w>
sin dh</w>
bar am
thir d-
lux ury</w>
enfor ced</w>
de th</w>
c av
roc ket</w>
purcha sing</w>
compen s
commemor ate</w>
y ang
fo ster</w>
ag rawal</w>
ret d</w>
mad hav</w>
an ki</w>
uid ai</w>
pra desh
per ing</w>
link ages</w>
ric hard</w>
regul ator</w>
co ins</w>
av ati</w>
t cy</w>
stan i</w>
mosqu es</w>
cl arity</w>
t20 is</w>
n ana</w>
ince ption</w>
gl ac
disc er
dedic ate</w>
ch un
appoin ting</w>
196 5</w>
refin ery</w>
op tical</w>
coordin ate</w>
a is
noti fications</w>
30 .
soci et
seas ons</w>
qu ash</w>
p mla</w>
conven ed</w>
work place</w>
ran jit</w>
proced ural</w>
fl our
eleph ant</w>
chandras he
2 .</w>
zim bab
william s</w>
shre yas</w>
r ough</w>
organis ms</w>
g ain
calam ity</w>
k aul</w>
jo sh</w>
go swami</w>
fier ce</w>
f. i.
equ ation</w>
coimbat ore</w>
att a</w>
trac ed</w>
sur faced</w>
magnit ude</w>
inten ds</w>
i its</w>
fl or
dis qualification</w>
trans formed</w>
po le</w>
gir i</w>
dil jit</w>
will ingness</w>
treas ure</w>
exhi bited</w>
de .</w>
bl ings</w>
ad mits</w>
red mi</w>
m at</w>
co a</w>
wil led</w>
sa ints</w>
ref re
path ak</w>
handlo om</w>
4 5
wash ing</w>
li ps</w>
charge- sheet</w>
char les</w>
c d
acceler ate</w>
un aware</w>
tit udes</w>
showcas ed</w>
sa u
inf ant</w>
finger print</w>
auth ors</w>
ac ies</w>
wa h</w>
remedi es</w>
pl e-
magni fic
justi fy</w>
hal t</w>
elev ated</w>
conflic ts</w>
1 .</w>
ys r</w>
ow ns</w>
ha sin
ha sh
eph es
deep en</w>
7 50</w>
4 g</w>
24 .
spac es</w>
so -
infr ing
expres ses</w>
bas u</w>
al titude</w>
nig am</w>
k em
envis ages</w>
bair stow</w>
tor ate</w>
sacrific ed</w>
north- eastern</w>
in mates</w>
fic tion</w>
ex o
ex clusion</w>
clin ton</w>
ar pur</w>
a sting</w>
5- megapixel</w>
vol tage</w>
st en
slog an</w>
r r
pl ug
herein above</w>
chok si</w>
195 7</w>
ab e</w>
tai wan</w>
out lay</w>
org ans</w>
o il
ha ul</w>
bank rup
an ce.</w>
ti red</w>
sho wro
ref usal</w>
or bit
maje sty</w>
sh ed
peac efully</w>
me ga
k rishi</w>
disa sters</w>
cp ses</w>
ca sts</w>
th al</w>
pen ned</w>
ha ji</w>
gri eve</w>
cre dible</w>
civil ization</w>
win der</w>
ukra ine</w>
scot land</w>
overwhel ming</w>
lam ps</w>
g ary</w>
sa v</w>
po ets</w>
neighb our</w>
n im
coun ters</w>
ass ing</w>
1 12</w>
war ns</w>
shang hai</w>
in sofar</w>
in ference</w>
e ur
c sir
t as
reason ably</w>
hin a</w>
hel med</w>
flag ged</w>
advan cement</w>
vend or</w>
the l</w>
shi fting</w>
loo se</w>
handicra fts</w>
el ementary</w>
chow dhury</w>
sub stances</w>
nawa b</w>
e gg</w>
bott les</w>
padma vati</w>
ken ya</w>
har sh
aven ues</w>
pi x
idol at
grand father</w>
conferen ces</w>
athle tics</w>
at ri</w>
ornam ents</w>
ess ly</w>
dy nasty</w>
conce pts</w>
ur ging</w>
ud ai
re construction</w>
dis order</w>
decl ining</w>
b mc</w>
ad duced</w>
200 9
sha me
prob able</w>
bureau cr
aiad mk</w>
un likely</w>
tribun als</w>
tex ts</w>
propag anda</w>
phr ase</w>
man du</w>
j ec
fur nit
.1 .
un reasonable</w>
sty les</w>
pur -
di str
consequ ential</w>
ab sent</w>
p.w. 2</w>
ner vous</w>
land lord</w>
i. e.
godav ari</w>
se ize</w>
obe dient</w>
n ase
electri fication</w>
voc ational</w>
va ish
u ter
stu ff</w>
palest inian</w>
mon go
lab or</w>
diksh it</w>
aj ink
win d
swim ming</w>
offen sive</w>
gr as
attr action</w>
ach and
presi dency</w>
i os</w>
c ng</w>
ban s</w>
ajink ya</w>
admon ition</w>
k ag
inform ing</w>
gen e</w>
foc us
der ness</w>
ul ous</w>
treas ury</w>
cha it
wa i</w>
sel ler</w>
off enders</w>
naras im
boy cot
bankrup tcy</w>
adol es
ta hir</w>
sub urban</w>
some how</w>
agar h</w>
son ali</w>
san t
justi fication</w>
v in</w>
uni fied</w>
s u</w>
de duc
bid der</w>
2 3.
- 3</w>
ter ies</w>
restaur ants</w>
start- up</w>
reti re</w>
ra dical</w>
ra bi</w>
man dated</w>
grac ious</w>
f r</w>
el even</w>
rich est</w>
m ic</w>
evid ently</w>
4 6
10 0
uz be
m. venkaiah</w>
tra uma</w>
re h
out lets</w>
dv ant
disa dvant
shai kh</w>
mane ka</w>
do s</w>
db t</w>
un acceptable</w>
u ity</w>
sha tru
di as
ch it</w>
scu ffle</w>
oc ity</w>
conclu sions</w>
sw ay
sar kar</w>
qu a</w>
ric hard
resp ite</w>
phy si
nam a</w>
jayalalitha a</w>
ge eta</w>
con fer</w>
bi bles</w>
ar ray</w>
respon ses</w>
pur suit</w>
pac ked</w>
hall s</w>
aj mer</w>
.1 2</w>
poul try</w>
giri raj</w>
fron t
ch ill
brah ma
allow ances</w>
6 4gb</w>
sp ared</w>
reg a</w>
mallikar jun</w>
ma z
ev il
di al
ch ick
ath i</w>
pa resh</w>
g ari
fundam ent
sli p</w>
pi er
inter course</w>
dro ps</w>
wid th</w>
to yot
son y</w>
sen e</w>
ni ghts</w>
function aries</w>
dri ves</w>
astr onom
10 2</w>
op athy</w>
nan dez</w>
intere st
india- china</w>
hor ses</w>
cham bers</w>
ac tor-
srini vas
n ity</w>
lon ged</w>
evol ving</w>
ci a</w>
25 .
muzaffar nagar</w>
dea f</w>
acci dental</w>
travel lers</w>
pen insul
g ps</w>
dis belief</w>
ad or
ric hes</w>
j k</w>
he ated</w>
ha o</w>
dimen sions</w>
cr ashed</w>
cho le
b d</w>
prec e
it c</w>
gre y</w>
food grains</w>
as pur</w>
v -
thre sh
le ep</w>
2 1-
mu ch-
less ness</w>
flag s</w>
ec ia</w>
diagno sis</w>
tow n
nig eria</w>
inv en
conce al</w>
cb dt</w>
bas in</w>
19 60</w>
un -
equ als</w>
an thro
vin der</w>
se dition</w>
jo shu
car to
cap tain
aw ada</w>
asp ir
an r</w>
net working</w>
manj rekar</w>
it ably</w>
i us</w>
comman ding</w>
chaud h
b u</w>
san ji
evic tion</w>
cham paran</w>
bhatt acharya</w>
sign als</w>
med itation</w>
lit res</w>
ker o
under ground</w>
richard son</w>
j is</w>
indirec tly</w>
in forma
im f</w>
bis ho
bi ome
2 7.
197 7</w>
vis e</w>
st um
rad itya</w>
inten d</w>
ho st
discre pan
den mark</w>
cred itors</w>
accoun ted</w>
sur ge
shiv pal</w>
se th</w>
se mination</w>
promo tions</w>
mortg age</w>
indi ces</w>
attem pting</w>
mu d</w>
journal ism</w>
equip ments</w>
dec ent</w>
cy ber
ari ous</w>
pak h
medi ation</w>
jal and
christian ity</w>
benef itted</w>
bap tism</w>
ak i</w>
ag gar
ad jac
vie w
not ably</w>
jere miah</w>
hi z
e em</w>
disa gre
bat i</w>
advis e</w>
ac ha
work force</w>
she h
inter- state</w>
garm ents</w>
drow ned</w>
dra matic</w>
tro pical</w>
stic ks</w>
sa ha</w>
p.w .</w>
mission ary</w>
l is</w>
jum ped</w>
an ch
3 3
sur rendered</w>
rit uals</w>
pul se</w>
ha q</w>
col oured</w>
bab ri</w>
arm ing</w>
an .</w>
so ren</w>
el ed</w>
dent ally</w>
collabor ative</w>
char ter</w>
se t-
mis er
me a</w>
defin es</w>
an ag
an a
195 5</w>
v ents</w>
sin ners</w>
senti ment</w>
ri fle</w>
eff ected</w>
chur ches</w>
centr ally</w>
accompan ying</w>
2- megapixel</w>
toyot a</w>
si blings</w>
ref using</w>
ple ading</w>
fa z
cl assic</w>
chole ster
ten ancy</w>
revo ked</w>
lak shad
kil ome
consider ably</w>
wrest ler</w>
teach es</w>
pro li
non -</w>
mir ror</w>
man a</w>
impe tus</w>
.1 3</w>
suppl iers</w>
some time</w>
pay tm</w>
gre ece</w>
biodi versity</w>
stead fast</w>
standar di
ri ya</w>
r hy
mb bs</w>
copy right</w>
can ton
anant nag</w>
refra in</w>
pha se-
w l</w>
sa j
polythe ists</w>
pl ots</w>
mis chief</w>
kut ch</w>
ith ecia</w>
eup ithecia</w>
a f</w>
ti lak</w>
lew is</w>
bha s
b him</w>
arre n</w>
w ishing</w>
resum ed</w>
po ison</w>
jyoti raditya</w>
ha pur</w>
10 1</w>
woo den</w>
4 7
it bp</w>
du al-
bare li</w>
av i</w>
wh is
u -
ge ar</w>
f w</w>
annex ed</w>
zimbab we</w>
wom ans</w>
tion s.</w>
re payment</w>
ob ero
conf used</w>
cha l</w>
a ths</w>
u pli
swit ched</w>
so od</w>
self- reliant</w>
par cel</w>
magist rates</w>
conver gence</w>
cler k</w>
circum stan
scri bed</w>
re mind</w>
m aps</w>
f lock</w>
ar isen</w>
amp ed</w>
n ish</w>
mer kel</w>
log o</w>
landscap e</w>
kero sene</w>
indul ging</w>
imp acted</w>
gro ws</w>
den se</w>
csir -
ben jam
th in</w>
shoul dnt</w>
p cc</w>
fav or
esh wari</w>
ear marked</w>
di st</w>
adjac ent</w>
5 00
worl d-
re nov
p u</w>
india- pakistan</w>
g om
fer nandez</w>
bl an
spec ulation</w>
organiz e</w>
k sha</w>
he g
re ty</w>
ramay ana</w>
n ain
illu stration</w>
discipl ines</w>
day al</w>
bha k
ha y
en ce
desk top</w>
co s</w>
bre ath
bi j
res em
pol and</w>
j ar</w>
grand son</w>
dro me</w>
corrid ors</w>
compan ys</w>
chandr ase
camer on</w>
be er</w>
2 6.
si an</w>
trans forming</w>
tem p
har an</w>
dis cover</w>
br ac
sti r</w>
poc ket</w>
nor th
exped ite</w>
band han</w>
spe l</w>
mukh tar</w>
hi man
bur st</w>
te am
men u</w>
en ce.</w>
destro ying</w>
ten dency</w>
sin h</w>
shahe en</w>
pre valent</w>
k vic</w>
he er</w>
ten th</w>
inst al
htt ps</w>
ext ingu
aggar wal</w>
pr one</w>
omis sion</w>
kashm iris</w>
fo x</w>
de served</w>
stre am
rob bery</w>
prin ts</w>
n it</w>
mo een</w>
con du
bi ography</w>
ti me.</w>
state- run</w>
in ate</w>
d ash
choo sing</w>
c z
15 -
sub- inspector</w>
pathan kot</w>
magaz ines</w>
bom bs</w>
barri ers</w>
vi ii</w>
ta ap
pro strate</w>
internation ally</w>
ed ly</w>
de ities</w>
.1 7</w>
sun ita</w>
righ t-
am ple</w>
10 -
toler ated</w>
pro spective</w>
pip es</w>
pesti ci
ob servers</w>
en rich
c ater</w>
assum ption</w>
a 1</w>
.1 6</w>
soci alist</w>
re na
med all
incrimin ating</w>
f cs</w>
director ial</w>
28 .
sun dar</w>
e i</w>
dias pora</w>
upgra ded</w>
han g</w>
ambi gu
subscri ber</w>
it ative</w>
h ire</w>
enjo ys</w>
conven tions</w>
cholester ol</w>
ab dom
pre m
goo dness</w>
d wi
thro at</w>
lakshad weep</w>
h ta</w>
fabric ated</w>
ba th
tru sts</w>
nur se</w>
fil ter</w>
f ci</w>
wholes ale</w>
shatru ghan</w>
c t</w>
ar as</w>
ac quiring</w>
15 ,000</w>
over -
medall ist</w>
exc use</w>
coun selling</w>
brief ly</w>
2 1.
purcha ser</w>
pra ises</w>
inter views</w>
erron eous</w>
c n
and an</w>
tor n</w>
shame ful</w>
ra in
guaran tees</w>
co .</w>
ne ys</w>
k endra</w>
furnit ure</w>
b mw</w>
asha med</w>
sh ree</w>
rit es</w>
hon ours</w>
con sign
ud u</w>
sa ur
inv ites</w>
ic ks</w>
es ar</w>
do sanj
aggres sion</w>
vie wers</w>
vas un
p oured</w>
jaland har</w>
st aff
rebel lion</w>
messi ah</w>
wh om
un employed</w>
ster ing</w>
six -
ar ai</w>
a il</w>
20 25</w>
17 0</w>
upadhy ay</w>
transpor ted</w>
tournam ents</w>
sin ce
raj ouri</w>
pro ves</w>
le pro
di l</w>
dam an</w>
cont am
barri er</w>
os ity</w>
min ded</w>
men tions</w>
me en</w>
cat aly
answ ering</w>
taap see</w>
prison er</w>
cy .</w>
semi- final</w>
mad urai</w>
ar range</w>
ank it</w>
yan g</w>
vel ocity</w>
there upon</w>
man chester</w>
joshu a</w>
extre mism</w>
cont ing
av an</w>
accompl ish</w>
to wers</w>
prud ence</w>
pec u
pa ste</w>
juris dic
i es
d ous</w>
cent enary</w>
sen sors</w>
ir fan</w>
gun tur</w>
en rolled</w>
doub tful</w>
constitu tes</w>
victor ia</w>
inher ited</w>
bon ey</w>
12 8gb</w>
0 1
ste adily</w>
protec tor</w>
on board</w>
fin est</w>
comman ders</w>
colon el</w>
y u</w>
trans fers</w>
sam iti</w>
mar sh</w>
fin alized</w>
dosanj h</w>
brahma stra</w>
32 gb</w>
super annu
obero i</w>
log ically</w>
connec ts</w>
v arma</w>
tt es</w>
st up
parti cles</w>
ce os</w>
car ved</w>
ad orable</w>
5 9
swar a</w>
per verse</w>
lo gi
iz es</w>
sel f.</w>
phenomen on</w>
def ect</w>
d les</w>
at lan
z o</w>
tran qu
go spel</w>
exp ired</w>
deterior ated</w>
bi as</w>
bal lot</w>
trans mitted</w>
sw iss</w>
mar ital</w>
m rs</w>
inv ent
hasin a</w>
chic ago</w>
substitu ted</w>
sp ell</w>
eag er</w>
cl am
cap ped</w>
br ass</w>
bas h</w>
squ ad
ra ping</w>
pro xim
p am
finan cially</w>
end urance</w>
bal och
there under</w>
im migrants</w>
hope fully</w>
al ph
vis as</w>
promo tional</w>
laim ed</w>
gest ure</w>
bu yer</w>
all a</w>
a. no.
a ha</w>
re produced</w>
ram dev</w>
muja hi
ly on</w>
ham pur</w>
gener ous</w>
bas es</w>
40 ,000</w>
wan g</w>
vent ures</w>
ten dered</w>
pa tho
he ma</w>
.1 4</w>
fi able</w>
c rushed</w>
ant ony</w>
out fits</w>
kot ak</w>
invo king</w>
hin der</w>
di ya</w>
tr umps</w>
ol l
il ly</w>
fab ric</w>
at er
ann e</w>
ti ming</w>
rus sell</w>
me en
cup s</w>
bhar d
trou bled</w>
ten s</w>
pw- 3</w>
gradu ates</w>
dr one</w>
defici ency</w>
amar nath</w>
ti veness</w>
sak shi</w>
res ist</w>
fer nand
ext. p
whom soever</w>
pe dia</w>
ha w
gall ery</w>
captain cy</w>
ali gn
accu sations</w>
ur l</w>
ti fy</w>
sm ile</w>
res entment</w>
obj ec
nab ard</w>
ge -
fl u</w>
d ak</w>
pp e</w>
ill -
al um
ak er</w>
pan nu</w>
io c</w>
indu s</w>
independ ently</w>
hast en</w>
expe dition</w>
dis qualified</w>
- ul-
viol ates</w>
toler ate</w>
sl um</w>
m entation</w>
e- mail</w>
commit ments</w>
bag hel</w>
awarde es</w>
ari ya</w>
san on</w>
rel uc
poon ch</w>
o on</w>
lea f</w>
de ath
bha tia</w>
ad arsh</w>
17 5</w>
upri ght</w>
perce ived</w>
nd ps</w>
nar rative</w>
n ial</w>
ex tradition</w>
e ish</w>
unanim ously</w>
th ine</w>
portu gu
ox ford</w>
il es</w>
surviv or</w>
sp ices</w>
queu es</w>
produc tions</w>
disap poin
an is
kar un
gh a</w>
em irates</w>
bre eding</w>
bran ds</w>
b ra</w>
war t</w>
visi on
t ang
kaz akh
inspec ted</w>
compe tence</w>
benjam in</w>
appro ve</w>
ps u</w>
muk ul</w>
it ude</w>
fu els</w>
dut ch</w>
jon ny</w>
fort night</w>
e ter
son owal</w>
sa fer</w>
must ard</w>
hol dings</w>
fl oral</w>
broad band</w>
raj inder</w>
e o</w>
commend able</w>
ac knowledge</w>
x y</w>
studi os</w>
p umps</w>
fi er</w>
v ou
scra p</w>
perfec tly</w>
no de</w>
im am</w>
bun g
aggreg ate</w>
a icc</w>
14 5</w>
udai pur</w>
sol ving</w>
represent ations</w>
law makers</w>
honest y</w>
bi kes</w>
autonom y</w>
insu red</w>
neutr al</w>
interest ingly</w>
di oxide</w>
conduc tor</w>
con federation</w>
blue tooth</w>
ba z</w>
ah u</w>
xia omi</w>
un certainty</w>
spr ings</w>
real istic</w>
exp ects</w>
cas ual</w>
a ster
ty agi</w>
proc ession</w>
inten tions</w>
fruit ful</w>
erup ted</w>
conduc ts</w>
ali en
um al</w>
sub -</w>
ro -
publ ishers</w>
en cry
eff ecti
doub led</w>
bed ded</w>
tra il</w>
st ays</w>
ram pal</w>
comb ating</w>
boar ding</w>
bj d</w>
bil aspur</w>
tam il
p tive</w>
sp s</w>
reckon ing</w>
pack aging</w>
metho do
inher it</w>
in dra</w>
ter ming</w>
o y</w>
elimin ated</w>
dis semination</w>
chand a</w>
arch y</w>
araj an</w>
up hold</w>
stop ping</w>
shar ply</w>
j im</w>
gir ish</w>
c md</w>
u sha</w>
t all
saura bh</w>
max im
mah mood</w>
kath mandu</w>
en ro
regist ry</w>
pm -
p uni
dela ys</w>
bo di
be arer</w>
sports persons</w>
sp y</w>
s me
quanti ties</w>
dwell ers</w>
d s.</w>
congratul ates</w>
comm ent
lo com
in is</w>
au stri
adjour ned</w>
196 7</w>
vasun dhara</w>
since rely</w>
reli efs</w>
ph ul
it ement</w>
under stand
stri ving</w>
har s</w>
2 2.
re warded</w>
prosp ect</w>
om a</w>
off ender</w>
ic ar</w>
al istic</w>
streng ths</w>
re sts</w>
plac ement</w>
magnific ent</w>
landsli des</w>
d cp</w>
alleg es</w>
portu gal</w>
insu rer</w>
be thel</w>
balak ot</w>
z hi
where of</w>
sul tan
pac kets</w>
mc g</w>
consequ ent</w>
c all
steph en</w>
ran ji</w>
lepro sy</w>
jer sey</w>
interrup ted</w>
fin land</w>
construc ting</w>
light ning</w>
fore most</w>
disci ple</w>
am u</w>
well- known</w>
viol ate</w>
ve z</w>
n h</w>
jin nah</w>
front line</w>
forth with</w>
w ounds</w>
portugu ese</w>
p pac</w>
madh u</w>
le ys</w>
i di
fu gi
ev m</w>
def ec
sk y
om ing</w>
inti mate</w>
will .</w>
showro om</w>
rit eish</w>
recy cl
r oughly</w>
mun da</w>
dig vijay</w>
us man</w>
kill ings</w>
ferti lis
worl d.</w>
v ine
mer ic</w>
ill er</w>
fraudul ent</w>
exhor ted</w>
po on</w>
19 14</w>
car ing</w>
angan wadi</w>
ud ay</w>
mujahi deen</w>
i gh</w>
bha t</w>
athle te</w>
radha krishnan</w>
dis pose</w>
d ressed</w>
compe ting</w>
bhard waj</w>
bachel or</w>
ag a</w>
z ila</w>
par ity</w>
rave esh</w>
off line</w>
ne il</w>
ir re
himalay as</w>
gre ets</w>
fic ci</w>
accoun tant</w>
thresh old</w>
sin ful</w>
re marked</w>
ra rely</w>
m ns</w>
fas c
37 6</w>
y .
shiv akumar</w>
mug hal</w>
j im
i tis</w>
di y
victor ious</w>
pan ipat</w>
histor ian</w>
de ar
counter parts</w>
v our</w>
so wing</w>
ph d</w>
organ ise</w>
deal ings</w>
baloch istan</w>
ass am
refl ection</w>
push ing</w>
n go</w>
loc ally</w>
it y-
e ste
cis f</w>
cir cles</w>
boo ths</w>
nam ing</w>
modern ization</w>
kne e</w>
kidn apping</w>
im perfect</w>
experim ents</w>
boy friend</w>
bha gal
amp a</w>
thro wing</w>
st i</w>
sensi tivity</w>
mis cell
jag ann
cultiv ate</w>
blo g</w>
bic y
wh ip</w>
w to</w>
rs. 5
minist r
list ened</w>
k ran
dha m</w>
business men</w>
196 6</w>
un happy</w>
rel s</w>
pack ages</w>
n ap
hun gry</w>
dig it
comp act</w>
cha r</w>
arrog ant</w>
resurrec ted</w>
pra yag
exhi bits</w>
e go</w>
do om</w>
distribu te</w>
applic ability</w>
abh bhai</w>
t sun
precau tionary</w>
popul arly</w>
cha d
am ent</w>
1, 5
ren amed</w>
lau gh</w>
ko m</w>
cli ents</w>
pro longed</w>
occur ring</w>
no. 7</w>
moun i</w>
ir pur</w>
diagno stic</w>
den gue</w>
al ter</w>
with drew</w>
ver .</w>
v k</w>
ti m
tab led</w>
prabha kar</w>
pav il
kazakh stan</w>
fa st-
cut t
an ya</w>
alumin ium</w>
symb ols</w>
foret old</w>
bri gh
6 6
ur ban
so or
inv ented</w>
boo sting</w>
ax e</w>
vic inity</w>
so- called</w>
en vel
contribu tes</w>
naray an
hi ked</w>
he y</w>
eli mination</w>
analy sts</w>
3 000</w>
tion er</w>
k id</w>
gu ess</w>
g ently</w>
dismis sing</w>
- general</w>
wi reless</w>
tus har</w>
shop ian</w>
rs.1 ,
recipi ent</w>
m gn
gu ine
gent le
auc tions</w>
10 9</w>
nor way</w>
net any
di min
box es</w>
as cen
any way</w>
tr um
form ers</w>
colon ial</w>
bhoj puri</w>
weigh ed</w>
stra igh
shankar acharya</w>
pat ra</w>
miscell aneous</w>
ic ing</w>
elev ation</w>
conf isc
chro mo
an u</w>
al war</w>
pro claim</w>
perpetr ators</w>
par amount</w>
p g
ord ained</w>
my tho
mo ist
complim ented</w>
1, 9
tra i</w>
harb our</w>
arch i
anx ious</w>
1 15</w>
trans forma
fiel ding</w>
e dit</w>
de s
196 8</w>
wra pped</w>
trust worthy</w>
sa ges</w>
re e
propri e
gi ya</w>
bloo d
al ising</w>
z er</w>
vand e</w>
truste e</w>
lun g</w>
l jp</w>
ex. p
12 4</w>
pra veen</w>
nor mal
n ut</w>
motiv ate</w>
la i</w>
l oud</w>
is er</w>
ign oring</w>
dis orders</w>
angu ish</w>
10 6</w>
refl ecting</w>
k ari
w.e. f</w>
pra ising</w>
oppon ent</w>
ma thur</w>
g ra</w>
chro me</w>
bet ter
z z</w>
sub ur
lec tures</w>
intermedi ate</w>
where fore</w>
mal inga</w>
cap tive</w>
an ita</w>
196 9</w>
ru in</w>
main tains</w>
je m</w>
head lines</w>
anticip ated</w>
ya an</w>
spar ked</w>
pro pose</w>
gen es</w>
fer o
educ ate</w>
aero space</w>
slau ghter</w>
in duction</w>
colon ies</w>
1, 7
tur meric</w>
tax i</w>
nor theastern</w>
lay out</w>
lash kar
kot wali</w>
conver sations</w>
cap ita</w>
um bre
st atic</w>
s le</w>
presi dent
m apping</w>
lo ads</w>
bhagal pur</w>
alex ander</w>
speci alized</w>
se as</w>
sa jid</w>
rs. 4
out set</w>
celebr ity</w>
scholar ships</w>
mer ce
cardi ac</w>
w back</w>
guar di
gor geous</w>
gon na</w>
con g</w>
circumstan tial</w>
shepher d</w>
philos op
o ch</w>
foc uses</w>
b op
mill en
met als</w>
grand mother</w>
cl ar
ash raf</w>
sup pose</w>
sti r
ja ff
floo d-
flo ating</w>
contradic tions</w>
bah rain</w>
alter na
sha shan
seas onal</w>
prece dent</w>
ce a</w>
- india</w>
thum b</w>
sa id
par aly
mir a</w>
liquid ity</w>
le mon</w>
expl oring</w>
d op
col ors</w>
ban a</w>
vari ation</w>
tej as</w>
war ding</w>
sy l
raj ap
quarter ly</w>
man isha</w>
lok pal</w>
khali d</w>
condu cive</w>
cartri dges</w>
ca g</w>
an jan</w>
wheel er</w>
vol umes</w>
val ence</w>
un conscious</w>
ortho do
mus cles</w>
decor ated</w>
an ic</w>
photograph y</w>
occas ion
gli mp
econom ist</w>
consul tant</w>
ac ity</w>
1 14</w>
.12 .2016</w>
fil ming</w>
es ic</w>
reven ues</w>
portra it</w>
ne etu</w>
jin n</w>
ev al</w>
bon us</w>
implic ation</w>
cre am</w>
concentr ate</w>
chi ra
bab ies</w>
ve er
maid an</w>
lectu rer</w>
k k</w>
ignor ant</w>
decla res</w>
de tect</w>
consoli dation</w>
be e</w>
awar ding</w>
n ss</w>
jam mu
excep tions</w>
tur ne
shou ting</w>
sec toral</w>
re im
netany ahu</w>
id al</w>
i ously</w>
epi demic</w>
cli p</w>
arch er</w>
an i
al gor
- in</w>
ti bet
singh vi</w>
pw- 4</w>
pra h
j mm</w>
ha i
gab ri
du bbed</w>
di u</w>
candid ature</w>
aspi rational</w>
acquain ted</w>
.1 8</w>
ver tical</w>
r ath</w>
mal ini</w>
i tions</w>
def ended</w>
br un
borro wer</w>
autom otive</w>
in da</w>
deli veries</w>
aic te</w>
ag ni
10 7</w>
roh ing
reg im
lic ences</w>
je al
chill i</w>
chaudh ry</w>
algor ith
ref uted</w>
j ol
har assed</w>
fat alities</w>
disobe dience</w>
con son
bul lets</w>
ang ered</w>
.201 9</w>
vall abhbhai</w>
top ped</w>
cryst al</w>
vid ar
telecommunic ations</w>
sam eer</w>
pl az
nu ts</w>
measu rement</w>
inf o</w>
effecti veness</w>
co er
al tered</w>
s mil
re tribu
da w
chap ters</w>
avoi ding</w>
fl ames</w>
cor pus</w>
ad b</w>
t resp
sel ectors</w>
rob bers</w>
in cul
es say</w>
differen ti
dead line</w>
corrobor ated</w>
comm uters</w>
bi kan
an ad</w>
stri p</w>
reh man</w>
mit a</w>
licen sing</w>
h -
demon strations</w>
const ables</w>
be ver
on eness</w>
gur ud
fortun ate</w>
el o
dig it</w>
f -16</w>
replac ing</w>
ko vic</w>
ill iter
han di
fl our</w>
film makers</w>
ve dic</w>
sh .</w>
pot ato</w>
pl edged</w>
m ile</w>
kha waja</w>
ac ks</w>
thre n</w>
thr iller</w>
theat res</w>
su i</w>
smugg ling</w>
she tra</w>
ag ri
read iness</w>
ori entation</w>
log ged</w>
horiz on
endor sement</w>
dismis s</w>
budge tary</w>
bre thren</w>
ad judged</w>
12 6</w>
10 3</w>
there with</w>
pm g
niz am
negl ected</w>
ye ah</w>
tin y</w>
quot e</w>
kum bh</w>
in- laws</w>
how rah</w>
hi ma</w>
direc ts</w>
conce aled</w>
sym pathy</w>
sp ot
rang es</w>
ox id
explo sive</w>
consul tancy</w>
cho re
bre asts</w>
19 49</w>
19 08</w>
inf antry</w>
5 g</w>
re ra</w>
promp tly</w>
por tions</w>
poli tic
or ia</w>
man us
je ep</w>
bi fur
administ rations</w>
6 50</w>
sand hu</w>
ro d</w>
gap s</w>
bur y</w>
syn drome</w>
re ign
pl ess
or g</w>
instrum ental</w>
import antly</w>
for cing</w>
&apos; an</w>
gra v
12 2</w>
uzbe kistan</w>
objec tionable</w>
mar yam</w>
divor ced</w>
2 30</w>
satis fying</w>
resol ving</w>
interrog ated</w>
express ly</w>
e- governance</w>
coo ked</w>
cam el</w>
as y</w>
soci ally</w>
ravin der</w>
pw- 5</w>
perman ently</w>
ki e</w>
har der</w>
buil ders</w>
se vak</w>
san itary</w>
reim bur
re dly</w>
prec ise</w>
mar vel
mah to</w>
grat uity</w>
buddh ism</w>
vi j
tr ick</w>
tom b</w>
ti p</w>
roman ce</w>
ri der</w>
pa ths</w>
meh ul</w>
ji had</w>
ec i</w>
chr onic</w>
bi den</w>
ar ya</w>
vigil ant</w>
suppl ying</w>
sub marine</w>
scal ped</w>
restruc turing</w>
man -
k ins</w>
brother -in-law</w>
bla ze</w>
dis semin
consul tative</w>
asth ana</w>
vice- captain</w>
explo si
d hu
colom bo</w>
cigare ttes</w>
chatur thi</w>
1 16</w>
sou th
se ema</w>
s as
mist ak
le tting</w>
ha di</w>
bi o</w>
4 4
x in
shi k</w>
scot t</w>
rs. 7
ra mb
gra vity</w>
p ie
dh ana</w>
cre ati
confir ms</w>
cha sed</w>
assi sting</w>
acade mia</w>
2009 -10</w>
swe dish</w>
sp ur
midd le-
han pur</w>
assu redly</w>
the ism</w>
pollu ted</w>
nc b</w>
lo ver</w>
e thi
bru tal</w>
13 5</w>
sh ill
resili ent</w>
prohi bit
presti ge</w>
jaish-e- mohammed</w>
evacu ation</w>
petition er-
mi k</w>
exhi bi
d ho
boul t</w>
arm an</w>
am ins</w>
she kha
pe c</w>
nav deep</w>
j e</w>
inter loc
dow ns</w>
5 8
ogra pher</w>
dis course</w>
demo lition</w>
borro wing</w>
ath a</w>
roc ks</w>
k ali</w>
g ant</w>
em ia</w>
de bris</w>
allo y</w>
tu ber
symbo lic</w>
prayag raj</w>
pp y</w>
har ris</w>
genu in
en cy
z en</w>
vijay awada</w>
ven e
ri er</w>
lashkar -e-
kul karni</w>
initi ation</w>
impro per</w>
h id</w>
evol ve</w>
enro lment</w>
cred itor</w>
c enti
vi raj</w>
traine es</w>
sh ru
retro spective</w>
drag ged</w>
ay at</w>
re adily</w>
ra ha</w>
jais wal</w>
hi red</w>
g ating</w>
f estive</w>
cra ft
correc tion</w>
ar ded</w>
ud ing</w>
ro han</w>
ra mak
program ming</w>
ka h</w>
i to</w>
af p</w>
under stands</w>
trem ors</w>
ram achand
pi res</w>
in fer
hein ous</w>
gate way</w>
furn ishing</w>
character istic</w>
ch lor
y n
v ak
twent y-
rajap ak
promot es</w>
kidn apped</w>
jagann ath</w>
in adequate</w>
fav ours</w>
evalu ate</w>
c id</w>
bhar ata</w>
bab ar</w>
any more</w>
6 ,000</w>
tur b
ste ering</w>
kul bhushan</w>
fe ree</w>
co gent</w>
an is</w>
aler ted</w>
sar ah</w>
l enders</w>
ff e
exc av
canton ment</w>
a udi</w>
ten ants</w>
ne ga
drin ks</w>
dan ces</w>
archit ect</w>
apprehen sion</w>
peri ph
gup till</w>
der -
boycot t</w>
avail ing</w>
accommo date</w>
surve ys</w>
sick ness</w>
pless is</w>
per used</w>
peo ple-
k up
fing ers</w>
bar i</w>
affidav its</w>
contr actors</w>
archit ec
run -
reven ge</w>
po l</w>
depend ence</w>
concer ted</w>
c is</w>
bra very</w>
arti stic</w>
p act</w>
kil ogra
en voy</w>
distur bing</w>
am ending</w>
ul tra</w>
system atic</w>
spec ul
sit aram</w>
she ila</w>
secret ary-
prote ins</w>
nh -
indul ge</w>
foun d
for ce
di pak</w>
by polls</w>
su man</w>
stor ms</w>
proportion ate</w>
peninsul a</w>
mo hali</w>
in finite</w>
haz ar
ear nest</w>
du pl
disru ption</w>
be gum</w>
superannu ation</w>
present ations</w>
na i
n our
fore front</w>
du shy
air space</w>
pra ti
mis lead</w>
kir ti</w>
f ri</w>
ex tor
assu mes</w>
6 7
y ards</w>
regi ment</w>
per -
men ted</w>
lac king</w>
gau ge</w>
g ma</w>
fron t-
fa iz
cere monial</w>
c ra</w>
un authorised</w>
sha t
d k</w>
am ma</w>
tr e</w>
son -in-law</w>
mr s.</w>
k c</w>
h t</w>
forci bly</w>
brow ser</w>
act resses</w>
2 9.
ump ire</w>
trade mark</w>
regulari zation</w>
pic king</w>
landsli de</w>
first- class</w>
1- 0</w>
school ing</w>
ro oted</w>
r r</w>
out going</w>
n us</w>
k out</w>
dar s</w>
che ap</w>
account ants</w>
warran ted</w>
p ash
me tal
ha ply</w>
first- ever</w>
assaul ting</w>
vidar bha</w>
trib ulation</w>
tri fed</w>
tam pering</w>
swach hta</w>
six ty</w>
shashan k</w>
ro w
pro claimed</w>
ethi op
cru el</w>
cor respondent</w>
cor ners</w>
bung alo
bri de</w>
a ai</w>
stal in</w>
promot er</w>
man davi
ky r
a -</w>
1, 4
wi dows</w>
vers .</w>
te stam
syn dic
ren dra
re side</w>
j at
1 19</w>
ra tic</w>
p b</w>
new ly-
mu m</w>
jun gle</w>
j jp</w>
eo in</w>
deli vers</w>
co des</w>
an and
ti bet</w>
t ours</w>
su ic
le ak</w>
du mp
contin ental</w>
cal f</w>
trou bles</w>
sanji v</w>
ra z
go ver
egypti an</w>
dom inion</w>
d t
crow ds</w>
shoul ders</w>
o. s.
m all</w>
fron tier</w>
ash ton</w>
tel es
sto inis</w>
se wer
pecu liar</w>
oil seeds</w>
negl ect</w>
mil a</w>
collabor ate</w>
ba az</w>
ant on
way .</w>
tri vedi</w>
to s</w>
ra ft</w>
pot assi
pha l</w>
hydro gen</w>
h r</w>
truste es</w>
the ore
ha j
cre ed</w>
bat ra</w>
acc essed</w>
spirit uality</w>
ra ms</w>
plas ma</w>
chet eshwar</w>
aud itor
vas cular</w>
sub- clause</w>
qa eda</w>
mission aries</w>
ma an</w>
expedi tiously</w>
dr unk</w>
sy ll
se ated</w>
princi p
nax als</w>
low ing</w>
head quarter</w>
hab ited</w>
deb ates</w>
col or
band ra</w>
aer onau
wil derness</w>
way anad</w>
w als</w>
sewer age</w>
ri dic
ra dar</w>
r us</w>
ke dar</w>
jam shed
gha ts</w>
ar an</w>
wat son</w>
sani tiz
ris hi
pon ting</w>
pol ar</w>
experi encing</w>
d enti
c pi
c g
ab ho
vari ables</w>
testi fy</w>
num bered</w>
le an</w>
lak es</w>
dushy ant</w>
docum entation</w>
air -
var ies</w>
subscri ption</w>
ru ined</w>
restra ined</w>
junc ture</w>
contest ants</w>
commission ing</w>
bet a</w>
assass ination</w>
- ii</w>
uj jain</w>
state- of-the-
re uters</w>
os is</w>
fo res
conce ption</w>
u sive</w>
rep o</w>
implic ated</w>
hard ships</w>
diagno sed</w>
compu ter
chil ds</w>
c ents</w>
prof .</w>
potassi um</w>
mo ck</w>
jo g
it ating</w>
engl ish
ba at</w>
se p</w>
leg ends</w>
curren cies</w>
av eng
ar shad</w>
ance stors</w>
5 60</w>
2 g</w>
y emen</w>
re pay</w>
orig inated</w>
correc tness</w>
bul l</w>
bare illy</w>
5- speed</w>
w u
tou ch
st ops</w>
squad ron</w>
ran dom</w>
manus cri
k hi</w>
execu tives</w>
bhag wan</w>
ay an</w>
av ing</w>
195 8</w>
u man
state-of-the- art</w>
ku wait</w>
fate h
fair ness</w>
cul min
are n</w>
umbre lla</w>
s wel
regul arity</w>
p ir
occasion ally</w>
n m
inter c
in dra
homo e
fi del
deterior ating</w>
ti ka</w>
pha sed</w>
cur ve</w>
an them</w>
6 9
progres sing</w>
par don</w>
n se</w>
mal aria</w>
ham irpur</w>
el e
dischar ging</w>
de preci
tr o</w>
kar nal</w>
fri gh
desp air</w>
compar able</w>
b ill
will ingly</w>
uni ver
pre domin
m ig
di vin
cylin ders</w>
coordin ator</w>
charge able</w>
stam ps</w>
reco vering</w>
dwi vedi</w>
design ing</w>
compos er</w>
authentic ation</w>
abha y</w>
vi gil</w>
n ment</w>
manu el</w>
lever age</w>
g as
fe wer</w>
f lies</w>
disappoin tment</w>
cu is
condem ns</w>
wrong -
sar panch</w>
mc a</w>
l ata</w>
u tra</w>
thu a</w>
semi- finals</w>
obst acles</w>
le aked</w>
f.i. r.</w>
el iz
daugh ter
critici zed</w>
co asts</w>
adap tation</w>
acc ess
tsun ami</w>
tru ths</w>
tik tok</w>
od d</w>
mar s</w>
mandavi ya</w>
liveli hoods</w>
hou ston</w>
ensu res</w>
dis coura
convin ce</w>
bikan er</w>
utter ly</w>
scand al</w>
c ely</w>
woul dn</w>
vit amins</w>
vari ations</w>
popul ations</w>
modi ji</w>
kur no
fellow ship</w>
ec ho
aver red</w>
tari ffs</w>
patrio tic</w>
par kash</w>
kau shik</w>
exem pt</w>
ve d.</w>
r c</w>
promot ers</w>
kran ti</w>
inno cence</w>
fati ma</w>
al as</w>
195 9</w>
0. 5</w>
wa ha</w>
ul es</w>
pw 2</w>
palest ine</w>
p ang
floo ding</w>
at ms</w>
u ment</w>
prin ter</w>
pl a
p itted</w>
gu j
cur ran</w>
there from</w>
pot entially</w>
occu pa
n el
guine a</w>
creati vity</w>
broad ca
air e</w>
15 1</w>
ul l</w>
mo il</w>
kul a</w>
ing e</w>
impar ting</w>
em i
chan der</w>
ber -
15 00</w>
, 3
showcas ing</w>
shah r</w>
ri val
retribu tion</w>
la tions</w>
kh are</w>
in take</w>
apar tment</w>
ab hai</w>
vac ated</w>
rob in</w>
pl ur
myster y</w>
miti gate</w>
gov t.
glori fy</w>
dest iny</w>
acceler ated</w>
wan ath</w>
neighb ors</w>
explo red</w>
t te</w>
sta tioned</w>
preser ving</w>
fl ame</w>
faith less</w>
f s
consist ency</w>
sukh bir</w>
so wn</w>
s b
ro pe</w>
prof itable</w>
p ds</w>
novel s</w>
in duced</w>
heal ing</w>
go al
fugi tive</w>
dh umal</w>
cou gh</w>
constra ints</w>
aw ak
pati ently</w>
pan els</w>
mun de</w>
kurno ol</w>
d led</w>
calcul ation</w>
bo eing</w>
purcha ses</w>
pro active</w>
kam l
inter fe
ind al</w>
es hip</w>
cross- border</w>
bon a</w>
bh anga</w>
b ounds</w>
ar yan</w>
sho wers</w>
jamshed pur</w>
inev itable</w>
fran cisco</w>
dis playing</w>
b ou
af ide</w>
ta il
stab bed</w>
rela xed</w>
r ho
patrio tism</w>
ne gi</w>
mur li</w>
jack son</w>
fit ted</w>
fav orable</w>
dist t</w>
4 20</w>
ter ior</w>
sugge sting</w>
shoot er</w>
pre ached</w>
posi tively</w>
hear ted</w>
ann er</w>
an th</w>
x ii</w>
ori ental</w>
qu ad
prah lad</w>
mut ation</w>
chou bey</w>
bangla deshi</w>
ti re</w>
sn ake</w>
r pf</w>
kno weth</w>
inde finite</w>
in habited</w>
in comes</w>
coun tered</w>
compl ain</w>
cha dha</w>
appropri ately</w>
an ta</w>
ai de</w>
woul dnt</w>
ve da</w>
threat en</w>
ple ad</w>
l c</w>
ha at</w>
don ations</w>
contra band</w>
u g</w>
surviv ors</w>
perce ive</w>
mill er</w>
da wood</w>
c ds</w>
asi ve</w>
l end</w>
k adap
in o</w>
ili an</w>
c ari
strong est</w>
shill ong</w>
remun eration</w>
ra e</w>
psal mist</w>
lo sis</w>
cricke ting</w>
apolog ised</w>
an ium</w>
accur acy</w>
ragh uram</w>
flexi bility</w>
tibet an</w>
qu et</w>
king dom
ju stly</w>
j s</w>
j at</w>
explosi ves</w>
embar r
de m</w>
bal an</w>
baj rang</w>
a- 1</w>
vijay var
publ ish</w>
no. 3
controversi es</w>
att ach</w>
ain ment</w>
z ampa</w>
un lock</w>
re sted</w>
cool ing</w>
cogniz able</w>
un changed</w>
shekha wat</w>
semin ars</w>
dir ty</w>
consi sted</w>
co- star</w>
bo b</w>
196 4</w>
wh os</w>
sho ots</w>
ric ha</w>
par ked</w>
ha ta</w>
cri tic</w>
command ments</w>
bhas kar</w>
bab bar</w>
ap pra
announ cements</w>
tox ic</w>
pat rol</w>
nd ma</w>
memor able</w>
intensi fy</w>
flor ida</w>
flexi ble</w>
confron ted</w>
ad al
spec t
s lot</w>
pre y</w>
mem bran
initi ating</w>
floo ded</w>
fi xation</w>
d b</w>
upro ar</w>
t bsp</w>
sun ni</w>
sar ban
orthodo x</w>
35 a</w>
v ations</w>
sway am
strength ens</w>
reci proc
rajapak sa</w>
qu ie
p able</w>
min ster</w>
le y
ce able</w>
ac company</w>
tex as</w>
tal ents</w>
ka thua</w>
ha veli</w>
co c
ar dhan</w>
wrong doing</w>
st even</w>
shar an</w>
presum ed</w>
n and</w>
man ned</w>
ag ro</w>
1, 6
remem bering</w>
pe ts</w>
nd tv</w>
mon ument</w>
do se</w>
co lo
carri ers</w>
b anda</w>
b ali
sur i</w>
si zed</w>
shar dul</w>
regul ating</w>
part e</w>
k hal
cour tes
cor dial</w>
brah map
poli o</w>
no d</w>
kyr gy
enter taining</w>
bur ned</w>
brah ma</w>
as hi</w>
anth ony</w>
.11 .2016</w>
thu gs</w>
ri z
jammu -
expen se</w>
dra in</w>
develop s</w>
cred entials</w>
1 15
up holding</w>
tur ner</w>
mo ha
kadap a</w>
ir o</w>
happ ily</w>
ventil ators</w>
ta -
sti ll
respon sive</w>
nad al</w>
incul c
har simr
exha us
cha os</w>
ayurve dic</w>
ar shan</w>
sle w</w>
q amar</w>
proxim ity</w>
dimen sion</w>
av at</w>
at tribute</w>
we t</w>
um -
ste red</w>
rhy th
mah ila</w>
l il
k at</w>
hol es</w>
doz ens</w>
dist ressed</w>
cre ature</w>
17 4</w>
.0 5</w>
jaish-e- mohammad</w>
found ations</w>
ep f</w>
secre tly</w>
sant ner</w>
mar ia</w>
in du</w>
discrimin atory</w>
chron ic
be ware</w>
be have</w>
ad am
a we
teas er</w>
sk i</w>
pu p
nep ali</w>
kashm irs</w>
j ds</w>
1, 8
v hp</w>
str ous</w>
rs. 3
rish na</w>
lyn ching</w>
le ban
l it</w>
in ability</w>
disappe ared</w>
del ta</w>
cy pr
ce ased</w>
cam bo
bul le
unci ation</w>
teenag er</w>
saur ashtra</w>
li mb
le ak
k evin</w>
in der
in consistent</w>
heg de</w>
dis sent</w>
clear ing</w>
be fore
al e
afore mentioned</w>
a ired</w>
2, 9
wil t</w>
rebel li
p. m</w>
occup y</w>
le ments</w>
conce ded</w>
secre ts</w>
ro z
recogn izing</w>
no. 6</w>
lingu istic</w>
lik eli
honor ary</w>
her ald</w>
ear ne
195 4</w>
semi finals</w>
mahar ash
ki b</w>
ind ranath</w>
g w</w>
compli ant</w>
break fast</w>
tic ated</w>
som nath</w>
pro ba
per mitting</w>
na il</w>
exha u
dre am
vo c</w>
un rest</w>
sco rer</w>
n cl
fat ality</w>
end uring</w>
ben ches</w>
attr acting</w>
agre es</w>
sp ra
ri ot</w>
li ars</w>
ist ed</w>
demo graphic</w>
chandrashe khar</w>
activ ated</w>
absor bed</w>
2 40</w>
ron al
pro mul
k hel
he ir</w>
hand ing</w>
colum bia</w>
bul and
ali gned</w>
abo lition</w>
wh il
v ani</w>
un it
th en
stat es
ric ky</w>
practic ing</w>
por e</w>
mour ning</w>
in car
e aten</w>
c us
abe th</w>
tari an</w>
ss b</w>
sk illing</w>
pl enary</w>
jai ram</w>
fire .</w>
worsen ed</w>
sel fish</w>
disbur sed</w>
broad ly</w>
ae gis</w>
un certain</w>
ro m</w>
rec alling</w>
inc ess
fron ts</w>
form alities</w>
ephes ians</w>
eff ic
e. g.</w>
bhup esh</w>
all- knowing</w>
vijayvar giya</w>
thir ds</w>
sk i
s est</w>
prin ces</w>
pavil ion</w>
n sa</w>
l g</w>
im part</w>
baram ulla</w>
aband on</w>
way ne</w>
sali m</w>
prec is
p mc</w>
integr ate</w>
down loaded</w>
conclud es</w>
20 24</w>
ud hampur</w>
quin tal</w>
na di
zak ir</w>
sp her
rec ord
pen alties</w>
op pression</w>
narasim ha</w>
h t
g ile
bas ket
tho od</w>
dar bhanga</w>
consul ting</w>
janm abho
imp acts</w>
hiz bul</w>
en closed</w>
co ding</w>
str ateg
p ml
g us</w>
dr ones</w>
d da</w>
, 500</w>
un ath</w>
rit ual</w>
haz are</w>
enti c</w>
de part</w>
au n</w>
ar thur</w>
vol ati
viti ated</w>
tro ll
sor ts</w>
po pe</w>
n c</w>
en qu
care y</w>
appl ause</w>
1 17</w>
pos sessions</w>
es ome</w>
acc laimed</w>
th ala</w>
dic ally</w>
ch ment</w>
13 9</w>
1 18</w>
v esh</w>
un expected</w>
j or
influ en
im moral</w>
im mer
tal e</w>
rel ent
mir acle</w>
inf ecti
histor ically</w>
fac e-
bulle tin</w>
y 20</w>
sw ag
seam less</w>
reser vations</w>
r w
ne pal
mis led</w>
l ash</w>
holi days</w>
distur b
di was</w>
yu va</w>
st ell
squ ared</w>
no des</w>
inti mation</w>
in firm
ash wani</w>
adjust ment</w>
6- speed</w>
so hail</w>
persec uted</w>
marke t
mad ha
l ender</w>
isha an</w>
infirm ity</w>
infil tr
e ering</w>
tap e</w>
tac tics</w>
surge on</w>
s ni
p. c</w>
mon d</w>
kish or</w>
int act</w>
hazar dous</w>
goo d.</w>
ev asion</w>
awa its</w>
tr as</w>
sim on</w>
sang e
provo ked</w>
pione ers</w>
jim my</w>
jap ur</w>
foot ing</w>
eleph ants</w>
con ges
vis -
thr ashed</w>
sym path
pin aray
li ed</w>
es cor
commen cing</w>
chin a-
brahmap utra</w>
bod ys</w>
ar isation</w>
13 -megapixel</w>
sik ri</w>
r y
ming ly</w>
ka -
fru strated</w>
ex ported</w>
enqu ired</w>
ati a</w>
ak a
th ing.</w>
sri kanth</w>
sha m</w>
r ings</w>
poss essing</w>
p ig
no. 7
harsimr at</w>
emer ges</w>
e tho
auth entic</w>
adit i</w>
stu bble</w>
slau gh
ob server</w>
lac s</w>
harv ard</w>
gra b</w>
fav oured</w>
el dest</w>
be ef</w>
5 5
wide -
re course</w>
om itted</w>
mr c</w>
ir relevant</w>
impl ies</w>
correc ted</w>
ri ft</w>
reta ilers</w>
rat ings</w>
portra yed</w>
modul es</w>
gaj endra</w>
every ones</w>
en lar
contr acted</w>
afflic ted</w>
19 0</w>
13 8</w>
sist ence</w>
no tion</w>
inv it
dump ing</w>
dam s</w>
cypr us</w>
bet i</w>
ab str
sop his
matri monial</w>
in visible</w>
fe derer</w>
bra vo</w>
add l</w>
9 9
sum it</w>
sha kib</w>
occup ants</w>
ma a</w>
ang i</w>
adju sted</w>
yash want</w>
yad av
sum mar
pinaray i</w>
hang ed</w>
h irani</w>
cur sed</w>
con clusive</w>
co chin</w>
ad ani</w>
sec t</w>
r att
pre vents</w>
nutri ents</w>
ma ize</w>
kar am
scre ens</w>
n ick
im an</w>
frac ture</w>
fl ats</w>
com pati
chick en</w>
basket ball</w>
b end
anal o
v eng
su kh</w>
rick shaw</w>
nav i</w>
k om
dis plays</w>
wa ived</w>
poo rest</w>
pl ight</w>
per ish</w>
not eworthy</w>
mo dest</w>
cor p</w>
colum ns</w>
ar aria</w>
t als</w>
pro tot
n ima</w>
j d-
disturb ance</w>
defec ation</w>
clin ic</w>
a res</w>
vil le</w>
ve hem
re alizing</w>
po ors</w>
p ond</w>
decisi on-
coura geous</w>
re pos
pho gat</w>
per tains</w>
fa res</w>
f ra</w>
dem ons</w>
acc uses</w>
z i</w>
saf dar
mono theism</w>
incu b
hac kath
after ward</w>
affili ation</w>
a was</w>
.1 9</w>
v m</w>
thro wback</w>
servic emen</w>
micro -
marath a</w>
kend ras</w>
j ad
fa f</w>
d ressing</w>
cra zy</w>
bl in
12 1</w>
vi vo</w>
us arai</w>
un authorized</w>
restric t</w>
pri ori
hil ly</w>
fail ures</w>
expand able</w>
encoura ges</w>
bl i</w>
bail able</w>
3 .</w>
spe ar
sli de</w>
neighb or</w>
k ick
infecti ous</w>
desper ate</w>
contra vention</w>
bu c
ur s</w>
li eu</w>
indian- american</w>
he m</w>
gener ic</w>
fore fathers</w>
conserv ative</w>
br o</w>
as im</w>
3 gb</w>
25 6gb</w>
ur gency</w>
obli ged</w>
l ish</w>
j o</w>
islam ist</w>
d w</w>
d oth</w>
cz ech</w>
appro vals</w>
2 20</w>
wak f</w>
sa ha
real m</w>
pur pos
om ed</w>
muker ji</w>
jus tin</w>
jon athan</w>
fa isal</w>
de pressed</w>
congratul ating</w>
wa ite</w>
u i</w>
ter rain</w>
tan ker</w>
so ap</w>
sahar anpur</w>
ric k</w>
mer cy.</w>
clo sest</w>
cap tioned</w>
24 -
val our</w>
to ol
sou thee</w>
pris ons</w>
imag ined</w>
g 20</w>
fo s
spectac ular</w>
si gh
sat yag
ja iled</w>
gr u
broad er</w>
analy sed</w>
safe guards</w>
real me</w>
panch kula</w>
may a</w>
labou rer</w>
ide o
id bi</w>
embr ace</w>
bor is</w>
4 00
weigh ing</w>
tuber cu
s ne
recomm ends</w>
pl a</w>
mo tivation</w>
e dic
co v
braz ilian</w>
am an
all- india</w>
13 2</w>
1 11</w>
resili ence</w>
regist ers</w>
o live</w>
net fli
in door</w>
in charge</w>
hi k</w>
contra diction</w>
3 60</w>
vi p</w>
prith vi</w>
pot ent</w>
mul titude</w>
modi fy</w>
le wood</w>
far az</w>
en shr
commer ci
ab ram</w>
uplo ad</w>
u le</w>
susp end</w>
rebel s</w>
opti mis
inte st
indo- pacific</w>
es -
distingu ish</w>
dis solved</w>
chha trapati</w>
8 ,000</w>
sc ep
pml -
new er</w>
lo oted</w>
haz ari
fi ghts</w>
endor sed</w>
confi dential</w>
an other.</w>
19 40</w>
re mn
practi tioners</w>
pleas ing</w>
persist ent</w>
new born</w>
multi ply</w>
midd le
gol f</w>
exc itement</w>
eliz abeth</w>
command ment</w>
az mi</w>
assam ese</w>
w alia</w>
s ket
pres sures</w>
n ar</w>
mir acles</w>
mac ron</w>
exp on
escal ated</w>
dynam ics</w>
be z
she er</w>
sec ul
sab ka</w>
precis ely</w>
p sc</w>
inter fer
gur meet</w>
f l</w>
devo id</w>
competi tiveness</w>
co- founder</w>
cap e</w>
beg usarai</w>
av in
ab ducted</w>
utili ze</w>
o val</w>
nation -
in duc
fro zen</w>
exhibi tions</w>
ex pose</w>
ex porter</w>
co di
aud itor</w>
am ru
5 4
wid ening</w>
sel ecting</w>
na ze
in r</w>
guar ded</w>
termin als</w>
o ils</w>
not .</w>
mer chandi
j r</w>
individu ally</w>
hi ya</w>
gile ad</w>
for got</w>
f an
cor n</w>
atlan tic</w>
y l</w>
th read</w>
srini vas</w>
sha l
prith viraj</w>
mur ders</w>
methodo logy</w>
ira qi</w>
concentr ated</w>
veter inary</w>
vene zu
treas ures</w>
tan gible</w>
legisl atures</w>
help ers</w>
gan esha</w>
ep ic
cpi -
a es
.10 .2016</w>
re wards</w>
n gt</w>
editor ial</w>
conver ting</w>
sac ked</w>
pro stitu
per forms</w>
min ence</w>
mar t</w>
kush waha</w>
krishn apuram</w>
hydr o</w>
feasi bility</w>
bla ir</w>
vir bhadra</w>
tul si</w>
suppor tive</w>
maha bharata</w>
ko th
exce l</w>
con current</w>
cardi o
.0 9</w>
util isation</w>
suppl ier</w>
spon sor
protec ts</w>
mumba i-
messa ging</w>
f ak
d ged</w>
con fin
cam bridge</w>
bra ke</w>
bench mark</w>
ar aj</w>
anti- corruption</w>
an ir
spir its</w>
sen sation</w>
n ile</w>
miti gation</w>
dispat ched</w>
ul ture</w>
u ch</w>
sub section</w>
k ock</w>
ar baaz</w>
turne d-
sha la</w>
nir mal</w>
mou se</w>
elec tors</w>
command ant</w>
ari ans</w>
an na
allevi ation</w>
y ami</w>
tor ah</w>
sl ated</w>
sen sing</w>
offic e-
nex us</w>
b read
all- wise</w>
ab a</w>
won dered</w>
trac ing</w>
sen ator</w>
pur ported</w>
on er</w>
oce ans</w>
no. 2
graph ics</w>
dro ve</w>
divi ding</w>
del inqu
chil lies</w>
- i</w>
wheel ers</w>
stoc k
mad rid</w>
he ating</w>
bo iling</w>
att aining</w>
absor ption</w>
14 2</w>
veter ans</w>
var ying</w>
th is.</w>
sha ping</w>
re sting</w>
for bid</w>
fa sting</w>
ex ag
dwar ka</w>
dimen sional</w>
d ale</w>
cros ses</w>
conson ance</w>
clean er</w>
ban ning</w>
ba h</w>
av al
architec tural</w>
tubercu losis</w>
on us</w>
muse ums</w>
kon kan</w>
ko de</w>
em ent
courtes y</w>
at tributes</w>
w cd</w>
tur moil</w>
shim ron</w>
modi fications</w>
mil ind</w>
j c</w>
god se</w>
av sm</w>
apo logi
3. 5</w>
vol can
sl apped</w>
re visional</w>
re d.</w>
pri va
pare l</w>
ori um</w>
ide ological</w>
doc k</w>
belie vers.</w>
sup pressed</w>
r ashtra</w>
nar ain</w>
j ones</w>
influ ences</w>
in sa
gi ants</w>
fi ber</w>
chall an</w>
telec ast</w>
proc ure</w>
migr ated</w>
ka poors</w>
inter n
ha voc</w>
gl asses</w>
dou se</w>
cr ashes</w>
chak ra</w>
bl ank</w>
better ment</w>
ay uk
ast on
world- class</w>
up -
rac ing</w>
prosp er</w>
l an</w>
fore stry</w>
diplom ats</w>
aug ment</w>
anony mity</w>
sam son</w>
s cou
repor ter</w>
pate kar</w>
pand ay</w>
naze er</w>
mud ra</w>
likeli hood</w>
il al</w>
his ar</w>
ea st
dang ers</w>
correspon dence</w>
ate -
abi ding</w>
1 20
plan ting</w>
pa i</w>
oc ation</w>
de tri
d jo
ch oc
12 3</w>
visi bility</w>
sol anki</w>
knowled ge.</w>
kan ta</w>
k as</w>
deep est</w>
wat er-
viol ative</w>
travel s</w>
ti de</w>
reli eved</w>
ki er
haz lewood</w>
fle w</w>
dar bar</w>
d l</w>
d are
con formity</w>
car pet</w>
box er</w>
ad o
wrong ful</w>
worshi pers</w>
tal es</w>
spec im
sou za</w>
sel fl
psycho logy</w>
out lined</w>
no s
neel am</w>
mur ali</w>
ml c</w>
mir z
gri p</w>
gi fted</w>
fe min
en du
div yang
bop anna</w>
advan cing</w>
wu han</w>
worshi ppers</w>
tra ded</w>
shoul dn</w>
rs. 2,
ronal do</w>
re patri
merchandi se</w>
for bes</w>
dri ed</w>
do ord
swee ts</w>
safdar jung</w>
phosp hor
joy ful</w>
tom ato</w>
sub- rule</w>
sing ers</w>
simpli fied</w>
lo v
land .</w>
k ick</w>
infring ement</w>
ac es</w>
tri ps</w>
rin se</w>
list en
ge ome
cad res</w>
c and
asser tion</w>
al is</w>
14 7</w>
z en
ton y</w>
syll ab
smo o
k re
inten tionally</w>
g nations</w>
ex- showroom</w>
be ats</w>
baj payee</w>
16 -megapixel</w>
tm yer</w>
modern isation</w>
je wel
he tmyer</w>
d hol
cutt ack</w>
climb ed</w>
bag hd
vou ch
va i
tou gh
tamil nadu</w>
swe pt</w>
for ge</w>
e j
dro pping</w>
car d
blo wn</w>
ag grav
vision ary</w>
ve il</w>
ti pur</w>
su raj</w>
pione ering</w>
narco tics</w>
molec ular</w>
habit at</w>
cambo dia</w>
ste c</w>
ner ve</w>
l um
in age</w>
gun a</w>
educ ation
assu res</w>
viz .</w>
vehem ently</w>
se mi</w>
pakistan- based</w>
id ity</w>
concer t</w>
valid ation</w>
poll ard</w>
o aths</w>
hom me</w>
assi gn</w>
anton io</w>
all en</w>
5 .</w>
.. ...</w>
sur inder</w>
pl ates</w>
jehova h.</w>
horizon tal</w>
ham i</w>
d ri</w>
be dro
b him
asser ting</w>
ti ll
th waite</w>
teleph onic</w>
pi e</w>
pestici des</w>
netfli x</w>
lac ks</w>
ko da</w>
in tox
facilit ated</w>
bel l
treas u
re alities</w>
ot sav</w>
n aked</w>
gra bbed</w>
endeav or</w>
dan ish</w>
y ani</w>
tab lets</w>
sha ke</w>
pra y
padma avat</w>
o ft</w>
kul gam</w>
comp iled</w>
cl ue</w>
bun ch</w>
benefic ent</w>
ad here</w>
accred itation</w>
u. s.
tak er</w>
s si
reg ret
pml- n</w>
par gan
appen di
14 9</w>
wo akes</w>
spic e
s g
ri p
re pro
rab indranath</w>
pand e</w>
osc ar</w>
key board</w>
hun ting</w>
continu ity</w>
conce p
15 3</w>
thr illed</w>
rac ial</w>
od f</w>
interrog ating</w>
impe achment</w>
cli mb</w>
bacter ial</w>
w ad
v ague</w>
resp ecting</w>
gh ee</w>
d c
at us</w>
30 4</w>
25 -
su bodh</w>
par ticle</w>
mar tial</w>
m. p.</w>
ko zhi
inspec tors</w>
deb tor</w>
amalgam ation</w>
tri vendra</w>
sustain ing</w>
shor ter</w>
sc anning</w>
ra d</w>
pel ting</w>
life -
la in</w>
kill er</w>
ke ting</w>
jj ar</w>
g ases</w>
focus sed</w>
conces sions</w>
complain ing</w>
av ane</w>
rebelli ous</w>
endeav ours</w>
develop er</w>
al o</w>
ud an</w>
spe eding</w>
road show</w>
prac tically</w>
p n</w>
lo hia</w>
k ay
indi a.
ic j</w>
gun fight</w>
def erred</w>
bin dra</w>
z uc
ur ia</w>
mis used</w>
k arm
ju dic
g ir</w>
fun ny</w>
cred its</w>
convin cing</w>
cha sing</w>
av atar</w>
ahmed nagar</w>
ad ha</w>
ve das</w>
up i</w>
um ari</w>
shra mik</w>
mer ge</w>
de b</w>
cross -</w>
.03 .2017</w>
we l</w>
v ector</w>
u ting</w>
st alled</w>
sar faraz</w>
mao ists</w>
hi e</w>
d are</w>
syn chron
su render</w>
skir ts</w>
quarter finals</w>
o de</w>
mother -in-law</w>
grand homme</w>
ec raft</w>
dem i</w>
bl iss</w>
we igh</w>
un clear</w>
sir sa</w>
s its</w>
organis ers</w>
op y</w>
nas hik</w>
mat ory</w>
man ali</w>
m af
ir regularity</w>
helpl ess</w>
govern ment-
doord arshan</w>
con cur
ar ticul
ambul ances</w>
sarban anda</w>
res .</w>
repe aled</w>
rendra modi</w>
recru ited</w>
r ld</w>
hum bly</w>
hon ey
hal ted</w>
etho s</w>
djo kovic</w>
bhand ari</w>
ac ked</w>
un le
se hra</w>
promp ted</w>
mon aster
mathema tical</w>
mal nutrition</w>
hac ked</w>
dis grace</w>
complic ations</w>
ap na</w>
sabar mati</w>
raig arh</w>
entreprene ur</w>
formul ate</w>
ency clo
de ve</w>
chait anya</w>
b t</w>
sp reads</w>
sm ell</w>
ser p
pip e</w>
interfer ing</w>
im ti
g- 20</w>
g aria</w>
enum erated</w>
dha dak</w>
de d.</w>
cont ending</w>
c as</w>
aper ture</w>
ag e.</w>
adequ ately</w>
up endra</w>
u jj
sam ar
prof essors</w>
pol es</w>
phar is
par all
kum ars</w>
k all
c tic</w>
c es
b ima</w>
ate .</w>
ap te</w>
ad just</w>
w ade</w>
san ta</w>
p hal
nal anda</w>
mor tuary</w>
mig -
m f
kaml esh</w>
iss ance</w>
impar ted</w>
ed ges</w>
div ya</w>
death .</w>
bab asaheb</w>
ann y</w>
al im
va is
tri -
tiz e</w>
tax able</w>
shut down</w>
s light</w>
reconc iliation</w>
prac ticed</w>
ne arer</w>
e dible</w>
dismis ses</w>
clear ances</w>
che ated</w>
at om</w>
anti- national</w>
ang ela</w>
y ap
swi f
subscri be</w>
sour cing</w>
re alization</w>
pak sha</w>
man ju</w>
lok ayuk
hur ri
dg ca</w>
conges tion</w>
b r</w>
un grateful</w>
th ief</w>
telecommunic ation</w>
ment or</w>
ma il
go v</w>
gang war</w>
comp elling</w>
bha v</w>
ap i
ang al</w>
40 -
p ouring</w>
ministr ys</w>
meen akshi</w>
in ld</w>
hor ror</w>
for nic
foot steps</w>
brah min</w>
vis u
us b</w>
ic -
fin ely</w>
da c</w>
ch ess</w>
an tar
an no
7. 5</w>
195 3</w>
za heer</w>
vide o-
teh ran</w>
panch nama</w>
exp i
cer y</w>
biot ech</w>
ater ally</w>
arab s</w>
ar ism</w>
anan di
ven ues</w>
th ol
me hra</w>
juris prudence</w>
inci dentally</w>
hes itation</w>
har manpreet</w>
distric t-
ay al</w>
strugg led</w>
lun gs</w>
indul ged</w>
div ul
separati st</w>
predomin antly</w>
insur gency</w>
de ed
avin ash</w>
4 .</w>
19 45</w>
ro o
na ya</w>
infer ior</w>
ch ile</w>
whil st</w>
wa ste
ton gues</w>
la sted</w>
l ng</w>
d ac
bar ring</w>
b lows</w>
zuc ker
vi j</w>
un divided</w>
reli eve</w>
pra is
ob es
neg ligent</w>
merch ants</w>
medi eval</w>
kozhi kode</w>
kill ers</w>
k ad</w>
discre tionary</w>
dd ca</w>
all y-
who so</w>
syner gy</w>
malay sian</w>
la thi</w>
def ects</w>
b n</w>
ation s.</w>
a we</w>
unic ef</w>
sh y</w>
pleas es</w>
pi b</w>
nar avane</w>
ini qu
ga ther
g ay</w>
e ta
dis solution</w>
appra isal</w>
7 ,000</w>
50 th</w>
val ent
ti gers</w>
st ur
khel o</w>
dra ma
di re</w>
c m
ari ties</w>
ail ments</w>
vi rendra</w>
stor y
so dium</w>
sh id</w>
sam as
ro ver</w>
r t
r c
pe de
gover n</w>
ga h</w>
dar je
bro ch
bim stec</w>
adi a</w>
9 0
28 8</w>
tall est</w>
sel lers</w>
jo fra</w>
imper ial</w>
gu ter
dis placed</w>
c on</w>
auditor ium</w>
as leep</w>
as aram</w>
ab ated</w>
vehic ular</w>
m au
jap ati</w>
honest ly</w>
ty re</w>
t abl
spice jet</w>
sha ken</w>
sar i</w>
mt nl</w>
interfe red</w>
cr ush</w>
centr alized</w>
trans ferring</w>
tham ud</w>
testat or</w>
raj yav
raj at</w>
qui z</w>
indigen ously</w>
homoe opathy</w>
deepen ing</w>
corpor ates</w>
appropri ation</w>
ade la
00 1</w>
y i</w>
y ech
yech ury</w>
virtu ous</w>
tou ches</w>
rab ada</w>
mam m
jac ket</w>
hu n</w>
host els</w>
hill ary</w>
gabri el</w>
choc ol
bap u</w>
air a</w>
tam i</w>
syndic ate</w>
pat rolling</w>
mongo lia</w>
harass ing</w>
ev ils</w>
earth qu
deva stating</w>
bl asp
1 13</w>
tack ling</w>
retali ated</w>
repu ted</w>
op tional</w>
nichol as</w>
mo dal</w>
j indal</w>
exce eds</w>
e- based</w>
bi om
adela ide</w>
um pires</w>
pa thetic</w>
k de</w>
illu strate</w>
go kha
fa i
en i</w>
di version</w>
cooper atives</w>
bjp- shiv</w>
ad ays</w>
wel comes</w>
wan ting</w>
ten ds</w>
scri ption</w>
restra in</w>
pain t</w>
no. 5
me too</w>
ma tive</w>
lifel ine</w>
[...]
